[PAD]
[UNK]
[CLS]
[SEP]
[MASK]
<S>
<T>
!
"
#
&
'
(
)
*
+
,
-
/
;
?
@
_
`
a
b
c
d
e
f
g
h
i
j
k
l
m
n
o
p
q
r
s
t
u
v
w
x
y
z
{
|
¡
¤
¥
¦
§
´
º
¿
×
ß
ð
ı
œ
β
е
–
€
∕
##e
##i
##d
##u
##s
##t
##n
##w
##a
##c
##h
##r
##p
##o
##l
##ß
##y
##m
##k
##j
##z
##b
##g
##x
##v
##f
##ı
##€
##¦
##´
##q
##е
##¤
##β
##œ
##ch
##er
##en
##in
##ie
##st
##nd
##ich
##ei
##ir
ich
##an
##ll
##ein
da
und
la
du
##eh
##au
##al
die
##on
sch
##ar
##ur
ein
##or
wir
##ach
au
oh
##mm
##icht
##es
##och
ha
##it
das
##el
so
der
##ann
wie
ist
##te
in
##enn
nicht
##gen
st
##as
all
##ben
##ck
zu
##der
he
mir
##ah
mit
##et
un
##ag
es
ver
##ut
##ier
mich
nach
##ind
dich
mein
##em
auf
lie
le
do
##is
sie
dir
##rau
geh
##at
##ing
den
th
##oh
##ill
an
##eit
uns
nur
war
schon
##ig
doch
noch
ko
er
ge
was
##ss
fr
##ne
ma
##mmer
na
##un
##sch
##le
wenn
will
sind
lieb
##uh
sp
wei
wo
##anz
im
fur
wieder
dann
##ber
##und
##ten
dein
bl
##aus
hab
bin
be
##ern
her
##de
the
##alal
##ist
nie
von
immer
##and
##mal
##ot
ja
al
##lich
##ol
##ang
yo
je
ba
##uck
bist
komm
am
aus
kein
gl
we
##ehr
denn
kann
leben
sein
##am
##bt
tr
nacht
##om
##ter
##ad
##os
alles
bei
ne
gr
re
##cht
##iel
mach
##imm
ganz
##ff
liebe
##ahr
ih
##art
##etz
hat
auch
alle
you
br
to
hey
and
mehr
dr
##den
##lle
man
mal
##ste
vor
hier
schw
kl
sag
seh
##um
herz
fl
##ft
##ke
me
##pp
##ute
##ay
trau
weiß
wh
dies
wer
##all
##etzt
tag
eine
##elt
##uss
allein
li
son
##re
##oll
##gal
geht
##od
##ge
dass
zw
##me
gi
##eiß
heut
##ht
##ort
wird
ges
##op
dem
##us
su
##ick
verl
mor
jetzt
##fen
um
##eil
meine
##chen
heute
schl
##ve
ho
it
bis
##il
##ver
lass
fe
sich
##gend
lang
welt
se
hal
brau
lo
my
dop
ab
dur
##uhl
viel
##ap
##gt
weil
woll
##immel
zeit
##ink
ihr
is
##ra
gluck
steh
ir
##ma
deine
gef
##acht
##end
voll
##sen
##ow
##sten
##gendw
de
lal
hast
hu
himmel
dup
fre
zum
##ung
ohne
##se
egal
##id
hand
##under
durch
##bei
irgendw
bier
ch
blei
zwei
ber
go
hin
##ight
uber
en
sau
##ik
ar
##fach
haus
als
malle
einfach
##fe
tanz
aber
##ce
ins
##ia
nichts
##men
mann
weit
##onn
einmal
mo
geil
kn
##ahl
##ere
end
##ent
gibt
woh
##pf
morgen
gut
##be
lu
ta
##ala
mar
for
fei
oder
##schen
klein
pr
##gel
##ass
gro
glau
macht
##ze
einen
keine
##ller
##kt
no
##ue
flie
pl
part
hei
ye
##alalalal
sonne
weg
bo
augen
##mals
halt
##uch
fahr
te
mi
party
wunder
frei
kr
##di
##bl
ro
##ul
##inn
jeder
brauch
##uer
jahr
don
ooh
##ingen
spr
on
##by
feiern
haben
dar
##ucht
##ab
gen
muss
##bo
##uhr
nein
##ehen
str
zur
lau
##unde
who
sing
hol
sh
##eht
traum
##agen
##iert
spur
jed
gehen
kommt
scheiß
groß
hor
los
##ster
gel
denk
baby
##ehn
hoch
##ns
##ca
verg
ah
hau
aben
##nen
unser
schau
di
geb
par
##agt
##ant
##ett
##ausend
niemals
##erne
vorbei
##ken
##isch
##amm
##anan
kopf
get
lei
ob
bes
##keit
willst
##ust
##allt
glaub
heim
ra
wind
##im
##iv
##ennt
tausend
spiel
##ome
nah
##per
that
konn
up
verst
life
ole
ru
##th
jeden
yeah
uh
traume
saufen
fuhl
##ack
dam
gesch
of
frau
schne
##orca
stern
zie
vers
kannst
night
##oren
abend
bit
sei
##so
##ka
mall
diese
bleib
schr
##ohn
mallorca
ever
##dop
mad
wein
dieser
mus
##uß
unter
gem
##orn
scheiße
find
ti
wur
##her
mama
gar
##ed
lach
soll
schwer
ganze
richt
singen
##ief
##atz
##ion
##ug
##ser
##bar
your
zuruck
vie
woch
##iff
lama
hub
bau
gern
heiß
licht
##ic
dabei
schla
wor
##eln
tu
##orf
nen
nimm
##ast
deinen
wit
erst
##ause
every
ste
##iebt
land
schen
eins
weiter
jedes
##br
irgendwann
ey
raus
##aß
##ana
##itz
gew
##old
manch
verlier
gefuhl
verd
ihn
##inken
bitte
vom
sieben
klar
glucklich
pass
zug
sehns
sehnsucht
##oo
##koh
##ong
wollen
sauf
##pt
##ja
star
meinem
alkoh
amor
like
fest
tut
##one
##unden
meer
endlich
alkohol
gei
tur
tre
eis
got
##leich
baller
drau
sel
##lau
beg
##ger
##ffen
freunde
hur
##aa
##mann
##ine
##ater
bring
##ahlt
pro
can
ding
ew
eh
jo
mag
frag
drei
ros
tot
wann
zei
##sst
##lo
##essen
keiner
##dy
##weh
sommer
##ahn
insel
know
whoa
come
dan
dorf
just
liegt
nack
werden
ent
with
oft
lieben
##uckt
neu
hinter
kau
moch
wol
##ayl
richtig
##heit
laut
warum
blau
hatte
more
tanzen
as
gleich
po
##ee
dapp
sow
seit
wahr
##ren
##pr
##fur
##unt
sehen
hande
mond
genau
ewig
men
##gst
einer
sterne
##att
zieh
bar
kam
##co
lasst
##adt
dort
pe
##ien
##los
stand
meinen
##iss
gest
ot
##ice
##ain
##ba
wirst
haar
##eter
lied
waren
weißt
co
fang
wieders
blick
dieses
ende
strand
saufi
des
##ling
##fel
suff
steht
mode
otze
##bst
##esen
stei
machen
##ump
irgendwo
gemacht
scheißegal
et
rei
##emann
beide
krie
mut
or
##itt
##ada
##lleicht
arsch
vielleicht
modeste
kenn
wach
##zen
##ers
##ieß
dafur
verr
this
##lichkeit
regen
what
bleibt
manchmal
tun
##samm
##ok
##land
gehort
##schein
werd
verliebt
sternen
did
let
neh
wirk
zusamm
ged
spaß
sah
dub
stadt
lalala
holz
schenk
bel
sehr
##ub
lacht
##ess
fun
pa
sk
geben
jede
hause
rein
##che
##ont
##schw
sagt
sonnen
deut
##onna
##iva
stark
geile
fall
sagen
meiner
laud
total
at
put
pill
si
##ny
##ena
##eint
##alt
gehn
tran
where
verruckt
cl
fallt
wah
##ian
##ud
##ehl
##ckt
hell
lalalal
kleine
el
ll
##iz
##ipp
beste
amo
dreht
tage
she
bunt
yah
dab
einem
blo
kommen
recht
fie
john
tief
##wn
##ies
##llt
oho
fruh
keinen
##ody
hoff
feel
##dopdop
passiert
bett
zahlt
##fr
##ina
##uhle
good
sprach
now
nochmal
##arts
lala
fliegen
haut
paris
pillemann
johnny
but
##lang
##zu
##sta
scha
##ord
##rauber
beim
bisschen
##ild
love
luder
zusammen
gold
qu
##era
denkst
ballermann
fing
fort
gonna
pap
tayl
##nung
##els
##issen
sieht
here
irgendwie
wohl
taylor
hut
letz
not
rau
vier
way
##ton
##omm
##fl
##aut
##ele
been
brennt
woho
vergessen
pal
want
##dr
##warts
##ore
alice
back
rosen
fehl
viva
##ße
##ied
##ieben
stra
gehst
schonste
##amp
grun
sagte
herzen
tanzt
fahrt
##uhrt
mer
one
sand
ve
##he
##ooh
##body
dun
dot
##ise
warst
rote
wirklich
em
link
mei
dat
feuer
wochen
drauf
bass
ei
ging
hen
kuss
oooh
reiß
##ro
##fer
erde
traumen
when
alleine
wollt
lalalalalal
daran
schnell
woche
jung
mom
nana
ok
per
zart
##hst
##kel
##ank
##ony
##onig
schn
mex
plan
##blick
jedem
##nsinn
besser
madchen
time
deutschen
wahnsinn
buss
dj
fast
hel
ol
pur
vo
##ai
##ci
##ßen
schm
##ieren
braucht
arm
kur
##bahn
##ert
##ende
##ita
dopp
##ischen
weiss
trinken
schwe
freund
moment
bein
tam
##net
##annt
##asch
leicht
dreh
##odod
sex
schlaf
by
kind
pol
rot
sw
##gar
##ans
schick
namen
lieber
best
tra
gib
geld
##ammt
bussi
weh
##ald
scheint
stur
##cker
zuh
##alalala
alte
never
machst
ihm
play
darf
heimweh
versteh
verdammt
finger
dis
jan
nem
rh
ohoh
verm
##atten
schoner
from
werde
mio
musik
wurd
gestern
cia
nat
##nt
##komm
##ela
dod
unsere
kom
liebst
auswarts
neue
dee
augenblick
wunderbar
ag
rad
##day
##pe
##get
still
unend
vert
##oha
besten
aloha
lebens
see
zeig
sowie
ciao
are
echt
hy
korn
sen
sitz
##umm
##ard
aller
heja
unsre
verloren
##undert
bleiben
##iko
haupt
konnte
##eep
mensch
steigt
nehm
paar
lalalala
fiesta
links
okay
hoh
ni
ton
##pen
##gl
##anke
schatz
hall
ster
##ette
lea
##igh
##unter
deinem
sagst
konnen
neues
nun
que
wa
##dam
##eins
ersten
deiner
glas
super
enten
flieger
horst
ner
sa
##rig
##oss
##ly
##licht
##kl
ladi
##ager
fragen
grad
song
stehen
##uld
wolken
sowieso
bu
dick
pan
tit
##ace
##ving
schatten
##orgen
start
there
blue
hatt
gefallt
aha
parad
hutte
fo
hundert
kar
oben
ur
zer
##ph
##angen
##anken
##ase
lebt
erz
bell
##ander
##ama
drum
sehn
lange
look
bereit
marie
bock
lauft
schneller
lacheln
everybody
##laub
hoffnung
fuhr
wid
##ti
##wo
##offen
##tet
verz
spat
beat
bail
ihre
allee
tote
traurig
sonst
musst
wurde
worte
adi
cause
euch
gir
nenn
right
sam
##inke
##auber
##test
stunden
down
lim
gesagt
holle
lust
kleines
hurra
bringt
wiederseh
mutter
feeling
wochenende
bald
high
king
kap
kennt
nich
wort
ziel
##io
##ys
##gr
dad
dazu
schalalalal
siehst
erle
diesem
live
##gegen
take
##anananan
schrei
palmen
vertrau
ach
tik
wissen
##eich
##pa
##pl
##inder
schiff
allen
leer
trink
spuren
kaum
ewigkeit
fangt
club
gab
nor
pump
wild
zehn
##car
solang
##ath
##ato
anton
frem
make
schwar
##usst
guten
glauben
rock
darum
##uchtern
hinterher
ort
gedacht
rechts
papa
mexiko
if
out
say
##aft
##rei
##ogen
##xt
solo
stimm
##assen
verschw
leb
leuch
breit
sage
zwischen
gefuhle
freed
##geln
flieg
freiheit
heimat
tausendmal
seid
schlafen
verlieren
treu
mocht
tranen
blond
rhy
far
ris
##bie
##ga
lag
lady
schrauber
##iero
##atur
##ign
gra
brem
##aps
stehn
kleinen
##ifft
heißt
sonnenschein
schnaps
polka
paradies
gas
ke
nu
sinn
satur
wun
##ide
##ner
##og
##geh
darau
last
##etter
macar
spie
jack
reg
ganzen
schwanke
##umen
geseh
seele
freu
wundersch
##blau
##boot
große
lachst
gewesen
amore
laudato
again
tonight
urlaub
dadad
saturday
hum
kuh
our
rama
##way
##mbo
##ino
dah
##esch
stuck
stay
heart
mitten
left
angst
erw
froh
vorn
##geben
halten
geilsten
fahren
fuhlst
viele
##aaa
frage
etw
krieg
diddy
sturm
hallo
widde
wunsch
gal
gerne
ind
san
##sp
##nacht
##ak
##vor
day
schad
##ennen
maja
liebt
grund
drin
vorne
give
##ople
hinten
people
bella
adios
girl
limit
hart
sach
sign
##alle
##mb
dach
##ation
anth
erste
##uhe
ander
schwimm
##idei
geiler
genug
selbst
nackidei
menschen
kurz
zuhause
macarena
anthony
ale
kong
pack
vod
vater
##ial
##ive
##uber
##tern
##po
##yle
##kind
##llen
daß
dav
schle
leute
warten
noche
habe
amster
trag
diesen
gesehen
##raft
bierk
knei
jahren
spring
##bogen
##feld
reise
regenbogen
##ascha
natascha
kornfeld
rhyth
etwas
vodka
amsterdam
ad
car
ex
ev
kater
pfer
sera
two
zent
##zehn
##gas
##str
##irp
sof
stol
sieb
ans
alt
bru
##reich
voller
beruhrt
hinaus
##ika
manner
wohin
##ula
nahm
mochte
##ianer
darauf
wunderschon
ath
com
cap
cord
fot
teil
wap
##opp
##ity
sound
verf
think
anita
##eiten
liebes
bap
gesicht
sugar
##ickt
gefahr
vollig
chirp
leider
leise
##imeter
schritt
##ugh
skand
dunkel
eigen
freedom
indianer
schadel
athen
cordula
ben
fern
home
jump
wen
wand
##ler
##blich
##eid
ohh
some
##tem
micha
lieder
##ingt
##ohnen
geg
woah
gruß
langst
dopdop
vollgas
chin
laufen
singt
horiz
abente
nahe
hubsch
einsam
##bricht
letzte
zartlichkeit
davon
horizont
fand
konig
letzt
wal
##rlich
##pfen
##lunder
##zig
##stand
##ani
##einander
##ure
aua
have
##ohoh
schone
erinn
##mmerlunder
##schaft
blitz
##ose
neben
anders
flu
hob
bommerlunder
damit
##ohnt
bauch
nimmt
funf
quiero
straße
perfe
bye
unendlich
samba
humba
pferd
letztes
holl
ju
rada
sier
tau
##app
##horn
##mand
schalalala
verk
liegen
##scht
bevor
theo
##iste
niemand
##ando
##otz
bamm
##amos
nachts
andern
##gew
schloss
fegt
wollte
stehst
himmelblau
berg
hinein
engel
knall
maria
jahre
##boy
gebr
besch
konnt
verspr
stell
verdamp
selber
sowas
playa
erleben
leuchten
zentimeter
stolz
skandal
abenteuer
sierra
air
acht
dicht
gute
hit
kor
muß
wat
##to
##tag
##tain
##we
##ate
##rot
##gehen
##ven
##enau
##ieb
##eister
##anna
steil
##isst
ani
##sche
##schied
blod
ball
brand
schwach
##alla
##gek
how
sicher
bere
geilste
mark
dong
gescheh
schnee
abends
gott
swifft
wait
bremse
signore
rhythm
captain
mind
peter
tir
wu
wahl
zahl
##tlich
##gem
##eim
schuhe
ohren
##itar
##asst
##cke
ann
##unkt
wod
blumen
kommst
west
tragt
trinke
##usen
halb
wollten
cheep
uberall
feier
gross
geboren
uhr
geschw
nights
bleibst
lichter
##laubt
wolke
##dopdopdopdop
fehler
ohoho
regnet
chirpy
hubschrauber
animals
away
bill
banan
cow
cuer
dys
hard
run
vamos
##if
##ull
##ry
##off
##li
##ßt
##yr
##kr
##ero
##enss
##ieu
##iesen
##alien
schieß
##ache
haw
verw
gebl
blut
read
andere
wert
##ollt
schluss
beruhr
luft
kleiner
heid
yeoh
boot
##innt
whooh
geliebt
schreit
hurenss
henr
sterben
##einsatz
titten
##gria
alegria
adieu
siebzehn
perfekt
wodka
hubschraubereinsatz
cuerpo
hurensson
ay
bohnen
fol
long
mill
ple
sin
sicht
sorgen
tier
##sam
##ning
##rt
##out
##ld
##zt
##enzen
##iegen
##ars
soph
stunde
dooh
##raum
##ohl
gegen
wasser
frise
##schl
grenzen
bre
schlagt
lasso
abschied
hupfen
##see
durchdr
bergen
prom
glaube
fliegt
platz
##blem
springen
mussen
spielen
fuhlen
hurt
problem
laudaaa
lalalalalalala
vermiss
hauptling
##glein
dicke
bierkonig
michaela
geblieben
atem
bom
ka
kai
nud
sil
zauber
##immer
##tr
##hart
##of
##kal
##jo
##zel
##enal
##ieden
##eih
##ance
dagegen
##urg
happ
##utt
door
##ige
kok
gez
spar
##ango
new
griff
toget
heya
dran
fly
##ree
##inkt
##ungs
zweifel
spricht
gele
getan
leid
besoffen
verstehen
##orno
eye
siebenmal
prost
nackte
kauf
pures
beinhart
radler
nix
erzahl
looking
normal
ladys
grade
schlecht
bruder
foto
cowboy
sophia
friseusen
bet
gone
ice
jem
por
ruh
wagen
##ep
##ell
##ekt
##uf
##wei
##hal
##zent
##ges
##geht
##qu
##onst
eines
##eld
inf
nachsten
denkt
bluh
wege
trei
beiden
rest
toll
schwei
weiße
##ally
schlager
braun
##ower
tagen
only
horen
leiser
##ivia
frauen
seite
##ionen
baum
baume
wanna
suffia
olivia
swe
traf
komet
hypa
verzeih
schwarze
korper
please
together
fick
ferne
grau
gam
gast
hil
kraft
min
rom
sang
us
wad
##uu
##himmel
##mo
##ker
##fall
##ire
duse
schme
nachbar
aufm
leber
##unken
aldi
seinen
reden
bringen
andre
klingt
##ked
gianna
such
suden
hopp
gefr
##ische
##ischer
spielt
zieht
versau
world
joe
coco
wiedersehen
nehmen
fruher
letzten
straßen
schweben
dodo
panik
four
##eichen
wenig
bur
fuhle
keep
loch
lena
nuchtern
ph
pf
power
tal
zeichen
##est
##eck
##ugt
##sel
##hh
##ßer
##kannt
##zug
##bul
##viel
##eng
##inity
damals
dumm
duep
##ara
##itur
##cken
three
ware
name
liebling
span
##other
alten
westen
seine
##terbahn
need
druck
##ppen
sonnt
##opft
suße
langsam
abitur
##ida
beruf
morgens
lugen
verstand
tike
beginnt
zeigt
sternenhimmel
##ippen
##frei
raum
zartlich
##kommen
hyper
ladioo
achterbahn
sofort
geglaubt
erinner
infinity
bild
cot
cold
gol
his
ik
kinder
kath
litt
met
##ile
##sal
##rad
##meister
##zial
##bau
##gang
##voll
##ens
##anbul
##eine
##arm
außer
sos
##aschen
nachte
aufs
erf
##unge
##alala
glat
##ado
##adad
##immt
ganzes
top
flo
living
zweit
##ope
umso
ihren
##ramm
##idada
arenal
tanze
knallt
marchen
prin
hold
leiden
madels
jungs
vogel
disco
bailando
dadadidada
kneipe
eigentlich
schadelweh
hawai
nudel
gelebt
gefragt
sonntag
cotton
aso
col
him
kalt
mil
nennt
op
off
pre
runter
##igen
##dem
##wind
##ha
##rist
##mut
##mat
##zeit
##bot
##eis
##alat
scho
##esse
##itan
##eliste
istanbul
mittag
verb
##inda
lebe
warme
schonsten
kol
gek
bade
wellen
##ffer
bricht
herzbe
##gef
sucht
suche
schließ
##ilm
berge
move
brauchst
sha
spurst
großen
gelacht
kopfweh
ruft
weinen
steyr
draußen
barbie
steig
hello
bestellt
bloß
unendlichkeit
hoher
zerbricht
blondes
dachte
abenteuerland
##gekuhl
gasteliste
asozial
herzbeben
fant
fuß
gu
gumm
gitar
hieß
ku
kei
koh
over
porno
renn
rat
rap
tatt
uren
##ip
##ammer
##ost
##ous
##yp
##gau
##anic
##arine
auss
##elos
heben
unbe
nachste
leck
warn
##ney
spater
bad
reich
ihnen
gibst
gesoffen
verlo
schlau
lassen
##rab
hands
durchgem
christ
uberle
also
plotz
gemeins
eismann
eisgekuhl
ehrlich
##love
danc
dorflove
haaren
belinda
##schwein
putin
fehlt
sexy
titanic
nummer
spiegel
billig
sweet
golden
little
urens
##ammergau
plotzlich
gemeinsam
ga
hot
hort
ib
mund
nir
rief
ratt
tat
tisch
won
wicht
##wer
##mas
##mlich
##je
##back
##gold
##ieht
##style
dale
##arte
soh
stopp
##etten
dom
direkt
##ille
fragt
they
##olt
##anger
jeans
##opter
verlieben
italien
feet
##endem
##gendwo
free
marina
team
schaut
##perl
verstehn
madel
finden
schwerelos
##icopter
gewollt
treue
magnet
danach
wahrheit
gestort
wiedersehn
funkel
helicopter
doppel
zuhaus
keller
freude
ballern
durchdreht
happy
jemand
schmeckt
katharine
kohle
nirgendwo
wichtig
funkelperl
eben
ger
gera
jager
lohnt
mine
nit
opt
pand
rum
##ever
##ima
##wur
##res
##mus
##fra
##err
##erei
##ene
##nder
##irt
##any
lachen
scheich
schuchtern
##arly
##ork
##ese
had
hay
ham
##eling
##asie
gehor
thom
may
liebchen
spre
herr
jambo
alter
biste
##ehrt
next
grunde
reicht
really
brennen
gesehn
morning
langer
about
lalayl
uberh
armen
place
boden
brauche
##abar
##thing
versaut
findet
##edado
sollten
heißer
everything
tutti
##oney
selten
begann
dance
nackt
kriegen
kennst
gedanken
starker
emir
schmetter
rises
kriegste
sachen
blitzt
verspricht
geschworen
ready
hawaii
verlobt
gerade
pandabar
##musik
jamboo
schmetterling
afr
beh
bahn
face
hom
hod
kuhl
mu
mart
mum
ober
roll
reiten
sunden
vi
win
wau
york
zige
##aah
##haus
##lin
##mich
##fst
##star
dap
##oro
sogar
inter
hejo
verfl
##utti
liege
thro
kolle
frutti
##uner
weiber
blas
##otie
alb
along
bambo
weich
hatten
##stellt
gesp
##eilen
sech
brauchen
loo
abr
zeiten
##stens
huft
##sed
chance
beruh
geiles
lux
prett
fliege
teu
mim
kranken
rootie
spurt
solltest
heißen
fragst
rose
totoro
inselkind
entgegen
wirklichkeit
lalalalala
butter
schicksal
dadadap
dahin
daheim
chinesen
walk
##enaugen
markus
anna
treiben
erinnerung
gitarre
urensohn
funkelperlenaugen
thomalla
zigeuner
through
bambole
pretty
ac
app
bi
dei
fiel
fass
gag
gang
jenn
kir
kon
kart
kusst
mon
much
non
pul
punkt
rette
setz
sink
uf
winken
##eper
##uge
##sein
##wann
##pol
##ku
##beit
##erz
##ieve
##iehst
##steh
##ane
##alten
schein
schinken
schub
soul
wieso
##ethe
##age
eskal
verdi
verbo
verbr
##iern
leg
thing
schonen
spa
blind
bekomm
##osen
refra
reeper
schwor
##ussell
##odop
zwar
gesucht
summ
ums
##ilder
##verk
segel
halo
durst
def
hul
art
arbeit
##beer
forever
years
##uche
partyani
spreng
pardy
uhuh
weine
weint
eisen
draus
sommernacht
dorfkind
entf
kampf
haare
believe
schaff
##elsalat
lalalalalala
planet
volle
bestimmt
ohohohoh
dododop
karussell
anderen
juan
millionen
brechen
atemlos
floor
mittags
tattoo
afrika
albany
teufel
sinkendem
refrain
reeperbahn
partyanimal
ain
bilder
fein
han
huh
hang
idi
ming
mia
mief
nord
opa
pig
ring
sunde
tach
zo
##eben
##ix
##ugen
##sz
##sion
##akt
##hin
##hause
##oten
##mten
##zer
##bad
##ball
##gramm
##far
##fte
dai
##are
##ochen
intern
stu
style
heb
unver
versch
nachhause
##inden
aufhorn
lief
lebst
##ish
denke
another
warm
##igkeit
wood
imo
beach
jeff
wegen
seinem
tragen
##omat
rech
dre
drink
voruber
klop
tages
zwo
##icklicht
verlor
##verbot
braut
char
knicklicht
##ahlen
##entango
luca
##uell
heiss
box
kreis
kruge
lauf
whoo
ahem
schaust
gebor
##etting
rain
geschieht
ziemlich
untergeht
garn
witt
schena
programm
peller
##isson
kriegt
mutze
ski
sky
deutsch
fallen
##iza
##izei
fieber
##fly
palma
mexic
old
weissen
##odododod
disk
kompl
radadad
sterb
##anananananananan
spieglein
holla
gebracht
##offelsalat
henrisson
tiere
##raumt
##halb
ficken
##baum
glatze
suchtig
gummi
ibiza
ratta
optik
beruhmten
butterfly
jenny
kartoffelsalat
verboten
umsonst
ohohohohoh
idiot
pigalle
radadadada
bh
bun
eur
fab
gitt
kipp
lop
mel
mod
ny
num
nice
odi
ri
ruhr
sy
sor
uff
wel
wus
yeh
##egal
##uz
##uela
##ts
##ty
##weiß
##come
##cino
##hof
##renn
##ound
##lt
##fuß
##erben
##anuela
##aupt
schien
scherben
##arie
einzel
ohr
##mma
hamb
soviel
##annten
stein
stre
##eth
uno
unster
verh
verbl
dog
##ischt
dengel
##illen
anf
##eiter
koffer
gepr
woand
##anzt
habt
##othe
jam
gras
##ffe
touch
suß
verlassen
moral
dopdopdopdopdop
vielen
around
tanzfl
moon
ground
tee
tell
##box
getraumt
window
##acke
madre
verdr
inselverbot
entsch
lauter
ziehn
could
fangst
##ontr
elis
papst
emanuela
##cio
schwester
schatzi
said
##ossen
vertraut
stimmen
verschwei
verfuhr
chinese
flugel
himmelblauen
bereu
tirol
banane
verwesen
##schlag
koks
sparschwein
gams
minute
ikke
leidenschaft
durchgemacht
christmas
domani
doppelhorn
uberhaupt
hodi
martha
huftgold
schubid
gummiboot
hamburg
unsterblich
woanders
dopdopdopdopdopdopdop
tanzflache
arab
aaah
better
con
del
early
gala
jet
kal
kle
lod
light
meter
offen
own
riesen
sur
sun
saß
typ
used
vis
vida
weht
wette
ya
##ios
##ime
##da
##sl
##cr
##laus
##light
##za
##zy
##brau
##xie
##inal
laß
schuss
schalt
hammer
##itom
stich
allem
##bend
unb
verp
verste
vergeben
##utschen
ließ
leony
dodop
then
wartet
schones
franz
##ott
weck
##osa
grei
##ielt
toi
flut
fluss
mega
##meer
##use
segeln
gefunden
##own
irgendwas
berlin
##entuell
##pfel
mary
marte
forget
fahrrad
##abeth
genannt
großes
denken
vergisst
schauten
fuhlt
##kaff
sollte
richtung
woran
##brot
mancher
passieren
magic
##logen
daneben
kaufen
gleiche
ziehen
barfuß
bele
dunk
kusse
helmut
schmerz
freundlich
##ododod
trakt
##pegel
sitzt
nimmer
glaser
busch
erzahlt
kaputt
fremde
fremden
heimatkaff
##biet
erwach
##ational
eventuell
verfuhrt
verkau
bescheid
achtung
mußt
tiritom
zahln
bananen
betr
hilft
versaufen
##matra
eisgekuhlt
dancing
jagermeister
vibr
luxus
applaus
bekommst
##beerbaum
international
fabian
numero
##othek
elisabeth
galaxie
lodz
tiritomba
astr
band
cr
call
fa
fuhrt
jens
junge
kan
kickt
list
lot
mah
mot
mend
oze
open
pil
rit
tie
taschen
viv
wack
zimmer
##don
##des
##spr
##tw
##tausend
##ria
##rive
##pan
##lein
##kalt
##bier
##gn
##gesch
##erie
##erschein
##stag
##anc
##onaut
schei
aut
auto
sto
##asse
##derci
##derney
##aham
mitso
uner
##utzt
aufz
liegst
dirty
them
##eits
##igos
erk
erfr
frieden
maj
herum
##olo
komme
amigos
track
neon
neuer
grie
drehen
vorm
##ppert
whate
##gebiet
verletzt
verlangen
bissl
seel
abs
irgend
handen
goethe
arrive
enden
##enty
##pfahl
##gelost
##alalalalalalala
haltst
krim
doner
sho
schauen
##usta
glaubst
geschah
versinkt
unterh
schlaft
everyone
schenkt
geier
eisbar
ballerina
fragte
asi
blicke
gedo
sahne
atmen
side
elv
##dreh
held
leichter
bailar
norderney
farben
erwacht
sanft
bereut
beruhren
luftmatra
silber
schweigen
sangria
nachbarn
spanien
prinz
badewann
##ousine
lecko
sohne
homa
winter
abraham
nordsee
##farben
ruhrgebiet
welcome
wusste
gepriesen
arabian
unbesch
bananenbrot
astronaut
ritmo
mitsou
whatever
arrivederci
bem
cal
ee
eure
fig
fend
film
gusta
hing
hans
harte
kun
kuche
nik
ran
russ
sant
volt
##ester
##du
##sache
##nis
##wach
##wohl
##here
##ried
##pana
##ocino
##kan
##kraft
##zert
##bett
##burg
##ves
##que
##cher
##chischer
##erg
##erauber
##iegt
##ieger
##stuck
##stehen
##ira
daun
laden
duss
##auf
schuld
##urt
hah
hass
having
##itter
derbe
stir
##dern
heller
unten
espana
##eme
leich
lecker
##ssa
fruhl
frisch
spe
spend
weih
blieb
bew
beben
herein
herrlich
##ucke
auseinander
wear
##ame
trugen
beißt
ned
brat
schwanger
schwieger
sehne
flasch
##pps
while
geschen
hossa
seerauber
halv
low
loud
geflogen
vollpen
freunden
durchs
cherie
uberm
englein
energ
inside
mog
wohnung
wohnt
married
forg
teuer
roten
rockt
##bye
singin
show
traumt
großer
großten
losgelost
vergn
vergeh
pardon
rast
raste
versteht
rudi
##ackt
geschicht
finde
wurst
##astic
##ooo
nackig
pegel
##schwester
goodbye
sagtest
merk
merci
ola
freundin
ago
senegal
hauptsache
buena
hunderttausend
baila
kapitan
schalalalalalalala
schwarz
blonder
risk
##spiel
eviva
sofa
coms
gefahrlich
knaller
schneeweiß
wuppert
henri
grenzenlos
lalalalalalalaa
##eldorf
vogelbeerbaum
fantasie
tatara
italiener
mimi
krankenschwester
garnicht
diskothek
bunte
einzelne
anfang
mendocino
ozean
griechischer
eisbaren
elvira
luftmatraze
badewannentango
fendt
santa
dusseldorf
fruhling
vollpension
wuppertal
affen
buh
cosa
fu
heit
jes
kino
mh
muh
mist
mol
money
meilen
net
nanan
pu
pause
pony
rise
renau
sung
tom
tick
torn
tina
tango
ufer
upps
wi
wil
wien
winke
ze
##iend
##ds
##teil
##nuss
##wie
##weit
##av
##aven
##ct
##hahn
##pit
##oge
##les
##less
##zus
##go
##ful
##still
##stadt
##ichst
dauer
lad
lauch
laßt
##alu
##ocht
has
##elst
stau
stab
##ash
zufall
##derhof
##eten
unzert
##iere
##ierst
michl
##iger
ergeben
fressen
##ungen
wooh
##auso
##ernt
babe
##ucken
weckt
try
trotz
##terpfahl
gre
grand
real
##ffee
##ahrt
drehn
droge
##dent
klat
klima
##uma
herzschlag
flog
##ftig
why
were
lippen
##oph
##usnuss
summer
suderhof
verliert
schlag
schlimm
hour
hoam
##ila
fester
seco
seemann
loco
durfte
##apalu
ihrem
himmelsz
freak
goes
uberfall
weiten
marterpfahl
prope
platt
boo
boom
##uchten
road
genauso
holt
spure
unserer
heimlich
##imb
spielst
##ther
geschehen
mallorcastyle
musste
unterammergau
lache
work
step
steuer
stellt
geweint
manche
neuen
soweit
wahre
pech
cool
steigen
kennen
lauda
trane
trank
fruhstuck
senor
sitzen
halli
fuhren
schalalalalala
schalalalalalalalalalalala
erlebt
schreiben
fremd
rocken
##nachts
##aki
regenbogenfarben
nahmst
sounds
dunkelheit
##standlich
##appt
dichter
##wegen
gotta
promille
kaffee
kokusnuss
##self
gave
hadn
geradeaus
blasmusik
sechs
kirche
##verkehr
hulapalu
student
dream
komplett
melod
##rennlich
verschweige
jenseits
seelen
figur
niki
russel
weihnachts
forgetting
schneeweißes
buhne
renault
uppsala
unzertrennlich
trotzdem
second
himmelszelt
propeller
aah
apr
apfel
bus
cop
eden
fen
fal
fuck
fels
fohl
fire
gun
hi
hielt
kill
kre
mische
nanananan
oida
pi
pau
pers
passt
rund
rett
ride
vu
vul
wusst
zap
zogen
##ib
##sehen
##where
##abend
##rer
##pre
##ove
##lass
##lim
##ßchen
##met
##kent
##keln
##zin
##gin
##film
##fhahn
##encio
##ini
##eira
##anten
under
lam
duu
##alayl
schie
schee
einzig
##ory
wiese
hear
head
aufgew
lieg
##isse
than
anges
##iges
erhe
erkl
erreich
gekl
nam
##uhoren
would
wonder
deines
bez
beate
japan
alone
alive
bam
well
seiner
##ampf
##amdam
tresen
trifft
machte
brenn
sehe
herzstill
flug
flipp
flippen
##kebox
lift
sonn
##opf
sud
##icki
##eilt
##veau
hof
seem
abi
##apitan
china
check
going
engal
arme
endet
glaubt
nobody
yeee
##alalalalala
tequ
##innen
stroh
vergeht
vergiss
getr
getanzt
obwohl
rapp
##imes
##imicki
ruber
abendrot
wurden
garten
sollst
richten
eiskalt
begr
prozent
dinge
sommerwind
danke
entlang
wolkent
##pro
ziehst
holzmich
sonnenbr
falling
clio
climb
letzter
fehlst
freundschaft
beine
schickimicki
sturzen
disc
vermisst
musikanten
natur
dodododod
radio
lebenslang
niveau
##untergang
gradaus
found
zerr
schalalalala
##plant
trinkt
##reiben
stimmt
risiko
null
##ways
girls
kneipen
coming
konigin
jukebox
taum
knallrot
##weg
folgen
silencio
flying
kometen
weniger
pfei
##hhh
sonntags
cola
##backerei
sprechen
lalaylalayl
oberammergau
looked
bißchen
gaga
schaffst
juanita
verheira
schubidamdam
dunkle
luxuslim
scheiss
kunnt
stirbt
leiche
auseinandergeh
energie
vergnugt
sunglass
melodie
weihnachtsbackerei
fenster
nananananana
person
vulkan
zapfhahn
erhellt
herzstillstand
tequila
holzmichl
climbing
dododododo
knallrotes
verheiratet
sunglasses
bang
bien
cu
cra
cab
cry
donna
eoh
ele
eim
fel
fut
fischer
gau
god
gans
hann
himm
isch
ide
ille
jen
kul
kuß
kontr
mat
nr
ooo
ras
runde
sal
sirt
tw
tan
tor
tele
tiger
wund
yes
zog
##ij
##ior
##imen
##ule
##ullt
##tur
##tuch
##no
##wagen
##wert
##cah
##cent
##rosen
##pet
##punkt
##ou
##our
##ym
##mer
##mor
##kes
##kinder
##junge
##gte
##gro
##fet
##felt
##fiero
##ching
##eren
##enkt
##inc
##ieh
##ieg
##stet
##station
##eiden
##anom
duf
##alay
##ons
##achten
##itten
##italien
stop
##agel
vern
nachten
meines
##aten
##ingelt
antw
##igian
nocht
gep
geplant
##ssch
##unzel
##leben
willi
weite
weiblich
woo
bebt
##ernen
herunter
##dell
##deedado
##maluma
##ange
ama
ausgehen
keinem
glanz
tripp
##ters
neun
##ahren
brot
town
andres
mals
vorher
schwein
schwind
schweiß
schwere
klang
##ume
flur
flamm
flaschen
##ppe
##ppel
liad
lifet
##recht
##odil
gives
##ush
##ilro
##verein
fell
feuchten
sek
seen
abgehen
wolln
island
##ragen
decke
husten
himmelbett
handy
che
chore
bleibe
eng
arger
endlos
##pflicht
lumaluma
marmor
##zept
##ktion
partigian
fahre
wunderland
once
darle
##aballa
genitalien
##uhrerschein
strong
sings
single
shot
lose
unseren
railro
ruf
uhren
fuhlte
geschehn
versuch
bitch
unterm
unterweg
##orfuhrerschein
everywhere
stets
eyes
verlierst
gefuhlen
passier
turn
treffen
begl
dingeling
ewigen
jour
zeigst
dank
dorfkinder
hinterteil
mochten
pocah
ewiger
deshalb
kenne
belogen
##ontas
att
sprache
rauf
dunn
kussen
reißt
plane
pure
schmeiß
darfst
verstehst
schoneres
nation
##kommt
hohe
karten
vertrauen
##reiblich
stimme
stimmung
frohlich
packen
bierkapitan
carol
carpet
liebesku
einsamkeit
leuchtende
ballaballa
waits
fehlerfrei
booty
sinne
##raumer
##weifelt
graue
game
roma
nachbarin
phanom
milch
prefiero
##gefuhl
guess
rapunzel
aussa
unbek
schlauer
goldene
##werk
maya
maybe
lalayla
bambolea
bamboleo
puls
eskalier
verdient
spaz
uhuhuh
entfuhr
hangt
zoom
deutschland
mexicana
moonlight
entscheiden
saßen
traktorfuhrerschein
betrunken
vivir
wackelt
aufzuhoren
unbeschreiblich
riskier
tornero
wider
hoamat
apres
piu
aufgewacht
geklappt
wolkentraumer
lalaylalaylalay
luxuslimousine
eohh
eimer
himml
illegal
kontroll
sirtaki
wundern
antwort
lifetime
partigiano
railroad
unterwegs
pocahontas
liebeskummer
af
bir
big
buch
body
biegen
cre
ed
euer
fill
fisch
fine
fans
honey
jur
jim
jorgen
kat
kippen
lolo
mig
maus
might
must
mause
mull
nuh
nett
nonst
olle
rer
rie
rand
sn
sar
set
sinken
toch
tsch
tute
til
ven
vinc
wehr
wuß
wish
zelt
zoo
##ift
##sh
##sk
##sicht
##side
##nah
##wehr
##ac
##aacht
##cu
##cl
##hagel
##rand
##rane
##oi
##ob
##ough
##ln
##ywo
##zn
##zingelt
##bel
##beln
##gei
##ght
##fon
##falle
##full
##fahrt
##´mich
##chte
##enlos
##init
##sto
##steht
##irrt
dall
laaaa
##auer
##ale
schleich
##arn
##orm
##esh
##ite
sol
inst
into
sta
stahl
stere
##askr
zua
zucker
zuviel
heard
mittern
##etboot
essen
vereint
##utz
##utine
aufbl
aufgeht
lies
doh
doll
##isiert
##rauß
thr
##ohr
##oho
unsern
warte
koan
koma
erden
erner
gemma
friend
##new
mai
naaacht
##lex
sport
sperr
weise
wom
bed
beer
bedi
bekannt
##deck
theke
voneinander
##liche
yooo
amar
##adsch
red
mache
machten
##ffinit
bro
voraus
schwa
schworen
whis
taglich
##gest
zwieb
##opfen
##ophe
morir
umstandlich
umzingelt
schlief
house
##ilein
sear
sekt
halte
loss
lokal
vieles
##gtes
deffinit
bierpol
chor
champ
mannlich
prima
groove
tex
rocker
routine
rolex
darling
genial
stress
stripp
strahlen
singing
holpegel
traumer
vergi
vergaß
vergess
ahoi
schaum
winden
sternhagel
mussten
music
gemein
findest
lachel
nimmst
steckt
##itzen
gewohnt
ballerburg
selben
##laund
joana
jodell
rosi
neulich
kaun
gleichen
seitdem
barbad
kamst
peace
count
desire
reis
reisen
##okodil
holzi
atzen
putzen
ohoje
hoffe
##ommen
##automat
feuerwerk
peru
vogl
##cial
schwefel
polizei
trappel
rhein
sens
##ummt
leave
##kleid
widder
wurdest
adio
gira
samstag
schreibt
outside
verschwinden
lebte
leuchtet
bremsen
sinnlos
##reichbar
eigene
someone
erinnern
flugeln
hollywo
tauch
sicherlich
waiting
##liah
promise
##ungslos
porque
##zentig
burschen
##ecks
##zugeh
sußesten
prince
ratadsch
aussiehst
uberleg
madeleine
##wurst
interess
zigeunerjunge
verdien
spaeter
eisenbahn
boxen
model
symb
verbluh
verdreht
lights
belegtes
vibriert
tiefen
unerreichbar
major
absol
irgendein
hasslich
geschichte
mister
nanana
puppen
klatschen
pauli
rettungs
##prozentig
discop
crazy
future
tante
trippel
attack
hoamatlaund
after
migrane
mausefalle
nonstop
vincera
stereo
##askrokodil
mitternacht
aufblaskrokodil
zwiebel
deffinitiv
bierpolizei
sternhagelvoll
jodellliah
barbados
voglio
hollywood
ak
aar
aßen
asche
bal
bop
bent
bong
clos
eun
esta
fau
fische
fish
gimm
hmm
jungen
ker
kab
kiste
kacke
mr
mmm
mis
mid
ois
other
ps
rem
retten
sm
satt
sure
sinkt
ue
van
wr
wem
wall
wald
zah
zig
##iver
##ica
##ixt
##do
##dit
##dos
##dab
##uern
##walt
##rio
##par
##ond
##lig
##kn
##kte
##king
##kop
##kette
##bu
##bes
##gh
##vin
##erkt
##enden
##iele
##eisch
##eigt
##eisen
##ano
##aur
##auscht
##arten
##arze
##orie
wirt
wirf
##achen
hafen
hacke
##elei
##elbe
##ted
##genommen
stumm
stampf
##asche
zul
hebt
heaven
##aha
##agier
verj
verschen
verdeck
##uten
##utal
aufrecht
legend
dosen
##atch
##ator
deny
##illo
ange
anbricht
aneinander
erd
##ssen
fruch
frank
fresh
##leck
wop
wozu
##bert
blinder
becker
bewei
##deutschen
jean
bay
ausm
wed
##amt
trennt
##adab
grow
grab
brannten
brutal
andren
drop
drunken
##steller
klingen
alleinsein
##galakt
##geb
##gebr
##gepflicht
zwol
schluck
schlutzt
hoe
hoo
##iloten
##gendes
sea
hals
lou
locker
myself
##apier
wolltest
glucks
volles
dev
dest
chick
ubers
hauser
##fest
##cept
##bez
lud
force
format
flieh
plus
mij
kracht
krank
##blumen
daruber
genugt
strophe
laufe
holen
traumte
großstadt
hore
babys
hochzeit
ahdab
hauch
diam
##antasie
besiegt
windrosen
spieln
uhu
versunken
schrill
untergehen
garant
lachte
schlafe
word
landen
##itzt
passagier
geister
trees
treppe
ballert
##laut
begrei
begrab
proud
ehren
job
join
wannsee
sommerspr
entzug
hinterm
poker
kamen
standig
reim
reite
##adadeedado
regenwur
tunn
sternenschein
zusamme
sonnenuntergang
atme
simmer
tranken
schade
schaffen
linker
lalalalalalalala
wahnsinns
armor
kurze
schwebt
leichtes
schickst
vermissen
##getr
kornblumen
senza
hauptgew
toni
superstar
save
bua
verzauber
schreien
freuen
ours
packt
schlechte
##strand
siebzig
fluster
brande
schwachen
##ified
##offt
wertvoll
folge
folgendes
gegenuber
gezahlt
gezeigt
porsche
schweigepflicht
hilf
phantasie
spanisch
##ganglich
erfullt
glatter
##adadab
topstar
sonntagnacht
militar
kolsch
kolsche
geklaut
badadadeedado
schlauch
eisgekuhlter
hotel
gerau
intergalakt
verflixt
accept
fasser
konf
mona
##kuste
unverganglich
klopapier
euro
kippe
sorry
sunsh
hammerchen
fahrradkette
listen
motor
taschentuch
automat
neonlicht
krimi
should
unterhopft
nordseekuste
special
bratan
geschenk
jesinn
meilenweit
stabile
grandios
plattdeutschen
copiloten
erreichen
wonderful
flippers
taumel
biene
cabrio
ooooh
telefon
bitches
dingelingeling
journey
kartenhaus
tochter
tschuss
##club
##fully
dalli
bedien
amarillo
schwaarze
giraffe
ratadsching
symbol
rettungsboot
gimme
mmmhhh
ueber
zigar
verschenkt
fruchte
frankfur
##adabadadab
ahdabadabadadab
sommersprossen
regenwurmer
hauptgewinn
sunshine
adern
bag
bund
bonn
bim
bord
balala
cut
cle
donn
eu
ech
eig
eart
fit
fah
fuer
fess
hein
har
hunde
hele
hopft
ill
krau
kid
kunter
kocht
knew
lein
les
lernen
misch
nar
nid
och
pala
pfl
res
ruck
rute
rio
rennen
ruhe
setzt
ten
tore
tickt
times
wacht
wisst
##iorno
##dar
##down
##ux
##tn
##trau
##nz
##nte
##wein
##welt
##winken
##aber
##hang
##halt
##hai
##rlichkeit
##ps
##ooch
##la
##lei
##lag
##line
##lied
##ych
##mp
##ky
##kon
##kor
##kis
##zahl
##bit
##bus
##bunt
##bord
##vo
##venty
##fore
##chos
##erker
##iny
##iegst
##stur
##stuhl
##strauß
##irk
##irit
##anes
##anwalt
dacht
dadi
las
later
##ehaut
##aufen
##onia
##onze
##urs
einst
einander
##ories
##esie
hair
hasen
haaa
##ely
##elter
sonder
##annter
wiege
int
streich
sttr
##asons
##cks
##ckpit
zun
##deratt
##dersehen
helle
heftig
##ets
##agner
esu
very
verbie
aufge
aufbr
aufschl
aufstehen
aufwie
liest
doof
##isur
##isco
sieh
##rausch
gehoren
geheim
gehofft
##ating
unsren
##iginal
kond
erlaubt
ertr
erkannt
gegeben
gekommen
franc
naja
##schn
##schr
##schiff
##ley
willkommen
liebsten
lieb´mich
liebelei
##uhn
spirit
weist
weight
blos
blass
blatt
blieben
bek
becher
before
hers
##dedu
immerzu
jaz
alarm
##angpp
##anghai
bamb
glam
##amny
trat
train
tretboot
##oskop
##osaur
rec
regeln
reasons
bronze
too
today
andauer
droh
drogen
many
schwanz
klaus
klav
flimmer
flirt
flasche
traueme
weißer
whose
wereld
lima
lili
##rey
zwer
gesund
##usbl
verlang
umgeben
schlie
host
##ilch
##verne
##vertrau
seventy
brause
abgeh
abwinken
durfen
##apur
isst
stehe
hupen
bierbau
cha
chic
chopp
chillen
encu
##feuer
knie
##entro
guter
taverne
marath
##gele
##geld
##gelacht
plastic
year
##alalalalalalalal
text
wunderker
kranz
krone
krib
rough
##uert
##abum
strei
streit
strom
strahl
strippen
singapur
shelter
shanghai
horte
horten
gelaber
hochste
unserm
leis
oba
rasten
spielten
rufen
rufst
ziele
versagt
verspre
bitten
madeln
gemerkt
##astory
landl
jedesmal
verliere
glucklichsein
alkoholpegel
##lauf
begehr
beggin
dinger
eho
ehrlichkeit
joanna
magie
##ahnt
known
asked
dorthin
costa
cockpit
deswegen
##lingt
reiben
orbit
original
wachsen
sternenlicht
nehme
funktion
skies
lalalalaa
amour
hofft
hautnah
quat
rauch
vieren
stramm
##ampen
merke
dunkl
meisten
reißen
##ferin
lalalalalalalalalalala
wahnsinnig
purified
voor
bestie
rhing
ohohoho
##eladedu
allerl
hauptdar
leaving
nerven
##klar
panic
paradise
foxt
karat
##phorie
verzweifelt
highland
kapten
##grund
##gruss
##plod
solange
rechtsanwalt
sayin
verschwiegen
##ogo
##esching
erwischt
sturmisch
anderes
kurzer
trage
rhythym
explod
anseh
altvertrau
bruste
wunderschonen
fotos
liebesfilm
liebesgruss
ohhh
grußte
walzer
nebenbei
##appe
gebrannt
gutem
watching
##rott
sicherheit
grosse
##kriegen
schießt
hawk
verwirrt
schlussel
beruhrst
since
gezap
bluht
##uuu
suchst
dummen
##armon
floating
##opez
holding
##mutters
verborgen
gekusst
fußball
kuste
unbekannt
leckst
durchgemachten
uberlebt
dancen
goldenen
##backchen
gehorst
sprech
kuhler
liegestuhl
weichen
gespurt
krankenstation
walking
things
hula
jeffrey
charme
boxer
mexico
##anananananananananananananananan
verbotene
sorg
touching
visier
##braut
verstecke
franzosen
erwachsen
verkauft
verkaufe
lotusbl
pilot
erklingt
erfrier
hingeht
hahn
bewacht
schwiegermutters
moglich
comsi
comsa
garnichts
ticket
##zusehen
woohoo
green
apfelbackchen
kreuz
sonnesching
felder
gauchos
gansehaut
twenty
##imente
duftet
gepackt
schwindlig
flammen
seenot
begleiten
schmeißt
phanomen
unbekannter
spazieren
jurgen
kathe
mighty
snap
sarah
instastory
staerker
friends
sperrbez
champagner
vergiß
countdown
senses
puppenspiel
discopogo
akzept
bongiorno
kabanes
psych
walls
legenda
beweisen
##stellerin
destiny
uhuah
military
monaco
ratadschingderatt
zigaretten
frankfurter
balalaika
donner
euphorie
earth
kunterbunt
leinen
nideladedu
dadium
sttropez
aufbruch
aufwiedersehen
geheimnis
francisco
weightless
bambina
glamour
andauernd
klavier
bierbauche
chopper
encuentro
marathon
wunderkerzen
versprechen
hauptdarstellerin
foxtrott
altvertrauten
lotusblume
sperrbezirk
ratadschingderattabum
ap
bose
conn
clo
calle
city
capp
contr
est
eat
eher
fir
fach
felt
figh
fangen
feine
fleck
getting
hung
hope
jetz
keh
kehr
kil
kack
kump
kochen
lit
lem
lun
lle
luck
lutschen
mem
mun
miss
nag
nort
nase
nannten
oma
omb
pick
pain
pitter
rich
roch
rust
rela
rollt
reiter
ser
sund
tap
told
tater
tank
tyr
tucke
uuh
ubr
vill
viert
wink
xbox
##ias
##uc
##uben
##une
##uft
##sinn
##sack
##sverkehr
##tes
##neh
##not
##nam
##ws
##aach
##ail
##ho
##hand
##hundert
##haft
##harmon
##ruh
##rra
##right
##ress
##loh
##yde
##marie
##ki
##ble
##gehn
##glaub
##val
##viert
##vive
##fre
##fort
##chat
##erst
##iefe
##iebe
##stund
##ndal
##ndon
dawn
days
undress
lat
duft
duba
##ehoh
##auferin
##als
##oni
sche
schar
schall
schul
schule
##arnt
##ursten
einz
##orter
##orph
ohehoh
##mmt
##mmungslos
hasal
##itip
som
somet
##annosaur
wieda
##tee
innen
stach
stort
stuhl
statt
##asy
alltag
##cking
##ckers
zuckers
heu
hemmungslos
mitt
mitkommt
ungesch
unglaub
##agab
##agbar
##utzen
##utzig
##emarie
aufn
auffe
aufger
aufdr
aufwach
legen
leder
learn
doo
doin
##raucht
gehrt
##ata
##atze
##atata
densel
anz
unsagbar
schonheit
kostet
ert
erh
erich
erschein
gebe
gestellt
geahnt
frisur
magen
mamma
##mmerland
nae
##unft
##leen
##legen
spot
wos
woke
beaut
##deckt
alpen
always
alright
baden
##uckte
kommm
komment
gluh
glance
glanzt
wead
kannte
trennen
tropft
##aden
rex
brief
brucken
brush
brrra
drive
drift
drecks
druben
manchen
mania
manieren
vorhang
schweine
kleid
klopft
herzilein
##key
mean
traust
##allen
##eltern
##galos
##gestellt
zwangen
supp
verlasst
hoffen
##ilor
feder
feste
weltmeister
sepp
lost
loving
london
abgew
abgrund
irgen
irrt
##ows
deja
deedado
himmels
zweite
hinauf
enough
##ikan
tanzmusik
##cedes
##iaia
mogst
endorph
gibts
##pfer
##beste
##bestellt
##becher
lummerland
marleen
prall
prarie
##ktr
fließt
plat
bou
fahrn
fahrende
tears
mix
partys
kram
krumm
roof
sprooch
genieß
großte
gelernt
hochstens
hochprozentig
vergehn
vergangen
vergesse
ahah
schaute
differ
park
parchen
besetzt
besessen
glaubte
spielte
##perfrei
ofter
versank
bitter
schrie
schrein
weinst
##uße
tipit
mamac
##serlich
heiße
erstr
erstmal
steck
landet
eyo
gewinn
manches
gefuhlt
verdursten
passiern
treff
treffe
gotter
selbe
begeister
bringst
prob
magisch
rosemarie
toter
zeige
wolga
blauen
hattest
pool
kriech
wachst
below
sonnenstr
falls
falln
six
transp
verrucktes
clyde
elfen
amoi
zusammenhalt
goldmarie
qual
quick
fortgeh
papi
hutten
huttn
grunen
herzens
mercedes
empf
feuerwehr
besseren
olga
schmutzig
kurios
drehzahl
schlafsack
bestes
playboy
vermisse
deep
allerer
verlorene
verlorenes
sterndal
nerv
sailor
buam
zerst
zerbr
erzogen
beats
lustig
kapiert
trinkspr
fremder
farb
graf
kell
daraus
regierst
humor
stuckchen
erwarten
regenbogengold
care
even
ansiehst
altar
teilt
liebesrausch
bengalos
wandern
somebody
gegangen
pferdchen
taunz
verkno
gebrumm
beschreiben
versprichst
airways
blumenstrauß
lichtermeer
lichterloh
##iful
##krank
break
probleme
erzahlst
jemals
##geseh
verzeihn
leberkrank
lieblings
colonia
badeedado
fantastic
##ipitip
##ypso
christoph
mundharmon
sohn
jagertee
mude
oberkor
kollegen
blasen
gespannt
abriss
zigeunerwagen
gangster
pulssch
setzte
##steher
verbrenn
verbrennen
##verkauferin
##aktiv
unverbes
verschossen
rechten
rechter
drews
klopfe
charles
heisse
rica
schubidu
riesengro
survive
versteckt
greift
greifen
flutter
belegte
traktor
calling
taschengeld
stood
majas
calypso
daunzn
schwiegereltern
geschenkt
wurstchen
mhm
wilde
wilden
zeug
##wiese
##zuseh
ladies
trying
grew
russelschwein
falschen
brennst
begruß
zerrissen
pfeife
elektr
idee
jener
salz
sekunden
widerstehen
birds
riecht
venga
solche
womit
brote
whisky
search
lachelte
interessiert
absolute
zuletzt
verjiss
dosenbier
bayern
zwolf
diamant
ehrenwer
flustert
geraubt
intergalaktisch
bonnie
tenor
zung
##schrank
jazzy
flimmern
strahlend
highlands
gezapft
snapchat
puppenspieler
kunterbuntes
conny
called
cappuc
control
fachverkauferin
kehle
kumpels
liter
memories
norton
relax
tateratata
tyrannosaur
villa
dubai
unglaublich
aufdrehen
aufwachst
denselben
erscheint
beautiful
drifting
drecksau
abgewehrt
tipitipitip
transporter
trinkspruch
verknoid
mundharmonika
oberkorperfrei
pulsschlag
unverbesserlich
tyrannosaurus
tipitipitipso
aw
aan
ave
akt
aim
bor
bas
bind
ble
bern
bot
bud
bank
bager
bott
ca
cur
cor
cul
camp
dy
dig
ej
een
eier
ext
easy
fer
fas
fert
falle
full
ferr
gig
gelt
geiß
gingen
gase
gackt
gucken
hunt
hose
hopfen
ign
jag
janz
jimm
johr
kis
kick
katz
kont
kasse
kummt
lin
lon
lenkt
mm
mau
mop
mick
mont
mehl
mischen
mother
nasch
opfer
pie
pas
pay
pink
pra
passen
quer
reh
rele
rush
rohr
sl
sit
suss
sme
sack
sans
sally
salat
scr
tia
tust
tanke
tino
uoh
udo
vol
vagab
wes
wia
wucht
yall
zau
zick
##ead
##echt
##ii
##dei
##dacht
##deln
##ual
##usch
##uff
##ubl
##ujo
##sb
##svoll
##tok
##nst
##nem
##wen
##ward
##ade
##ave
##abl
##ces
##cot
##cre
##cci
##hing
##rem
##rat
##rickt
##ock
##oam
##ocken
##ying
##yche
##yball
##min
##mes
##mehr
##mam
##mog
##ket
##kke
##kutt
##junkt
##zw
##zie
##zut
##zust
##bir
##bang
##bod
##bbeln
##gy
##ginn
##gator
##xi
##vier
##vre
##vette
##fa
##frau
##fig
##ften
##flo
##erang
##enschein
##inst
##iness
##ination
##iebst
##stein
##stra
##eite
##lla
dammer
damen
daumen
laa
lay
laute
laaa
laika
##ehose
##aucht
##auft
##auze
##alen
diebe
schal
schre
schiebt
schutt
schramm
schalten
schatze
##ari
##aren
##uren
eintr
einhalb
einkriegen
##org
wirft
wirfst
##achte
augn
ohoo
ohneh
##ichter
##esst
##itte
inc
##ennacht
stund
stad
stute
stil
storen
stud
stuhle
steine
##asi
zuerst
##dert
##derben
mirac
##aht
##ahle
mitgenommen
una
ungek
univer
unruh
unmog
##ageil
eso
verlegen
verderben
##ierten
nachbestellt
##emburg
legt
dol
siegen
siegt
dirnd
##rauf
##atos
##ather
##ings
dendu
thank
##iller
##illig
angeln
anzuseh
wars
warfen
schonres
##igungs
ersch
erre
erster
ersp
fro
fresse
##ned
made
namlich
##schau
##scheln
##schlo
##leicht
##lecht
spos
spuer
spuhr
spatz
spieß
woar
woor
wiederum
##bery
##tension
habs
bege
bester
bewe
bekleid
herab
heruber
##alalal
nieder
##oth
alimente
young
amn
auskl
glitz
##amen
trust
triff
tried
trugt
tropfen
##ometer
nee
nearly
grillen
brun
bright
brille
braven
brave
todos
toujo
anden
andrer
drah
malorca
##stech
vorwarts
vorstadt
schwitzen
klo
klap
kliegst
sagten
##umpf
flow
flehen
flesse
flix
medit
##pper
traue
traut
weißen
diesmal
dieselbe
liab
zwein
zweiten
giano
suchen
suic
verlieb
umher
umgek
umgeb
schlei
schlimmer
##versch
langste
seyche
half
halbe
gefangen
gefickt
vollen
##owiert
deck
huis
freut
##ides
bierbecher
chang
chanc
change
chica
goin
hinab
hintern
ubertr
ubersteh
uberstech
ente
enjo
arche
arzt
##fachkraft
mocking
knur
knut
knud
knopf
knilch
woher
wohnen
##beginn
takt
tabu
taxi
forder
fordern
feiert
pru
pres
prater
prada
noah
fliegst
yey
##alalalalalalalalala
boys
booten
teller
mic
freibier
brauchte
sprite
darin
strob
shout
shalala
shirt
traumst
traumboot
traumerei
spurte
jedaach
losung
geleisen
vergl
ahead
hauen
haufen
unserem
gebraucht
##etti
kopfsteht
getrenn
leiber
raffen
verstummt
rubbeln
dampf
geschr
geschlecht
versucht
versohnen
schrank
madele
weinten
untergehn
wurze
##herum
sollt
schwerer
schwerkraft
richtest
bauern
erstickt
lande
landest
schenken
weitergeh
weiterdreh
verlierer
saufautomat
starten
tursteher
treppen
drauß
beginnen
##gers
##gernd
bringing
ehe
joy
comeback
nackdei
entz
entsp
entdeckt
without
kauft
wolf
asph
pour
pogen
wahrend
wahrschein
mondlicht
ziehe
##ienen
standing
gestalten
kriegst
##oko
##lander
verliebter
sternenmeer
didn
geduld
schenkst
papp
reinges
reinigungs
##checkt
##ontod
sonnenol
pillow
siber
class
else
eltern
blode
fiep
##frieden
sprachen
qualt
quasi
nothin
nothing
rausch
rauschen
rauscht
##fleisch
##drin
##ampfen
sandstrand
linkes
meistens
gingst
##rogen
schnellen
junges
schnapp
schnauze
help
helfen
doppelt
schweb
drehst
roter
##ckerei
playfully
dododododod
stillzust
lebenswert
ciaoa
echtes
seng
allergro
allerbeste
konntest
mensche
nehmt
hohen
##gluck
quest
wave
supergei
saal
songs
fool
karr
bello
fuhrte
verzuckt
limousine
schreib
tiktok
##platz
pumping
wildes
zehner
##athisch
##reif
##reibt
verschwieg
heimatland
farbe
graber
keck
##ogn
##ogie
wunderschone
dahoam
mittendrin
kriegsb
wunscht
extension
eva
comp
comfort
dunkelbrau
benzer
ferns
fernen
wande
someday
walked
hollen
hollander
verkehrt
knallst
versprach
waitin
rhythmus
geschwind
##rywurst
schießen
durchdreh
platzchen
news
gelegen
nixen
erzahlen
schlechtes
betontod
betrogen
##ektiv
##weise
##halmen
treib
hilfe
kraftig
minuten
waden
wadln
##uuuu
burn
pfeil
lieblingsz
spanier
verstanden
raumschiff
hyperaktiv
erfinden
prego
presto
preying
schoen
schoene
verbunden
kolner
wellengang
##gefahr
schließlich
shake
gucci
gummiele
kummer
tattowiert
badehose
reichen
reichst
##errane
herrn
heißeren
mukke
sechzehn
luxemburg
dahinter
ganges
kirschen
konjunkt
scheinst
eskaliert
entfacht
volleyball
rings
zogernd
zwoa
skyline
deutsches
##ododododododod
river
ribery
symp
##tshaus
verblasst
schwesterlein
kalte
kalkutt
kleckerei
verpassen
flussigkeit
magical
erwachen
vivre
stock
erkennen
kriminal
unbeschwert
hartesten
hahaha
bewohnt
geschichten
merkte
##elstein
boote
boomerang
killing
einzige
angesehen
angesehn
seemed
strohhalmen
getrieben
rappers
begriff
sonnenbrand
sonnenbrille
naturlich
zerriss
cups
kulissen
rasier
flaschengei
englander
shots
caroline
himmlisch
kontrollier
fischern
wehrlos
wußte
wußtest
##gestort
texte
peaceful
samstagabend
eisenbahnverkehr
bali
close
kerl
mismo
wrong
zahne
erdreich
##gebracht
louvre
devi
garantie
geisterstund
begreifen
tunnels
verzaubert
schlauchboot
konfetti
bundes
clean
illus
kids
pfluck
verbieten
aufschlagen
ertrag
droht
schliess
##gelegt
##alalalalalalalalalalal
kribbeln
dunklen
kilometer
lemon
luna
ombre
ubrig
scheu
scharf
sometimes
innenleben
ungeschm
anziehst
kommentar
maniac
federleicht
irgenwann
endorphine
different
erstrahl
gewinnst
begeistert
allerersten
farbfilm
kellner
gangsterbraut
riesengroße
bagersee
currywurst
corvette
ejal
fertig
ferrari
gacktes
jimmy
lonely
mopse
naschi
release
smell
scratch
tiaf
yallan
zauene
##bird
schrammen
eintritt
ohnehin
miracle
ungekusst
unruhiges
erschienen
erreicht
ersparte
sposar
spueren
begeg
bekleidet
ausklinken
triffst
toujours
klapfen
flixbus
mediterrane
suicide
umgekehrt
umgebaut
seychellen
ubertrieben
enjoy
mockingbird
knuddeln
stroboskop
getrennte
geschlechtsverkehr
treppenhaus
asphalt
wahrscheinlich
reingesamt
reinigungsfachkraft
dodododododododododododod
stillzustehen
supergeile
kriegsbeil
extensions
dunkelbraunem
lieblingszahl
gummielegator
konjunktur
volleyballverein
sympathisch
kalkutta
flaschengeist
geisterstundentango
mediterranean
dododododododododododododooo
ae
av
a€
aal
aur
adam
bat
bing
bik
bohn
bug
ci
cas
cand
cont
cash
dor
dingen
eit
eck
eag
eber
este
eil
eong
effe
fad
fuss
fil
fight
fassen
fasst
fif
final
fior
gs
gn
guck
gfr
gina
hm
hund
huck
hiel
heil
hide
ick
ischt
jel
jonn
ken
kanz
kimm
kitz
ketten
lig
lehr
lohn
linken
leiten
leiter
mes
mas
moll
mohn
mess
mies
mhh
mosa
mucke
nei
noh
netz
nass
nina
nischt
nutzt
pp
pen
pein
penn
peit
pfe
pic
past
piz
pank
ry
ren
rann
rag
ram
rul
rende
sig
send
sent
sab
sco
smo
smas
scent
tenn
tuch
tja
tischen
ttw
vum
via
vita
wend
went
water
wipp
wischen
wander
yacht
zeh
zal
zar
zit
zarn
##ey
##ek
##eer
##ellen
##estens
##iag
##ius
##ize
##ibar
##dich
##damm
##ddy
##ua
##ubt
##upe
##ukte
##sul
##sation
##sgefuhl
##ta
##tion
##trei
##tgefuhl
##nn
##na
##nin
##nicht
##nutz
##wand
##wusst
##wetter
##wingt
##aw
##ais
##ake
##cer
##cco
##colo
##hol
##heil
##hatt
##hard
##heim
##ri
##rin
##rein
##richt
##rang
##ram
##rone
##riss
##rale
##pi
##part
##pfe
##pok
##oß
##ov
##oin
##oben
##oblau
##lie
##lust
##last
##lanken
##larm
##ßte
##mt
##mod
##mied
##mull
##kka
##kunft
##jem
##jang
##jacke
##zi
##zv
##zar
##zor
##zeln
##zone
##zub
##zimmer
##bay
##bank
##grau
##gere
##gust
##gual
##xen
##fie
##fah
##fass
##´ich
##еnn
##chter
##erh
##erwach
##enz
##enst
##enos
##engt
##engst
##enuntergang
##inen
##ining
##stem
##stop
##stab
##stehn
##stars
##ndern
##eig
##eif
##eist
##eider
##eiert
##irr
##anero
##llab
daher
dazugeh
lai
laur
lack
lambo
lamb
laengst
dusk
duuuu
##ehend
##ehbar
##aun
##augen
##aure
##aume
##aunt
##alin
schur
scheit
schuh
schecks
##artet
##arrer
##urm
##urch
##urer
eingel
##ores
##orte
##orle
##orden
wirtshaus
##acha
##aching
##achter
##achacha
august
ohooo
##mmel
##mmeln
hack
##itor
##itsch
dasein
##elein
##elben
##elang
##elchen
##elfrei
sog
soon
soonn
sold
sondern
##anne
##teten
##teller
inv
insta
instag
##ennte
nichtig
stor
stier
stall
starts
stinke
story
stieg
storm
##ascht
allan
allern
alloin
##cklich
zuvor
zufrieden
zukunft
hee
heul
##ahaha
mitte
miteinander
##etr
##etend
##etown
une
ungefahr
ungestort
##ago
##agination
verand
##uter
##utes
meinst
aufh
aufzu
aufgeh
leere
leucht
lept
dokt
##isa
##rauch
gehore
geholt
gehalten
##ativ
those
these
though
##ohne
anl
anst
anym
angelacht
unsrer
wart
warmen
wartest
koa
kopp
kollab
ero
ernst
gebt
gecheckt
##sser
fracht
frucht
friere
##neval
maß
max
maat
makes
nav
napol
##unftig
##schaut
##schorle
wills
willenlos
liebessen
spent
spass
spinn
spitz
space
speck
spuckte
weisst
##anzen
imagination
wiederkommen
wiedersteh
blow
habanero
beu
bebe
beast
betet
beugt
befrei
bekommen
heraus
herbei
##deul
##deong
theken
thekl
##ister
##isten
##oter
##otti
ali
alk
##lichen
##olken
yoga
jej
bab
kommando
auser
ausgeh
auszusehen
glimmt
glocken
welle
wester
kanns
kannten
##amin
trick
true
tromm
trieb
trost
treten
trichter
trennte
##omp
##omisse
beiß
grana
grune
rep
reste
rezept
repar
##immen
brother
brown
brucke
briefe
tod
tog
took
andy
mehreren
dritten
draw
##dentlich
manera
manhatt
male
malen
##stelle
vorste
schwand
schwore
klag
kleider
seht
herzatt
flach
flip
fleisch
flehend
meant
##ppich
trauen
weißes
dieselben
werfen
##aller
tagein
tagaus
likes
sono
gehts
gehtnicht
##gedacht
dasselbe
gipf
gipfel
gesaß
gespen
##opa
suuße
verlass
verlaufen
verliebst
mora
umdreh
schlagen
schlank
schlara
schlampen
hole
hook
hoiz
##ily
##vers
feen
weltpok
segh
braune
braunen
mykon
abfahrt
##apest
##rai
gefallen
gefeiert
deal
deung
depr
decent
deux
hasta
hugeln
himmelwarts
himmelweit
freche
durchleben
durchgebr
durchschaut
irgendwelchen
bierchen
chant
chachacha
zweimal
berauscht
hindert
uberdos
ubertrei
ens
enge
sauer
saule
##ikat
##fee
##feuern
tanzten
tanzbod
nichtsnutz
mogen
mofa
knack
knien
knoblau
endstation
morgenrot
lugt
taking
mars
march
margar
forward
feiera
pracht
price
preis
pretend
##zed
##uest
##uegen
##ueck
heile
heidi
##alalalalalala
bogen
boat
bouz
boogie
teuren
teppich
mih
krach
##dizin
done
spruh
sprichst
##byrin
dark
darunter
##aba
stross
zurecht
whole
singe
shut
short
shak
shining
traumend
kommts
großter
großtes
horn
horner
loszugeh
gelben
gelob
gelaunt
gelachter
##ehnt
vergang
vergehen
haund
haustur
unseres
schaun
dias
gebucht
##etto
##ettern
getragen
besen
besche
besame
heimwarts
raw
rader
raven
razor
windeln
##imist
##ival
##iving
spieler
nahmen
konnten
upon
lifestyle
##thias
fuhler
##ackennacht
geschmied
versp
versetzt
abendessen
##kao
schrott
everlast
madln
weinte
untergeh
unterschied
gemolken
wurzeln
##edicht
solln
##iefs
##atzt
##atzen
##ioni
yours
bauen
bauaume
worter
words
tummeln
##astisch
landschaft
gewagt
gewahlt
gewusst
gewinnen
gewarnt
geworden
gefuhlte
verdanken
klarer
##jadeul
starb
starke
starci
festival
ture
turning
treat
seligkeit
##lauv
begehrt
##ffenland
ehre
ehemann
jov
joot
magst
zeigen
zeizn
sommerabend
danken
entw
entfl
neubeginn
mochtest
blaue
poi
post
pogo
##renk
##renalin
##promisse
mondenschein
barke
kampfen
gestrickt
cockt
coupe
kriege
arschkalt
sternenfeuer
sternenfeuern
schenkten
beluegen
beliefs
skif
fallst
putzt
##enade
##uds
##udr
elbe
bestell
besteck
bestellen
block
rechtes
##friend
##zukis
zusammenbricht
qui
fingers
vierten
##dreht
backbord
gehsteig
##ampe
##ampft
##heart
emot
meister
kusschen
##ross
lalalalalalalalalalalala
mexikan
planteten
bussal
djs
helm
##ciare
schmer
schmah
kurs
kurzen
being
##aschlanken
schlafst
kinda
poldi
rotier
traben
trafen
playageil
disappe
jane
vermessen
komb
komatos
kompromisse
sender
senior
##umme
##glas
sterbe
glasernen
saat
safe
buenos
hundertprozentig
karte
karneval
zerf
erzahle
belly
feelings
kapier
dadrauf
vertraust
achse
##plan
schiffe
leeres
norden
zehnten
schwarzer
verschwende
leuchtest
blonde
rhyme
key
kept
macaren
regnen
freuden
##blauen
against
##aaaah
etwa
##spur
grundversch
girlfriend
signal
##allee
dachern
schwimmen
selbstver
selbstgem
packst
tragst
tragisch
regenbogenland
regenbogenfah
adrenalin
zentrale
altes
capri
teilen
liebeslied
skandiert
benutz
fernsehen
##eidet
gegner
woahoh
grußt
anderswo
hobby
funften
perfekte
jugend
schlossallee
beschissen
beschwer
beschreibt
versprochen
stolzer
achtzig
mußten
watch
steiler
schwachpunkt
mindestens
wuis
##tliche
blumenwiese
feierei
grosser
geschwor
running
##kret
##kranz
verweht
bluten
beruhrung
folg
##schluss
breath
platzt
atemzug
kasten
kafig
kakao
nudeln
happily
##uttin
gezogen
gezweifelt
erzahln
erzahlten
normalen
portem
ruhig
##ella
##halter
##zentrat
##quem
##quator
bluhendem
treibt
verzeihen
romant
wadeln
schmecken
versaume
versaumen
straßenrand
wenigstens
burli
phil
pfarrer
named
needs
drucken
erfull
erfahren
zweites
marchenfee
sonntagabend
miles
offnet
runtergehen
school
##essed
verbaut
koln
gekauft
gekampft
##gefuhle
schließt
shave
fuße
rennst
unbequem
sweetheart
urensohne
gaan
ibsul
rattern
italienische
optimist
spreche
herrscht
danceflo
pandabarchen
behind
behand
behalt
hometown
martini
rolling
winzig
##aaha
##lined
verfliegen
verflix
huftn
acc
bible
konkret
mucho
pult
eskalieren
verbracht
verbrennt
huhner
minger
verschont
verschieden
liefste
warmer
rechnung
drinks
heisser
heissen
heisses
programmiert
bunten
euren
europa
melone
module
nyamny
##uzius
scherbenmeer
steinreich
strecke
streets
verblassen
verdreh
entschieden
verschweigst
bereuen
concent
kalb
klemmt
offenem
##creme
verpasst
fluten
flussiges
dunkeln
crow
fake
kanust
motto
piloten
tiefe
autos
autobahn
erklang
erfriern
absehbar
shoot
unterhopf
silbernen
prinzessen
bembel
daunen
leckerei
frisches
flaschchen
ubermorgen
teuerste
schwarzem
riskieren
fuaß
mhmm
nananana
dauernd
staub
stabil
steuermann
steuerbord
senorita
seelenkleid
falsche
fucking
gunther
vuur
##ziniert
lampe
schieber
schiessen
erklaren
namjadeul
bezahlen
bezwingt
##ampfer
brenne
sudlich
sudwind
sudpol
yeeeah
getrennt
rappin
scheissegal
eleg
ideen
kultgefuhl
matthias
rasen
##ouki
##iehrt
duften
vernascht
##sschild
schweini
schwindelfrei
fellows
sekunde
chef
carolin
phanomenal
unbekannten
widersteh
himmlische
kontrollieren
birne
crew
creation
edel
edelstein
fischlein
riese
sinkenden
wehren
##sichts
zuckerschn
throw
woman
bedaure
schliefst
searching
haltestelle
##automaten
irgendeiner
hollywoodreif
bentley
faust
kerzen
smile
zahle
##park
angekommen
angebot
glucksrad
glucksgefuhle
großstadtgetr
babysitter
begreifst
joint
tunnel
konfuzius
motorboot
bimbo
echter
fesseln
krause
narcot
palast
ruhepunkt
##konzentrat
##kisblauen
lasciare
laterne
sonderzug
sondermull
streichelt
bekam
##angppang
##angppangppang
##amnyam
trainer
recei
zwergen
zwerge
chaos
chicago
streifen
landluft
begehren
funktionier
quatsch
quatscht
allerletz
explodier
##anananananananananananananananananananananananan
akzeptier
donnerwetter
clouds
first
fighten
lucky
paint
rusty
viertel
##namit
schallalalalalalalalalalalal
schulter
mittel
lederh
ertragen
erhort
spotlight
seppell
bouzukis
kramer
ahahaaha
bitterste
mamacita
probiert
sonnenstrahl
huttenstyle
empfunden
zerstort
zerbrach
zerrissenen
elektrisiert
ehrenwerte
cappuccino
awake
budapest
dynamit
extrem
feriern
gigaschlanken
ignor
mmh
mauern
pralle
sitze
vagabund
weshalb
##zwischen
##zutrau
inclined
universe
unmogliche
dirndeln
frogst
spatzilein
spießigkeit
bewegt
glitzern
schleier
bierbecherhalter
chancenlos
knurrt
fordernd
prugeln
vergluhn
geschrieben
bauernhof
landebahn
joyfully
entzuckt
entspannt
pourrai
pappteller
classy
schnapps
allergroßte
question
karriere
fernseh
gelegentliche
schoener
ringsherum
ungeschminkt
aequator
a€¦
bohnerwach
dormo
eagle
eongdeong
effect
fussball
fifa
gsagt
hielten
jeliehrt
liga
mhhm
mosaik
ppangppangppang
penso
pizza
rambo
rendezv
scooter
smooth
smash
wippe
zitrone
##ukteur
##party
##zubiegen
schuhcreme
hackedicht
soonnenuntergang
soldaten
instagram
allernach
aufzugeben
leptop
doktor
anymore
kollabier
fruchtkonzentrat
napoli
liebessensation
thekla
westerland
granate
manhattan
herzattackennacht
gehtnichtmehr
gipfeln
gespenster
schlaraffenland
weltpokal
mykonos
deungjang
depress
durchgebrannt
uberdosis
ubertreib
tanzbodn
knoblauch
margarethe
feierabend
bouzouki
##byrinth
zurechtzubiegen
gelobte
bescheuert
geschmiedet
everlasting
cocktail
skifahren
mexikanisch
disappear
grundverschieden
selbstgemachte
regenbogenfahnen
beschweren
dancefloor
verflixte
nyamnyamnyam
unterhopfung
zuckerschnute
großstadtgetriebe
narcotic
bohnerwachs
rendezvous
ai
aa
adop
adr
acker
aiaia
aaaaah
bw
bon
bann
bol
bos
bart
bung
bucht
born
bleich
batt
bingt
busen
binden
biegst
ce
cœ
cer
cau
canz
cent
cass
cert
card
catch
dsch
dia
dino
danger
eb
eau
each
eff
eid
ecke
fan
fink
fingen
fesch
five
fix
fanc
father
gon
guckt
gieß
gud
gord
gfrei
guest
hı
heh
hig
hid
hone
heilen
il
igel
ili
igual
jr
jal
jas
jod
jlo
jro
jenau
jij
ky
koch
kiel
kum
kra
kim
kiss
kissen
kard
kase
kull
kohl
konst
kimmt
kalten
kragen
kitsch
lern
lehn
loren
line
lesen
lord
langen
liste
leng
lernt
lisa
mie
moh
metz
mass
mul
mahn
mud
mcken
mischt
masse
miefe
murm
mettern
nes
nas
nut
nipp
nauf
nutz
nuttin
nanananananananananananananananananananananananan
om
ov
oit
ouh
ofen
oster
oase
omas
ouz
okey
pes
pad
pum
port
pue
pennt
ped
paß
pee
pinke
pens
passe
rir
rel
rah
rut
rig
rod
rien
ress
ramp
ratten
rinder
rsp
rire
rucken
rampen
ses
sem
sle
saus
selt
sap
sangen
sli
sacke
scu
scre
ter
taus
tight
tuer
tone
tinder
tassen
uch
uii
vas
vist
vide
vides
wier
wig
wagt
wahlt
wiss
wetter
wings
wеnn
xx
yam
ziv
zahn
zott
zij
##ef
##eah
##eckt
##ekn
##emmt
##iy
##iar
##iat
##iot
##igend
##iana
##ija
##iama
##iautomaten
##dl
##din
##ding
##dang
##dessen
##uit
##ummer
##ulle
##upp
##uess
##uven
##unew
##sw
##sg
##set
##singen
##sage
##sehnt
##tro
##tieren
##tesch
##nallt
##nase
##wir
##wel
##will
##wahl
##wahlt
##wahn
##weilen
##wija
##az
##af
##aff
##adeedado
##cal
##cue
##core
##cini
##coni
##hau
##hor
##hel
##haut
##hooo
##rm
##rar
##rag
##rier
##ris
##rise
##reiten
##ruf
##rior
##raten
##pir
##pes
##pel
##pier
##pern
##pang
##pos
##pft
##port
##pala
##pack
##passt
##pnot
##oke
##ogt
##onder
##lu
##len
##lus
##lala
##lagen
##luckt
##lamos
##lene
##liegt
##likat
##yles
##md
##mig
##masch
##massen
##mix
##milch
##ks
##ko
##kala
##kauf
##krecht
##kampfer
##jd
##jager
##jame
##jektiv
##zelt
##zung
##zuhe
##zungs
##zanne
##zotti
##bten
##band
##bom
##belt
##bre
##bow
##bung
##bada
##bild
##betr
##gf
##ggen
##ging
##gste
##gelt
##gong
##gumm
##geister
##gitar
##gott
##ggin
##vie
##vun
##vern
##vve
##varte
##fil
##´n
##´dich
##chau
##chiv
##chnet
##chno
##eres
##erlich
##erscht
##erviert
##ente
##ence
##enker
##enfest
##ins
##inat
##inik
##inierten
##iet
##stes
##stramm
##stieg
##nden
##eir
##eiben
##eile
##eime
##irm
##anche
##anara
##llall
##llow
##llbar
##llini
##eing
##eingenommen
daach
date
daum
daugh
underne
laung
laster
laser
latern
lallen
laesst
lazed
labyrinth
larm
lavve
lallall
due
dum
dusen
duschen
dunen
duuuuu
##ehe
##ehm
##auschen
diel
##ona
##onara
schach
schrau
schmal
scham
schiel
schala
schallt
schuß
schief
scherz
schiller
schoko
##arrt
##arned
##urf
einge
einger
einget
einwand
einkauf
##oros
auge
audi
außen
ohlala
##mme
##mmes
##ichten
##esia
##esday
haie
hate
hase
hacer
haengt
##itas
##iting
##itial
##elnd
##elme
##elkeit
##elzen
soy
sour
sober
soft
souven
deren
##annung
wiesen
##tellini
inten
intr
inhal
innam
inzwischen
initial
##ennent
##genahrt
strau
stat
stick
stoff
strauß
stumpf
stomp
styles
##asure
allzu
##ckst
##cket
zuz
zustand
zueinander
zult
zuzutrau
##ders
hecht
hekt
heee
hecken
hemd
mitgebracht
##etra
##etisch
##etamin
unco
ungeh
ungew
unif
unnot
unheil
unvern
##agelt
##agna
ess
verein
verre
versen
verander
verstellt
verpflicht
verirrt
vereist
##uth
##uters
##ierer
nachsch
nachgedacht
##indet
meint
meinung
##emd
##ema
##emie
##ement
aufget
liecht
lieve
lee
leut
learned
doc
doing
dose
doubt
##isma
##isser
##isha
sieg
siever
sieger
gehe
geheime
##ati
##atis
##atung
##ingungslos
denen
tho
their
ana
any
anzu
anstand
anker
anzug
angef
angesch
ankommt
anruf
angste
##eitmusik
unsch
warrior
schonster
##igt
kost
koka
kopfe
erben
erlau
erlo
ernte
ersehnt
gegend
gepf
gekr
gekannt
geeilt
wasd
##sseits
frier
frieren
friesen
mac
mast
mand
mais
master
mazel
maqu
macken
making
mamam
mains
nada
naehe
##unen
##unten
##unkeln
##scha
##schm
##schon
##schel
##schreiben
##schamt
##schirm
##legt
willen
willing
willig
liebte
liebste
lieb´dich
spo
spl
spuckt
spree
spitzt
spannung
weis
weitem
woe
woas
wolle
wofur
##anzig
impos
furchter
wiederstehn
##bern
##undbar
##tenstramm
blank
blinkt
bluse
blij
blume
hablamos
bec
bede
beam
beef
##ernity
hero
heran
herlich
hermes
##dee
##ded
##deen
##dest
##alalash
nietesch
##andon
##andet
##andra
##malt
##otte
jama
jaaa
jabad
jabada
alti
##ola
##olen
##olot
##oliert
##ologen
baba
baisser
##uckter
amer
amph
amsel
ausra
ausbricht
ausgetr
ausgelacht
keins
keines
glut
wecker
week
##ami
##amo
##amam
##btod
trier
trop
trab
trug
trub
trip
trott
trou
trachten
trogn
trenker
nachtwach
##terung
##adenlos
##osn
##osste
##osed
##osoph
beides
beispiel
nest
nebel
grunt
grinst
grunew
gratis
rey
regal
rever
refr
revier
reaching
##chtra
machs
machbar
##immelt
##ffi
##ffel
##artig
##etzen
hatz
alleen
brach
brise
tob
tov
tour
tolle
tous
toil
tower
toda
todes
heyho
andert
dreiß
druckt
dress
dreck
dritte
driving
drunten
##lled
malz
##sted
##steak
vors
vortr
vorsicht
vorgestellt
vorgeseh
voreingenommen
hierbl
schwur
schwamm
schwirr
kling
klug
klangen
klopp
klapp
klappe
klampfen
sehnen
##umdreh
flin
flam
flight
flucht
fluß
flogen
flower
flossen
flitzen
flamen
##kete
##ppa
##ppes
##aya
weißwein
weren
werbung
##allert
##allalla
tags
##ussia
lives
##rez
##regen
##reut
##rekt
##revier
##gebeerbaum
zwanzig
givin
##htag
gesetz
##opfer
##ophin
demoliert
sußen
suzanne
##ickst
##ickeln
verlorn
verlasse
verlernt
umzu
umgeh
umarm
schluß
schlitten
schlange
schlampe
schlurf
##ved
##vester
##veza
hoi
hocker
hoou
##ilot
##iloo
##verlust
lassu
lassig
feuern
sichel
langsten
langweilen
langsseits
sees
seven
sedu
hald
halber
halbtod
lover
loca
loffel
abo
absch
abges
above
abgestellt
abgere
abzuhe
abandon
durscht
durften
durchtra
vieler
ihrer
isi
##rate
##raften
steh´n
irma
gefang
gefiel
gefehl
gefasst
gefullt
gefreut
##ends
dep
deich
dell
depp
dejame
hufte
hustet
huggin
himmelreich
duplikat
frech
freute
freud
##ungel
##sequ
##idn
##iday
handtuch
handumdreh
durchbr
irgendwer
chill
charm
chime
chillig
chiama
beri
berlus
gozar
hinuters
ubern
uberfahrt
sauft
hausle
hausern
aberdeen
manne
mokka
knapp
endophin
##ents
wohn
morgengrau
##beeld
##bewusst
##becue
luschen
marc
marz
marsch
marien
marlene
##schenes
proll
priva
##gelenkt
machtig
note
platten
pleite
heia
heisst
yeux
yellow
##alalalalalalalalalalala
weggew
weggeseh
boy
boss
boten
boath
haltlos
tear
testo
teddy
techno
micr
partykl
partyzeit
partylarm
partygong
wundervoll
freier
krass
krise
kranke
krallen
##bly
round
room
robot
rovin
rocco
jedermann
brauchten
jahres
jahrhundert
jahrelang
sproch
sprit
sprung
spruche
onkel
darkn
##abab
##abada
genita
genagelt
##book
##boys
string
strahlt
streiten
streng
laune
lausch
laufst
holst
holder
shop
shap
shopp
ship
shuff
shalalalalalalalalala
shisha
shalalash
traumhaft
traumpala
spurn
scheißt
scheißen
horoskop
##sters
##steron
gelingen
gelogen
gelieb
gelenkt
gelaufen
gelandet
ahn
ahnen
ahnung
schaue
schaukeln
dienst
geborn
gebunden
geborgen
geballer
parat
##ants
##antin
##antig
##etta
##ettin
##ananana
geteilt
leide
obm
objektiv
bess
besond
besonder
##ustrier
rave
raise
rakeln
winde
naher
nahen
##perstein
verstau
verstort
rud
ruder
ruuuuu
rummel
##thm
jedenfall
damn
geschrei
geschla
geschluckt
sternklar
abendlicht
abendwind
bitters
seide
schranken
schritte
##ohnung
madl
muskeln
unters
gemut
gemeint
tiene
##hert
##edade
##edadeedado
lachelst
lacherlich
schwert
##iefste
##ioniert
##ught
yourself
zuruckdreh
hubschen
baut
baun
schlapp
worten
##astr
witterung
stelle
schenke
weitersingen
##bras
##brero
##itzer
##itzte
gewann
gewiss
gewalt
gewohnen
gewinnt
gewartet
verdad
verdacht
sehnsuchtsvoll
##kohm
starken
started
tutto
turen
turkn
turkisblauen
tree
treetboot
self
began
begren
brings
prof
proba
protest
probier
joie
jocke
joggen
rosis
wanneer
##lopp
##lossen
sommertag
sommerregen
daniel
dorfplatz
nacken
entt
entfach
entelein
entrez
hinters
kaugumm
richtige
blauer
ask
asking
gleichgew
gleichzeit
poesie
pommes
seiten
seither
wahres
##pru
##prung
##prochen
mondes
mondschein
mondial
einerlei
##attwija
bark
baron
barbecue
pepp
standen
standin
standard
##issi
##issement
gesteh
gestrand
otzi
##badee
comm
couch
strandeten
modell
steif
etabl
eternity
reiz
reif
reizt
orkan
ordentlich
##ittern
##ittchen
##zenjager
verrinnt
verruckte
verruckter
##okken
##okokken
werdet
sternenzelt
gedanke
sahen
sahara
stadtele
belong
belesen
belauschen
##essin
funk
funken
funkeln
pak
paid
pace
paella
skin
skat
sonnengl
sonnenlicht
##onnaie
falla
fallschirm
atten
clans
##udel
##izist
tiefer
schakala
loved
zusammensein
quando
##eraffen
finge
fortune
wohlgenahrt
notig
rauben
rauber
raubt
raufen
rauchen
##flix
palare
##drum
backen
fehlern
straight
meier
meist
meise
wochenlang
ooohooo
ooohhooo
lalalalalalalal
jungges
jungless
momente
schnur
schnitten
schneres
fastziniert
helden
oliver
purer
vogebeerbaum
kurieren
weisser
beinah
leichtsinn
drehe
drehte
polit
polizist
rotes
rotiert
rotwein
swing
schickt
schicker
schicken
namensschild
besteht
bestreiten
wehte
sturer
neverland
dish
vermag
##kommst
komisch
augenblicklich
agyp
radeln
##pect
stille
stillsteht
vertan
vertauscht
lebenszeit
zeign
hype
hypnot
sense
senkrecht
allerschon
menschlichkeit
schatzele
waer
waste
waka
waffen
glaschen
superh
fliegerlied
saft
sacr
bull
dicker
dickem
panisch
startbahn
karate
zeriss
bells
looks
lookiloo
##laubten
fuhrerschein
##time
spaten
nennst
same
limon
lustigen
highlight
kapierst
##greif
schalalalalalala
erleb
vertraue
trinkst
gabs
gedachtnis
outta
sayonara
##reift
verschwitzte
lebm
breiter
freiheitsgefuhl
blonden
rhymes
farbt
##gaste
grabt
grappa
schnapsnase
kegel
sinnen
lasts
jacke
jacky
humides
kuhe
ramazotti
##eschon
wunschst
wunschten
galopp
inder
sankt
##spaß
##aker
schaden
schadet
grundlichkeit
dringend
sache
##ations
anderer
schwimmt
selbstbetr
selbstbewusst
menschenmassen
##pool
##poesie
david
kneift
kneifer
springt
add
carlo
carry
carved
exist
exper
expect
pferden
serai
##strahl
stolperstein
mannerwelt
wunderschonste
comin
fott
verfol
gefahren
eigenen
benz
benzin
jumpin
weng
michael
liedern
grußen
abenteurer
einsamen
fanden
konigreich
##ziges
nebenan
taugen
tauchen
verkehr
verknallt
verkraften
schlosser
engelbert
gebrat
gebrochen
hits
hitze
hitmix
korrekt
schwacheren
howgh
bereden
wustens
wuidn
zahlen
zahlmeister
##gemacht
blumenkranz
grossen
geschwister
billy
billionen
cowboys
hardly
hardcore
runs
runnin
##ifice
verwundbar
luftschlo
luftgitar
ayer
miller
millimeter
milliar
pleasure
tierpark
gegenteil
gegengelenkt
abschiedsk
durchdrehen
promill
promillen
promillig
bomb
bombe
silvester
zauberer
zauberschein
zaubertr
zauberkraft
zauberhand
happiness
sparen
getankt
normaler
brudert
porch
ruhm
ruhigen
##weile
##zentren
nachstens
bluhn
tollem
tollsten
schweigt
swear
sweat
fickst
graut
grauer
graues
minutes
romance
aufmachen
versaumt
straßenfest
burger
burning
burschn
lochen
phone
pfand
talk
talked
dumme
druck´
druckst
zartliche
golf
kinderaugen
kathrein
##ensprung
außerdem
erfand
erfahr
topstars
marchenland
prinzen
vogelwiese
vogelweise
colour
himbeer
himself
kaltes
schoß
verbrauch
verballert
badeedade
##geflogen
schließe
fantastisch
fußen
guy
guys
gitarrenk
kuchen
kuscheln
kuschel
ratsel
##ostet
##ouse
unbegreif
reichem
verloscht
schlaue
uberlegen
uberleben
gaste
riefst
stoppen
domino
kellergeister
wichtigste
funkelperlen
gerannt
##resant
##errsche
schuchternheit
hampel
herrgott
uberholt
schmetterlinge
behalten
beherscht
beherrsche
facebook
homies
kuhles
kuhlenden
kuhlschrank
muy
muller
viennent
interresant
verflucht
kollektion
blasse
weiches
gespur
gespuckt
gespielt
sechst
beruhigend
walks
walkin
action
across
appris
bij
fielen
gange
monte
schinkenstra
legte
blinded
schworst
summen
uhuhh
entfernt
schafft
nordpol
ringlein
##hini
##badanger
##farbe
internet
stuff
stufen
unverschamt
warmem
##igkeiten
beachclub
klopf
klopfst
charisma
garnich
garnier
skibadee
skibadanger
komplimen
bhs
eurem
ridern
wussten
einzelkampfer
streut
streber
verhaut
gepragt
touched
sußes
teeklar
verdrang
entschuld
couldn
tirolerh
jetset
kalter
klebst
offenbar
sunrise
visa
wehtut
wehtun
schusse
verpass
verpeilt
verstecken
vergebens
greif
betrug
betrugen
vibrier
vibrations
bande
crash
calls
callin
fail
faces
motoren
pils
##erscheinung
scheibe
autostop
unerlaubten
aufzudr
erfriert
erfrieren
neonfarben
absatz
irgendjem
shoul
unterhemd
farbenspiel
prinzessin
wintertime
wusstest
bemalen
calor
calcio
hingreift
hassel
leichen
frischfleisch
spezie
bratwurst
rastlos
fuehl
fullt
moloko
tornado
dauerwurst
hashtag
staudamm
##ashian
tryin
grande
realize
klatscht
##ophone
schlagst
schlageraffen
schlimmsten
dreams
dreamin
dreaming
business
falsch
fuckin
kredit
kreativ
paul
rettung
##ible
understand
lampen
einzigartig
angesagt
erklimmen
erreichbar
bezahlt
hoflich
yeeeeah
rapper
sonnenbrillen
discothek
naturally
lebenslanglich
taumle
pfeif
pfeifen
bangbang
cup
cuor
cryin
gaudi
kultur
matrosen
salziges
tortellini
##ijattwija
##turm
##tures
vernunft
gepack
glanzten
klanglos
islandstyle
begleitmusik
dankend
dankeschon
nations
carolina
pulsier
pulsiert
pulsieren
spazier
entfuhren
betrunkener
katastr
snapp
sarg
zooom
schleiche
solden
dollars
maibaum
sperrst
bedingungslos
redet
broken
whiskey
texas
traumerein
vergibst
gemeinde
atzenparty
polizeirevier
sinnlose
tauchst
interessant
verbluht
absolut
discopogen
closing
missed
wrmm
##onds
zulpe
wedding
chicken
mijn
garantiert
reims
reimt
sonnenuntergange
wahnsinnsgf
verzauberst
##strande
intergalaktischen
motorrad
automatisch
telefoni
bagu
bagger
bundig
clear
echolot
eignen
fesselt
harley
illustrier
narben
palabras
reserviert
ruckwarts
##sturmer
haaaar
streichelme
aufgedreht
aufgepasst
aufschlagt
konditor
kondukteur
beklopp
record
gesundheit
verlangst
schliefen
abgehoben
kribbelt
streif
leisem
funktioniert
rauchst
strammem
dunkler
voorbeeld
allerliefste
unbekanntes
akzeptieren
psyched
psychose
psychologen
apart
clou
firmam
hunger
hungry
kehrst
llega
llevarte
munchen
munzen
serviert
serenade
sunday
sundhaft
##valier
##freie
lattenstramm
schallalla
soms
sombrero
stachel
stattdessen
alltags
zuckersuße
zuckersuess
aufgerollt
aufgeraucht
legende
gebebt
gluhen
suppose
supposed
irrtum
##ikaner
platin
bouwen
vergangenen
vergangenheit
ahahahaha
mamacitas
steckte
probieren
sonnenstrahlen
sixpack
qualm
nervt
nervos
zerstoren
lustigsten
elektrischer
ehrenwerten
cappuccini
relaxte
avec
aktiv
borussia
basket
bottle
bottom
cafe
culpa
cultures
campioni
digging
geißen
hosepi
kissed
kismet
katzensprung
kontra
mickie
mickey
montanara
montagna
pietro
rushed
slam
sussen
sansibar
volk
##ublik
##straßen
dammert
dammerung
lautet
lautete
schrecklich
##orghini
stundlich
stadion
studier
dolores
##schauen
amnesie
amnesia
brunnen
brunett
vorstadtstraßen
kloar
verliebten
huisje
changes
knutsch
presents
tellerrand
wolfgang
siberia
computer
hollenspaß
bundesbahn
bundeswehr
illusion
illusionen
pfluckten
schliesse
scharfes
erstrahlst
begegnen
begegnet
avais
aurai
bikini
buggin
eitelkeit
eberhard
eilte
fades
filmen
gnadenlos
gfrogt
kanzlei
kitzelt
lehrer
mollig
message
netze
peitsche
pfeffer
piccolo
pankow
rythm
ragaz
rules
signs
sabine
tennis
ttwijattwija
wanderstab
zarter
##ellenzeit
##uaje
##modus
##bayern
dazugehort
laura
lackieren
lamborghini
schurzenjager
eingelocht
verandert
aufhoren
leuchtturm
anlacht
anstatt
warmende
erobert
navi
spinner
jejlauv
babies
auserwahlt
tricks
trommel
republik
vorstellbar
klagte
flachgelegt
gipfelsturmer
schlankes
shorts
shaking
verganglich
entwickeln
entflieht
emotionen
schmerzt
selbstverstandlich
jugendfrei
breathin
portemonnaie
romantisch
philosoph
erfullung
behandl
accord
huhnerfleisch
concentrar
crowd
shooting
elegant
duftendes
throwing
kerzenschein
tunnelblick
receive
allerletzten
mittelpunkt
lederhosn
seppellire
ignoriert
allernachste
depressionen
disappeared
adoptieren
adriana
bunga
bleiche
cœur
cerveza
caught
canzone
cassandra
certain
cards
dschungel
dangerzone
ebbe
effektiv
fancy
gonokokken
gudda
gordon
hımm
higher
honecker
ilias
kylie
kardashian
kullern
konstantin
kitschpoesie
lineal
lenguaje
metzger
mulmig
mahnung
mckenzie
metternich
nutten
nippes
oitn
ouzo
pumpt
portami
puedo
pension
rires
ressiert
rinderwahn
rampenlicht
sesame
sempre
seltsam
slip
scupper
scream
termin
uiii
vista
zivil
zottig
zijn
##pirin
##zungspfahl
##bande
daughter
underneath
lallallallalla
schielte
einwandfreie
einkaufs
souvenir
intress
inhalier
innamor
initials
strauss
stomping
zueinandersteh
zuzutrauen
hektik
uncool
ungehemmt
ungewiss
uniform
unnotig
unvernunftig
versenkt
verpflichtet
nachschub
sievering
anzuschauen
anstandig
angefangen
angeschaut
kokain
erlauben
erloschenes
gepflegt
gekriegt
maquina
mamamamam
imposible
furchterlich
blijft
beefsteak
nieteschierer
jabadabada
altijd
amphetamin
ausrasten
ausgetrickst
trouwen
trachtenjacke
nachtwachter
grunewald
reverse
toilette
dreißig
vortrage
hierbleiben
schwirrten
flamenco
weißweinschorle
hoouoo
seduce
abgerechnet
abzuheben
durchtrainierten
gefehlt
durchbrichst
charmant
berlusconi
hinuterseh
marienerscheinung
private
weggewischt
boathouse
testosteron
microphone
partyklopfer
wundervollste
rovinare
darkness
shalalashalalalalalalalalala
traumpalast
geliebten
geborgenheit
ruuuuuund
jedenfalls
geschlafen
sternklarer
bittersuß
sehnsuchtsvollen
turknall
begrenzungspfahl
probably
jockey
kaugummiautomaten
gleichgewicht
gleichzeitig
mondiale
etablissement
sonnenglanz
schakalaka
junggesellenzeit
agypten
hypnotisiert
sacrifice
lookilooki
selbstbetrug
wustensand
blumenkranze
luftschlosser
luftgitarre
milliarden
abschiedskuss
zauberhande
badeedadeedadeedado
gitarrenklang
unbegreiflich
hampelmann
schinkenstraße
tirolerhut
crashing
aufzudreh
irgendjemand
speziell
bangbangbang
wahnsinnsgfuhl
illustrierte
streichelmedizin
konditorei
firmament
basketball
hosepipe
schurzenjagermeister
mamamamamama
