{"<s>":0,"<pad>":1,"</s>":2,"<unk>":3,"<mask>":4,"!":5,"\"":6,"#":7,"$":8,"%":9,"&":10,"'":11,"(":12,")":13,"*":14,"+":15,",":16,"-":17,".":18,"/":19,"0":20,"1":21,"2":22,"3":23,"4":24,"5":25,"6":26,"7":27,"8":28,"9":29,":":30,";":31,"<":32,"=":33,">":34,"?":35,"@":36,"A":37,"B":38,"C":39,"D":40,"E":41,"F":42,"G":43,"H":44,"I":45,"J":46,"K":47,"L":48,"M":49,"N":50,"O":51,"P":52,"Q":53,"R":54,"S":55,"T":56,"U":57,"V":58,"W":59,"X":60,"Y":61,"Z":62,"[":63,"\\":64,"]":65,"^":66,"_":67,"`":68,"a":69,"b":70,"c":71,"d":72,"e":73,"f":74,"g":75,"h":76,"i":77,"j":78,"k":79,"l":80,"m":81,"n":82,"o":83,"p":84,"q":85,"r":86,"s":87,"t":88,"u":89,"v":90,"w":91,"x":92,"y":93,"z":94,"{":95,"|":96,"}":97,"~":98,"¡":99,"¢":100,"£":101,"¤":102,"¥":103,"¦":104,"§":105,"¨":106,"©":107,"ª":108,"«":109,"¬":110,"®":111,"¯":112,"°":113,"±":114,"²":115,"³":116,"´":117,"µ":118,"¶":119,"·":120,"¸":121,"¹":122,"º":123,"»":124,"¼":125,"½":126,"¾":127,"¿":128,"À":129,"Á":130,"Â":131,"Ã":132,"Ä":133,"Å":134,"Æ":135,"Ç":136,"È":137,"É":138,"Ê":139,"Ë":140,"Ì":141,"Í":142,"Î":143,"Ï":144,"Ð":145,"Ñ":146,"Ò":147,"Ó":148,"Ô":149,"Õ":150,"Ö":151,"×":152,"Ø":153,"Ù":154,"Ú":155,"Û":156,"Ü":157,"Ý":158,"Þ":159,"ß":160,"à":161,"á":162,"â":163,"ã":164,"ä":165,"å":166,"æ":167,"ç":168,"è":169,"é":170,"ê":171,"ë":172,"ì":173,"í":174,"î":175,"ï":176,"ð":177,"ñ":178,"ò":179,"ó":180,"ô":181,"õ":182,"ö":183,"÷":184,"ø":185,"ù":186,"ú":187,"û":188,"ü":189,"ý":190,"þ":191,"ÿ":192,"Ā":193,"ā":194,"Ă":195,"ă":196,"Ą":197,"ą":198,"Ć":199,"ć":200,"Ĉ":201,"ĉ":202,"Ċ":203,"ċ":204,"Č":205,"č":206,"Ď":207,"ď":208,"Đ":209,"đ":210,"Ē":211,"ē":212,"Ĕ":213,"ĕ":214,"Ė":215,"ė":216,"Ę":217,"ę":218,"Ě":219,"ě":220,"Ĝ":221,"ĝ":222,"Ğ":223,"ğ":224,"Ġ":225,"ġ":226,"Ģ":227,"ģ":228,"Ĥ":229,"ĥ":230,"Ħ":231,"ħ":232,"Ĩ":233,"ĩ":234,"Ī":235,"ī":236,"Ĭ":237,"ĭ":238,"Į":239,"į":240,"İ":241,"ı":242,"Ĳ":243,"ĳ":244,"Ĵ":245,"ĵ":246,"Ķ":247,"ķ":248,"ĸ":249,"Ĺ":250,"ĺ":251,"Ļ":252,"ļ":253,"Ľ":254,"ľ":255,"Ŀ":256,"ŀ":257,"Ł":258,"ł":259,"Ń":260,"en":261,"er":262,"ch":263,"Ġd":264,"ei":265,"ie":266,"Ġs":267,"nd":268,"te":269,"ich":270,"ein":271,"Ġw":272,"Ġa":273,"es":274,"Ġi":275,"Ġu":276,"Ã¼":277,"ge":278,"an":279,"Ġm":280,"st":281,"Ġn":282,"ĠS":283,"Ġh":284,"Ġund":285,"Ġdie":286,"Ã¤":287,"ar":288,"gen":289,"Ġein":290,"Ġv":291,"as":292,"ÃŁ":293,"ll":294,"Ġz":295,"Ġder":296,"hr":297,"Ġb":298,"in":299,"ten":300,"em":301,"Ġer":302,"or":303,"au":304,"on":305,"sch":306,"Ġzu":307,"Ġau":308,"it":309,"un":310,"el":311,"Ġg":312,"icht":313,"at":314,"Â»":315,"Â«":316,"ach":317,"ĠA":318,"Ã¶":319,"ber":320,"ĠG":321,"Ġden":322,"ĠM":323,"Ġf":324,"Ġin":325,"ĠH":326,"Ġk":327,"ter":328,"ĠD":329,"ur":330,"ck":331,"ĠB":332,"lich":333,"al":334,"ĠW":335,"Ġge":336,"ĠE":337,"ir":338,"ben":339,"Ġl":340,"ig":341,"et":342,"mm":343,"den":344,"Ġsie":345,"ĠF":346,"ĠK":347,"Ġnicht":348,"Ġda":349,"der":350,"hn":351,"Ġsich":352,"Ġdas":353,"Ġsch":354,"and":355,"Ġwar":356,"re":357,"och":358,"Ġsein":359,"Ġso":360,"de":361,"Ġauf":362,"Ġmit":363,"sen":364,"ĠL":365,"ĠT":366,"ann":367,"Ġich":368,"Ġver":369,"ung":370,"Ã¼r":371,"ag":372,"Ġan":373,"eit":374,"âĢ":375,"Ġdem":376,"Ġvon":377,"Ġwie":378,"Ġun":379,"und":380,"Ġhat":381,"Ġes":382,"Ġihr":383,"ĠSch":384,"se":385,"ĠI":386,"am":387,"ĠR":388,"ls":389,"hm":390,"tr":391,"ĠP":392,"âĢĵ":393,"Ġj":394,"be":395,"ĠV":396,"eu":397,"ĠdaÃŁ":398,"ĠÂ»":399,"hl":400,"ier":401,"is":402,"ĠN":403,"hen":404,"Ġist":405,"ĠSie":406,"ĠâĢĵ":407,"Ġdes":408,"..":409,"cht":410,"Ã¼ber":411,".Â«":412,"enn":413,"ern":414,"Ġals":415,"rei":416,"ro":417,"isch":418,"ol":419,"Ġbe":420,"ind":421,"chen":422,"ft":423,"ĠZ":424,"ehr":425,"Ġaus":426,"Ġeine":427,"Ġo":428,"ĠU":429,"Ġha":430,"oll":431,"fen":432,"ut":433,"etz":434,"ĠSt":435,"Ġhatte":436,"ĠEr":437,"Ã¼ck":438,"le":439,"Ġall":440,"Ġvor":441,"ser":442,"lei":443,"Ġihn":444,"Ġwir":445,"ĠAu":446,"zu":447,"eine":448,"Ġnoch":449,"Ġum":450,"uÃŁ":451,"Ġst":452,"ĠÃ¼ber":453,"esch":454,"rau":455,"Ġnach":456,"anz":457,"ne":458,"ĠJ":459,"lo":460,"Ġaber":461,"Ġihm":462,"ing":463,"igen":464,"Ġauch":465,"mmen":466,"Ġr":467,"iel":468,"ste":469,"Ġt":470,"pf":471,"mmer":472,"!Â«":473,"ick":474,"Ġim":475,"wei":476,"ĠGe":477,"agte":478,"ra":479,"he":480,"um":481,"Ã¶n":482,"Ġbei":483,"il":484,"ahr":485,"ort":486,"ent":487,"err":488,"ill":489,"sten":490,"est":491,"end":492,"aus":493,"Ġmir":494,"Ã¤n":495,"urch":496,"Ġhin":497,"Ġeinen":498,"ang":499,"ff":500,"ĠfÃ¼r":501,"?Â«":502,"Ã¶r":503,"eg":504,"ot":505,"eben":506,"ab":507,"acht":508,"Ġwei":509,"pr":510,"Ġnur":511,"ien":512,"all":513,"nen":514,"aÃŁ":515,"mal":516,"Ġman":517,"Ġwo":518,"Ã¤t":519,"Ġmein":520,"lie":521,"âĶ":522,"agen":523,"ige":524,"âĶģ":525,"ĠVer":526,"Ġgew":527,"âĶģâĶģ":528,"Ġmich":529,"che":530,"her":531,"nder":532,"Ġwieder":533,"ken":534,"Ġwer":535,"ĠO":536,"Ġeinem":537,"Ġwenn":538,"Ġlie":539,"Ã¤r":540,"Ġdoch":541,"ster":542,"Ġdurch":543,"Ġtr":544,"Ġher":545,"etzt":546,"uch":547,"ĠAn":548,"ommen":549,"ver":550,"Ġwas":551,"Ġsagte":552,"rie":553,"Ġganz":554,"Ġdu":555,"Ġseine":556,"ungen":557,"Ġzur":558,"eil":559,"ÃŁen":560,"br":561,"ger":562,"ĠC":563,"Ġ..":564,"auf":565,"ĠDie":566,"ischen":567,"sel":568,"achte":569,"zen":570,"ul":571,"ĠIch":572,"Ġeiner":573,"ĠHerr":574,"ah":575,"gel":576,"Ġp":577,"einen":578,"ru":579,"Ġent":580,"Ġdenn":581,"imm":582,"lick":583,"lichen":584,"war":585,"om":586,"rÃ¼":587,"Ġhaben":588,"Ġunter":589,"pp":590,"Ġkl":591,"lau":592,"us":593,"Ġmehr":594,"Ġwoll":595,"keit":596,"onn":597,"assen":598,"Ġdar":599,"Ã¤nd":600,"die":601,"Ġschon":602,"bst":603,"heit":604,"ĠAr":605,"Ġges":606,"Ġsel":607,"Ġdies":608,"ges":609,"kt":610,"hal":611,"Ġuns":612,"tet":613,"Ġdann":614,"ad":615,"ell":616,"Ġ...":617,"bt":618,"angen":619,"Ã¤ch":620,"ĠĠ":621,"schen":622,"ha":623,"Ġhabe":624,"bar":625,"Ġsoll":626,"ĠAugen":627,"ĠUnd":628,"ĠmuÃŁ":629,"Ġab":630,"Ich":631,"gt":632,"ri":633,"Ã¼n":634,"leich":635,"ĠEin":636,"Ã¼t":637,"Ġwur":638,"Ġbes":639,"etw":640,"tete":641,"Ġam":642,"ĠUn":643,"Â«,":644,"hne":645,"Ġzum":646,"ĠGes":647,"ĠIhr":648,",Â«":649,"ffen":650,"ief":651,"Ġgro":652,"ed":653,"tel":654,"achen":655,"ĠMann":656,"wer":657,"Ġgeh":658,"ug":659,"Ġseiner":660,"ank":661,"mit":662,"Ã¼hr":663,"ĠkÃ¶n":664,"ehen":665,"liche":666,"Ġoder":667,"Ġsind":668,"esen":669,"Ġwel":670,"ĠEs":671,"Ġihre":672,"Ġimmer":673,"scha":674,"'s":675,"Ġander":676,"ze":677,"ĠwÃ¤":678,"ĠFrau":679,"Ġhier":680,"bei":681,"Ġwerden":682,"Ġja":683,"la":684,"ĠAber":685,"ĠDer":686,"Ġre":687,"Ġetw":688,"Ã¤u":689,"sam":690,"Ġjetzt":691,"tes":692,"Die":693,"ĠBe":694,"Er":695,"Ġkann":696,"Ġwaren":697,"ingen":698,"ert":699,"Der":700,"ers":701,"Sie":702,"os":703,"Ġsp":704,"Ġseinen":705,"Ġal":706,"ĠhÃ¤t":707,"Ġfr":708,"Ġnie":709,"ob":710,"iger":711,"Ġkonn":712,"elt":713,"Ġwird":714,"ĠHand":715,"ald":716,"kommen":717,"los":718,"Ġnichts":719,"ner":720,"ist":721,"âĶģâĶģâĶģâĶģ":722,"Ġbis":723,"ĠDas":724,"fe":725,"Ġsah":726,"Ġger":727,"ĠIn":728,"Ġdiese":729,"Ġdieser":730,"Ġsei":731,"chte":732,"erk":733,"Ġwurde":734,"Ġnun":735,"Ġkam":736,"orden":737,"hnen":738,"eute":739,"unde":740,"ap":741,"ĠSp":742,"issen":743,"ast":744,"Sch":745,"ĠKo":746,"ĠMen":747,"Ġste":748,"Ġwohl":749,"Ġsehr":750,"sp":751,"Ġselbst":752,"Ġetwas":753,"rÃ¤":754,"ange":755,"eigen":756,"Ġwill":757,"ht":758,"Ġlei":759,"age":760,"ĠZeit":761,"gl":762,"ĠzurÃ¼ck":763,"Ã¼hl":764,"hin":765,"kl":766,"Ã¶t":767,"schaft":768,"Ġzwei":769,"eim":770,"Ġseinem":771,"gte":772,"alt":773,"Ġgesch":774,"Ġkonnte":775,"Ġgef":776,"Ġgen":777,"ohn":778,"iÃŁ":779,"dem":780,"vor":781,"Ġbeg":782,"wie":783,"Ġwen":784,"Ġohne":785,"ÃŁe":786,"Ã¤d":787,"Ġalles":788,"Ġalle":789,"cken":790,"ĠwÃ¼r":791,"ĠFre":792,"sa":793,"itt":794,"unden":795,"ĠVor":796,"ĠWei":797,"immer":798,"ĠHer":799,"blick":800,"art":801,"itz":802,"Ġgegen":803,"lÃ¼":804,"ĠSe":805,"ĠhÃ¤tte":806,"gend":807,"ion":808,"ahm":809,"Ã¤l":810,"Ġeinmal":811,"ĠDu":812,"ĠStr":813,"tern":814,"Ġbr":815,"Ġkein":816,"me":817,"Ġviel":818,"ik":819,"Ġstand":820,"og":821,"ĠRe":822,"ĠHau":823,"tw":824,"von":825,"eln":826,"Ġje":827,"Das":828,"ater":829,"Ġmeine":830,"Ġeines":831,"Ġspr":832,"ĠPf":833,"ĠmÃ¼":834,"ndern":835,"Und":836,"ĠLeben":837,"nis":838,"Ġwollte":839,"stand":840,"Ġob":841,"ahren":842,"ĠWas":843,"Ġber":844,"gesch":845,"Ġihren":846,"ische":847,"Ġbin":848,"men":849,"orgen":850,"ache":851,"Ġging":852,"ahl":853,"od":854,"ĠKind":855,"igkeit":856,"agt":857,"omm":858,"cher":859,"inn":860,"fall":861,"ke":862,"hmen":863,"ider":864,"aum":865,"weg":866,"sich":867,"gew":868,"ĠweiÃŁ":869,"lle":870,"schl":871,"Ġihrer":872,"Ġhal":873,"ord":874,"nde":875,"tlich":876,"ĠAus":877,"nicht":878,"ott":879,"ander":880,"so":881,"glich":882,"Ã¤hr":883,"ĠFr":884,"egen":885,"nt":886,"Ġvom":887,"Ġeben":888,"im":889,"Ġkeine":890,"Ġerst":891,"Ġverl":892,"dr":893,"Ġzw":894,"anken":895,"Es":896,"ielt":897,"zlich":898,"eiten":899,"reu":900,"ade":901,"elte":902,"Ġrief":903,"ĠkÃ¶nnen":904,"Ġgar":905,"eicht":906,"Ã¤hl":907,"Ġfort":908,"Ġgleich":909,"Ġdir":910,"Ġe":911,"Ġunser":912,"Ġsol":913,"ĠwÃ¤re":914,"bend":915,"llen":916,"arr":917,"halten":918,"ĠGel":919,"einer":920,"ant":921,"ĠAuf":922,"ĠGl":923,"pt":924,"Ġdiesem":925,"Ġneu":926,"Ġdich":927,"ĠLie":928,"geben":929,"ĠGesch":930,"sie":931,"ĠhÃ¶r":932,"ĠSo":933,"Ein":934,"aar":935,"gef":936,"ĠÃ":937,"ochen":938,"ĠwÃ¼rde":939,"lat":940,"ĠKopf":941,"ĠWir":942,"uhr":943,"dig":944,"ĠHaus":945,"Ġihnen":946,"ÃŁer":947,"Ġgewesen":948,"Ġdr":949,"ĠmÃ¶":950,"amen":951,"Ġvoll":952,"ĠDa":953,"ĠBo":954,"Ġweiter":955,"ĠGesicht":956,"ild":957,"Ġgut":958,"ĠMar":959,"ohl":960,"ÃŁt":961,"etzte":962,"Ġhatten":963,"geb":964,"Ġgel":965,"Ġfragte":966,"kann":967,"hat":968,"sammen":969,"ĠMit":970,"ĠAb":971,"utter":972,"Ġeigen":973,"ĠmuÃŁte":974,"ĠIhnen":975,"unter":976,"rechen":977,"iell":978,"ĠGr":979,"Ġsagen":980,"chten":981,"uten":982,"ett":983,"Ġwelche":984,"Ã¤dchen":985,"ĠGef":986,"ĠAl":987,"voll":988,"ĠHo":989,"qu":990,"loÃŁ":991,"ĠRei":992,"Ġschl":993,"uh":994,"sicht":995,"ielleicht":996,"hau":997,"kel":998,"ĠLu":999,"Ġwenig":1000,"Ġersch":1001,"Ġlassen":1002,"ĠTag":1003,"Ġsehen":1004,"lÃ¶t":1005,"fte":1006,"ĠlieÃŁ":1007,"Ġlang":1008,"Ġerw":1009,"ĠMenschen":1010,"bte":1011,"Ġglau":1012,"Aber":1013,"Ġihrem":1014,"Ġle":1015,"unge":1016,"fel":1017,"licher":1018,"Ġjen":1019,"Ġgem":1020,"ĠĠĠĠ":1021,"Ġdiesen":1022,"eut":1023,"Ġmachen":1024,"ĠVater":1025,"ĠSchw":1026,"ech":1027,"itter":1028,"Ġrei":1029,"inden":1030,"Ġhei":1031,"iz":1032,"Ġbef":1033,"ho":1034,"Ġrecht":1035,"ĠSte":1036,"des":1037,"âĢº":1038,"ĠBl":1039,"ssen":1040,"ĠNacht":1041,"âĢ¹":1042,"Ġversch":1043,"Ġbeiden":1044,"ennen":1045,"ĠLand":1046,"mals":1047,"Ġdort":1048,"als":1049,"ĠZu":1050,"lÃ¶tzlich":1051,"ack":1052,"itten":1053,"spr":1054,"Ġbet":1055,"llt":1056,"Ã¤nde":1057,"ĠGew":1058,"onst":1059,"Ġins":1060,"âĶģâĶģâĶģâĶģâĶģâĶģâĶģâĶģ":1061,"mer":1062,"Ġlange":1063,"ĠBer":1064,"ĠJahr":1065,"das":1066,"zÃ¤hl":1067,"Ġdrei":1068,"ĠNach":1069,"ĠWie":1070,"Ã¤cht":1071,"Ġschien":1072,"Ġschw":1073,"bes":1074,"Ġwerde":1075,"adt":1076,"mann":1077,"geg":1078,"Ġsollte":1079,"fl":1080,"fer":1081,"ĠGed":1082,"ogen":1083,"Ġweil":1084,"Ja":1085,"klich":1086,"ĠMan":1087,"ĠMÃ¤dchen":1088,"ĠwÃ¤hr":1089,"Ġdieses":1090,"ieren":1091,"Ã¤m":1092,"Ġerf":1093,"Ġnahm":1094,"ppen":1095,"Ġar":1096,"ĠRu":1097,"ften":1098,"ĠAugenblick":1099,"Ġ.":1100,"ĠWelt":1101,"ĠWor":1102,"ĠFl":1103,"bel":1104,"ĠgroÃŁen":1105,"Ġgeb":1106,"hol":1107,"ĠBlick":1108,"Ġzusammen":1109,"legen":1110,"uÃŁte":1111,"ungs":1112,"lieb":1113,"gegen":1114,"ĠwÃ¤hrend":1115,"Ġem":1116,"ĠSchl":1117,"St":1118,"aten":1119,"twor":1120,"under":1121,"wir":1122,"eister":1123,"ts":1124,"rÃ¶":1125,"oren":1126,"erst":1127,"iff":1128,"Was":1129,"ĠLei":1130,"imme":1131,"ĠschÃ¶n":1132,"ucht":1133,"na":1134,"eck":1135,"Ã¶rt":1136,"Ġhinter":1137,"ĠFreund":1138,"Ġgab":1139,"Ġwollen":1140,"Ġkomm":1141,"bl":1142,"ĠMutter":1143,"ĠKl":1144,"zt":1145,"auer":1146,"itte":1147,"nete":1148,"Ġkommen":1149,"wand":1150,"Ġfuhr":1151,"sche":1152,"ĠâĢº":1153,"Ġalso":1154,"Ġvers":1155,"Ġsprach":1156,"Ġaller":1157,"igt":1158,"Ġmachte":1159,"ust":1160,"Ġfrei":1161,"Ġgl":1162,"In":1163,"ĠBes":1164,"schein":1165,"ĠAls":1166,"old":1167,"eite":1168,"Ã¤ng":1169,"Ġlau":1170,"Ġho":1171,"ĠHerz":1172,"Ġallein":1173,"Ġalten":1174,"ler":1175,"amm":1176,"ute":1177,"reck":1178,"gleich":1179,"Ġbesch":1180,"Ġne":1181,"Ġlag":1182,"ĠUnter":1183,"sehen":1184,"fÃ¼r":1185,"zw":1186,"Ġwahr":1187,"wÃ¼r":1188,"ĠTage":1189,"th":1190,"heim":1191,"ĠGott":1192,"ĠhÃ¶":1193,"zte":1194,"Ġalte":1195,"Ġzwischen":1196,"Ġjed":1197,"ĠBru":1198,"ph":1199,"gehen":1200,"ine":1201,"Ġbl":1202,"lieÃŁ":1203,"ĠGra":1204,"zei":1205,"ĠDann":1206,"Ġworden":1207,"innen":1208,"ĠfÃ¼hl":1209,"ĠWenn":1210,"ass":1211,"Ġbald":1212,"Ġhast":1213,"Ġir":1214,"etzten":1215,"einem":1216,"ĠUm":1217,"Ã¤um":1218,"ess":1219,"eder":1220,"Ġseines":1221,"ĠTÃ¼r":1222,"Ġdavon":1223,"ame":1224,"gem":1225,"ĠBr":1226,"achten":1227,"Ġganze":1228,"gest":1229,"Ġkleinen":1230,"undert":1231,"Ver":1232,"stÃ¤nd":1233,"ihr":1234,"ĠWort":1235,"nden":1236,"So":1237,"ere":1238,"Ġschwer":1239,"nte":1240,"ĠKap":1241,"Ġanderen":1242,"ches":1243,"Ã¤lt":1244,"Ġhielt":1245,"Als":1246,"ĠKa":1247,"Ġsondern":1248,"Ġ...Â«":1249,"immel":1250,"Ġallen":1251,"ichte":1252,"Au":1253,"eits":1254,"Ġeinz":1255,"Ġro":1256,"gar":1257,"urm":1258,"Da":1259,"Ġheute":1260,"ĠHause":1261,"Ġdessen":1262,"Ġweit":1263,"ĠwuÃŁte":1264,"Ġbrau":1265,"Ġwissen":1266,"haft":1267,"att":1268,"Ġandere":1269,"ia":1270,"lossen":1271,"ĠplÃ¶tzlich":1272,"orn":1273,"Ã¶hn":1274,"ĠStimme":1275,"ĠRo":1276,"ĠfÃ¼hr":1277,"ĠmÃ¼ssen":1278,"ĠTh":1279,"Ġgerade":1280,"Ġersten":1281,"ĠÃ¼":1282,"llte":1283,"anden":1284,"iert":1285,"Ġbest":1286,"ĠMa":1287,"Ġdarauf":1288,"ehn":1289,"iges":1290,"Ġstr":1291,"uchen":1292,"Ã©":1293,"Ġantwor":1294,"enden":1295,"Ġdamit":1296,"kehr":1297,"ĠAbend":1298,"nung":1299,"Ġtief":1300,"reten":1301,"uld":1302,"ĠHerrn":1303,"inge":1304,"zie":1305,"Ġseit":1306,"ĠZimmer":1307,"ÃŁte":1308,"ĠLeute":1309,"Ġmeinen":1310,"Ġvielleicht":1311,"fort":1312,"Ġkur":1313,"ĠWasser":1314,"ppe":1315,"ak":1316,"ĠAll":1317,"Ge":1318,"ahn":1319,"Ġgehen":1320,"Ã¼nf":1321,"Ġblei":1322,"ĠEuch":1323,"euer":1324,"Wie":1325,"nell":1326,"ele":1327,"Ġgest":1328,"Ġfast":1329,"ĠgroÃŁe":1330,"id":1331,"ĠStadt":1332,"Ġmeiner":1333,"per":1334,"ĠEnt":1335,"tem":1336,"gung":1337,"ĠWeg":1338,"lichkeit":1339,"ĠPro":1340,"Ã¼cken":1341,"asse":1342,"ruck":1343,"einander":1344,"ĠsaÃŁ":1345,"...":1346,"Ġgeworden":1347,"Ġdabei":1348,"asch":1349,"ings":1350,"rat":1351,"ktor":1352,"deck":1353,"Ã¶ff":1354,"eist":1355,"fÃ¼hr":1356,"Ġsonst":1357,"ĠfrÃ¼":1358,"Ã¤ter":1359,"ses":1360,"Ġen":1361,"Un":1362,"Ġfol":1363,"Ġkleine":1364,"trau":1365,"ĠMe":1366,"enster":1367,"Ġerwider":1368,"fern":1369,"Ġdazu":1370,"etter":1371,"ard":1372,"ĠerzÃ¤hl":1373,"selben":1374,"Ġandern":1375,"Ġblieb":1376,"Ġbem":1377,"auch":1378,"atÃ¼r":1379,"ausen":1380,"iv":1381,"ĠGer":1382,"Ġtrat":1383,"ĠOr":1384,"Ġruh":1385,"ĠStu":1386,"Du":1387,"net":1388,"Ġvier":1389,"ľber":1390,"Ã¤nder":1391,"Ã¶nig":1392,"endlich":1393,"ĠGeb":1394,"glÃ¼ck":1395,"Ġstehen":1396,"ker":1397,"Ġind":1398,"klÃ¤r":1399,"ette":1400,"An":1401,"ĠFel":1402,"ian":1403,"durch":1404,"pfen":1405,"wohl":1406,"ĠEn":1407,"Ġtun":1408,"uchte":1409,"Ġwurden":1410,"ĠDo":1411,"eiden":1412,"Ġkeinen":1413,"Ġhinaus":1414,"ĠhÃ¶rte":1415,"Ã¤ft":1416,"ĠGen":1417,"Ġneben":1418,"Ġverm":1419,"daÃŁ":1420,"ĠSon":1421,"etzen":1422,"Ġjunge":1423,"halb":1424,"essen":1425,"ock":1426,"riff":1427,"fol":1428,"aden":1429,"dete":1430,"ĠMensch":1431,"ĠSchr":1432,"zeit":1433,"Ġnieder":1434,"ĠArt":1435,"euch":1436,"ĠHÃ¶":1437,"Ġfest":1438,"Ġdachte":1439,"Ġwirklich":1440,"ĠMorgen":1441,"zeu":1442,"teil":1443,"ĠGeld":1444,"wÃ¤r":1445,"ampf":1446,"hatte":1447,"ĠTr":1448,"ĠMal":1449,"ĠDien":1450,"geh":1451,"Ġerwiderte":1452,"ĠMo":1453,"nach":1454,"ĠWorte":1455,"ĠlÃ¤ch":1456,"Ġdenen":1457,"stehen":1458,"itzen":1459,"atten":1460,"ille":1461,"oten":1462,"Ġantwortete":1463,"zig":1464,"rich":1465,"kte":1466,"ss":1467,"iele":1468,"Ġeinige":1469,"ĠAm":1470,"eines":1471,"uer":1472,"Ġbist":1473,"ester":1474,"ĠBrie":1475,"bracht":1476,"stens":1477,"Ġkommt":1478,"ĠHÃ¤nde":1479,"zur":1480,"arten":1481,"allen":1482,"ĠGlÃ¼ck":1483,"nahm":1484,"Ġbew":1485,"ĠKr":1486,"ĠCh":1487,"dern":1488,"ren":1489,"Ġheraus":1490,"Ġirgend":1491,"ĠNamen":1492,"liches":1493,"ĠHimmel":1494,"ation":1495,"ĠGedanken":1496,"ĠLiebe":1497,"zogen":1498,"Ã¶l":1499,"ĠSeite":1500,"zer":1501,"Ġjungen":1502,"Ã¤ÃŁ":1503,"nehmen":1504,"ĠJa":1505,"Ġbegann":1506,"len":1507,"schie":1508,"Ġderen":1509,"Ġstie":1510,"pe":1511,"Ġverg":1512,"latz":1513,"Ġmeinem":1514,"onder":1515,"inter":1516,"Nun":1517,"mÃ¶":1518,"Ġkaum":1519,"Ġganzen":1520,"Ġgekommen":1521,"ou":1522,"illen":1523,"Wir":1524,"Ġoffen":1525,"ĠFenster":1526,"urcht":1527,"Ġerh":1528,"ragen":1529,"erne":1530,"ĠEnde":1531,"ennt":1532,"ischer":1533,"Ġgeht":1534,"Ġdaran":1535,"Ġfand":1536,"ĠGem":1537,"reund":1538,"Ġgeben":1539,"ĠkÃ¶nnte":1540,"Ġgemacht":1541,"ĠStraÃŁ":1542,"zwei":1543,"ĠBar":1544,"nie":1545,"ĠBei":1546,"Ġgesehen":1547,"Ġgenug":1548,"schte":1549,"Ã¤h":1550,"Ġschwar":1551,"ĠMÃ¤n":1552,"anke":1553,"ans":1554,"Ġverb":1555,"ĠJahre":1556,"Ġgesagt":1557,"ĠLicht":1558,"aber":1559,"ellen":1560,"mut":1561,"Ġfiel":1562,"olz":1563,"Nein":1564,"ibt":1565,"eid":1566,"ĠMon":1567,"lassen":1568,"mand":1569,"Ġdun":1570,"ĠStunde":1571,"Ġendlich":1572,"land":1573,"ow":1574,"iere":1575,"Ġverd":1576,"Ġhoch":1577,"ĠPar":1578,"rot":1579,"Ã¼gen":1580,"atÃ¼rlich":1581,"Ġget":1582,"recht":1583,"sk":1584,"Ġjeder":1585,"Ġzei":1586,"lieben":1587,"Ġpaar":1588,"ĠBeg":1589,"atur":1590,"Ġbesser":1591,"ĠgroÃŁ":1592,"ehl":1593,"Ġletzten":1594,"ĠMin":1595,"da":1596,"op":1597,"ausend":1598,"urg":1599,"Ġihres":1600,"ĠEl":1601,"sse":1602,"ĠIhre":1603,"ĠHa":1604,"leid":1605,"Ġzog":1606,"ic":1607,"ĠBoden":1608,"ĠfÃ¼hlte":1609,"ĠKÃ¶nig":1610,"ĠLuft":1611,"Ġ1":1612,"Ġsetzte":1613,"fr":1614,"elle":1615,"ĠSchiff":1616,"ĠfÃ¼nf":1617,"halt":1618,"Ġbeim":1619,"ĠFuÃŁ":1620,"Ġse":1621,"Ġoft":1622,"ĠÃľber":1623,"Ġange":1624,"Ġhalb":1625,"brigen":1626,"ĠDir":1627,"beit":1628,"Ġempf":1629,"igte":1630,"ĠSache":1631,"Ġzie":1632,"ingt":1633,"hand":1634,"itÃ¤n":1635,"herr":1636,"Ġschnell":1637,"Ġunbe":1638,"umm":1639,"chter":1640,"ilde":1641,"ĠUhr":1642,"schw":1643,"ĠTisch":1644,"ffe":1645,"Ġverw":1646,"Ġleg":1647,"falls":1648,"org":1649,"man":1650,"ĠJu":1651,"scht":1652,"ĠTod":1653,"Ġern":1654,"alten":1655,"tag":1656,"ĠGegen":1657,"Ġhab":1658,"Ġei":1659,"ĠTon":1660,"inner":1661,"Wenn":1662,"af":1663,"kam":1664,"immt":1665,"Ã¤her":1666,"ĠPfer":1667,"ĠWald":1668,"inken":1669,"abt":1670,"ĠWar":1671,"Ġged":1672,"Ġstar":1673,"richt":1674,"Ġwand":1675,"eilen":1676,"Herr":1677,"Ġgetr":1678,"ĠnÃ¤ch":1679,"fallen":1680,"Ġblick":1681,"raft":1682,"ĠHerzen":1683,"Ġhervor":1684,"Ġsprechen":1685,"hte":1686,"olk":1687,"ĠArm":1688,"ĠGest":1689,"ĠMr":1690,"ĠgrÃ¶":1691,"auern":1692,"aÃŁt":1693,"Ġhinein":1694,"ĠKinder":1695,"ĠdarÃ¼ber":1696,"eren":1697,"oh":1698,"Ġlieber":1699,"haupt":1700,"eint":1701,"kannt":1702,"ĠKir":1703,"ierte":1704,"cke":1705,"ĠNun":1706,"rage":1707,"ĠLe":1708,"ĠSchul":1709,"ĠHaupt":1710,"Ã¤nden":1711,"ahe":1712,"ĠSohn":1713,"ellschaft":1714,"Ġjeden":1715,"hÃ¶r":1716,"unst":1717,"ĠgehÃ¶rt":1718,"Ġhe":1719,"ĠHerren":1720,"ĠLi":1721,"wieder":1722,"hren":1723,"ĠFÃ¼r":1724,"por":1725,"Ġleben":1726,"llig":1727,"mehr":1728,"ĠÃ¤":1729,"will":1730,"ud":1731,"Ġgibt":1732,"ochter":1733,"lang":1734,"Ã¤nger":1735,"ĠkÃ¼":1736,"Ã¼b":1737,"Ġerg":1738,"Ġmal":1739,"ĠJahren":1740,"ĠglÃ¼ck":1741,"unft":1742,"âĶģâĶģâĶģâĶģâĶģâĶģâĶģâĶģâĶģâĶģâĶģâĶģâĶģâĶģâĶģâĶģ":1743,"Ġfinden":1744,"ande":1745,"Ã¶s":1746,"Ã¼ttel":1747,"Ġnehmen":1748,"oÃŁ":1749,"Ġsofort":1750,"Ã¼hrt":1751,"ĠEi":1752,"sinn":1753,"gst":1754,"ĠEur":1755,"legt":1756,"ĠgrÃ¼":1757,"twort":1758,"Ġoben":1759,"Ġleicht":1760,"ĠFrauen":1761,"Ġindem":1762,"ost":1763,"ĠWagen":1764,"viel":1765,"affen":1766,"ĠBruder":1767,"Ihr":1768,"Ġbel":1769,"sein":1770,"gten":1771,"Ġeinf":1772,"atz":1773,"ckte":1774,"noch":1775,"ichten":1776,"haus":1777,"Qu":1778,"ĠGro":1779,"Ġsogar":1780,"zehn":1781,"kr":1782,"Ã¶pf":1783,"haben":1784,"otz":1785,"Ġverh":1786,"ib":1787,"ochte":1788,"ĠZwei":1789,"ollen":1790,"Ġschau":1791,"Ġschrie":1792,"Ġsicher":1793,"ĠHaar":1794,"ĠKÃ¼":1795,"ieb":1796,"Ġlangsam":1797,"aben":1798,"rieden":1799,"Ġde":1800,"ĠDenn":1801,"amil":1802,"opf":1803,"Ġwarf":1804,"ĠMein":1805,"itze":1806,"ĠwÃ¤r":1807,"alle":1808,"Ġ(":1809,"ĠĊ":1810,"nur":1811,"Ã¼ckte":1812,"ĠKapitÃ¤n":1813,"ĠmÃ¶glich":1814,"ĠauÃŁer":1815,"Ġetwa":1816,"esten":1817,"Ġbesonder":1818,"Ġhalten":1819,"irn":1820,"ĠerklÃ¤r":1821,"ĠPol":1822,"ĠMÃ¤nner":1823,"ĠOber":1824,"Ġschle":1825,"ĠLebens":1826,"Nach":1827,"genommen":1828,"ĠSeele":1829,"Ã¼cke":1830,"Ġwelcher":1831,"Ġkr":1832,"Ġerschien":1833,"Ġbringen":1834,"llung":1835,"aul":1836,"eter":1837,"ickte":1838,"ĠEine":1839,"ĠmÃ¶chte":1840,"ink":1841,"Ġruhig":1842,"Ġleise":1843,"Ġselber":1844,"ager":1845,"gessen":1846,"wen":1847,"ĠPr":1848,"ĠFreu":1849,"zimmer":1850,"Ġeigentlich":1851,"ĠAuch":1852,"gang":1853,"Dann":1854,"asche":1855,"ĠBrief":1856,"Ġbed":1857,"get":1858,"Ġlachte":1859,"ĠStelle":1860,"prochen":1861,"ath":1862,"lieÃŁlich":1863,"Auf":1864,"Ġlegte":1865,"ahrt":1866,"Ġsech":1867,"Be":1868,"Ã¤hrend":1869,"reich":1870,"ale":1871,"zug":1872,"ossen":1873,"ĠErde":1874,"Ã¼ckt":1875,"ĠspÃ¤ter":1876,"ĠBÃ¼":1877,"ĠArbeit":1878,"teten":1879,"ĠhÃ¶ren":1880,"ĠFÃ¼":1881,"Ġanders":1882,"etten":1883,"ĠWeise":1884,"meister":1885,"Ġverlassen":1886,"ĠÃĦ":1887,"chem":1888,"inger":1889,"Ġstill":1890,"annte":1891,"Mit":1892,"wo":1893,"ĠfrÃ¼her":1894,"Ġdahin":1895,"rÃ¤ul":1896,"rÃ¤ulein":1897,"Ges":1898,"Ġbeide":1899,"Ã¤ngst":1900,"Ã¶ne":1901,"keiten":1902,"ĠFrei":1903,"Ġpr":1904,"ĠUr":1905,"utz":1906,"ĠDoch":1907,"Ġsteht":1908,"ĠBett":1909,"Ġgute":1910,"ja":1911,"Ġlos":1912,"ĠdÃ¼r":1913,"Ġgeg":1914,"gn":1915,"ichts":1916,"bert":1917,"ĠBild":1918,"ont":1919,"ĠHe":1920,"Ġherum":1921,"fehl":1922,"Ġsolche":1923,"wegung":1924,"Ġerste":1925,"off":1926,"ats":1927,"iss":1928,"Ġweg":1929,"erkte":1930,"selbe":1931,"Ġerwar":1932,"onnen":1933,"we":1934,"lagen":1935,"anzig":1936,"Ġdenken":1937,"uldig":1938,"Ã¼nst":1939,"ĠStunden":1940,"ub":1941,"ĠPap":1942,"geste":1943,"Ġgern":1944,"Vor":1945,"ĠĠĠĠĠĠĠĠ":1946,"ĠSa":1947,"Ġzwar":1948,"wÃ¤rts":1949,"Ġviele":1950,"ĠNe":1951,"Ġjener":1952,"for":1953,"ĠflÃ¼":1954,"ĠÃ¶ff":1955,"ĠFeuer":1956,"Ġbleiben":1957,"Ġtrotz":1958,"ĠhÃ¤tten":1959,"ĠWe":1960,"Ġneue":1961,"pen":1962,"unken":1963,"ĠAuge":1964,"ok":1965,"ĠTochter":1966,"Ġentgegen":1967,"ĠFei":1968,"arm":1969,"Ġgrau":1970,"ftig":1971,"raten":1972,"reiben":1973,"scher":1974,"Ġand":1975,"ĠWer":1976,"ĠAlles":1977,"annt":1978,"Ġkurz":1979,"Ġmorgen":1980,"baren":1981,"ka":1982,"ĠDame":1983,"ĠStraÃŁe":1984,"ĠKrie":1985,"ĠQu":1986,"ody":1987,"ĠSonne":1988,"ĠPlatz":1989,"Ġebenso":1990,"Ġgenau":1991,"ĠWind":1992,"Ġerk":1993,"ĠSpr":1994,"ĠArme":1995,"Ġmag":1996,"ĠPl":1997,"Ġkamen":1998,"rauÃŁen":1999,"ĠDe":2000,"aschen":2001,"inz":2002,"ernen":2003,"reis":2004,"ĠWeib":2005,"ĠlÃ¤":2006,"obody":2007,"aut":2008,"ĠnÃ¤her":2009,"bo":2010,"Ġheim":2011,"Ġgehabt":2012,"Ġallem":2013,"umen":2014,"bringen":2015,"erson":2016,"ĠSchla":2017,"leichen":2018,"Ġtrug":2019,"Ġunsere":2020,"ĠNur":2021,"Ġmacht":2022,"zwischen":2023,"Ġth":2024,"ĠPh":2025,"erl":2026,"hundert":2027,"eich":2028,"Ġdamals":2029,"ĠnÃ¤chsten":2030,"ĠBlut":2031,"Ġzehn":2032,"kunft":2033,"ĠMÃ¼":2034,"Ġgek":2035,"fÃ¼":2036,"ollte":2037,"Ġsagt":2038,"druck":2039,"hst":2040,"genden":2041,"az":2042,"ĠHel":2043,"ufen":2044,"Ġdarin":2045,"Ġwelches":2046,"geln":2047,"ichtet":2048,"licht":2049,"Ġjung":2050,"wenn":2051,"ĠKar":2052,"Ġwandte":2053,"ĠRuhe":2054,"fÃ¤":2055,"ĠIm":2056,"ĠKn":2057,"weise":2058,"spiel":2059,"ĠGrund":2060,"Ġhinzu":2061,"inder":2062,"ĠNeu":2063,"zeich":2064,"ckt":2065,"Ġbrachte":2066,"was":2067,"stra":2068,"ons":2069,"ĠGefÃ¼hl":2070,"pfer":2071,"ĠLippen":2072,"zahl":2073,"Ġlieb":2074,"Ġbetr":2075,"ottes":2076,"ĠZw":2077,"Ġunver":2078,"ĠbloÃŁ":2079,"ĠRecht":2080,"ĠnatÃ¼rlich":2081,"mlich":2082,"ĠAntwort":2083,"immen":2084,"ĠMeer":2085,"ĠEm":2086,"Ġguten":2087,"ĠTages":2088,"Ġbereits":2089,"Ã¼l":2090,"ĠMund":2091,"ĠInd":2092,"Ġjem":2093,"Ġglaube":2094,"orf":2095,"ĠDoktor":2096,"iser":2097,"ĠSÃ¼":2098,"ĠBrust":2099,"Ġniemand":2100,"wel":2101,"Ġsolchen":2102,"Ġpf":2103,"Ġzer":2104,"Ġwegen":2105,"ĠgegenÃ¼ber":2106,"ĠTo":2107,"Ġwenigstens":2108,"Ġneuen":2109,"ziehen":2110,"ĠFrage":2111,"enne":2112,"gegnete":2113,"Ġverst":2114,"Ġzeigte":2115,"ĠFamil":2116,"Ġverste":2117,"Ġblickte":2118,"Ġmeinte":2119,"Ã¼ge":2120,"Ġherr":2121,"wur":2122,"ase":2123,"Ġentsch":2124,"ĠFrÃ¼":2125,"ilder":2126,"ihm":2127,"nisse":2128,"Ġhinauf":2129,"Ġstanden":2130,"ichter":2131,"Ġklar":2132,"Ġacht":2133,"hnte":2134,"ven":2135,"tragen":2136,"Ã¤he":2137,"komm":2138,"Ġlangen":2139,"Ġgu":2140,"ritt":2141,"ĠstÃ¼r":2142,"Ġlieben":2143,"gr":2144,"ĠhÃ¶ch":2145,"arf":2146,"ĠHoch":2147,"Ġschlug":2148,"ĠfÃ¼hrte":2149,"werk":2150,"Ġrau":2151,"seln":2152,"ene":2153,"brochen":2154,"ĠTrau":2155,"stern":2156,"isten":2157,"ĠVerb":2158,"det":2159,"ĠFranz":2160,"Am":2161,"ĠLo":2162,"lieÃŁen":2163,"ĠDen":2164,"ĠVolk":2165,"Ġsollen":2166,"aufen":2167,"Ġerrei":2168,"isse":2169,"Ġwunder":2170,"ĠGesellschaft":2171,"kannte":2172,"ĠdafÃ¼r":2173,"elbst":2174,"ĠEngl":2175,"Ar":2176,"Ġricht":2177,"Ã¤nen":2178,"Ġdeu":2179,"hÃ¤lt":2180,"Ã¼rger":2181,"samkeit":2182,"ĠFreunde":2183,"ĠgewÃ¶hn":2184,"ĠEhr":2185,"Ġwiederhol":2186,"ĠFreude":2187,"achsen":2188,"ĠChr":2189,"ĠBur":2190,"merk":2191,"burg":2192,"hof":2193,"gekommen":2194,"standen":2195,"Ġniemals":2196,"ĠFrÃ¤ulein":2197,"ahen":2198,"ĠJetzt":2199,"Ġunten":2200,"Man":2201,"ĠÃ¼berhaupt":2202,"mÃ¼t":2203,"Ġbeste":2204,"ĠÃ¼brigen":2205,"ging":2206,"Ach":2207,"achtete":2208,"Ã¶rper":2209,"ante":2210,"setzen":2211,"wÃ¼rd":2212,"Ġempor":2213,"ate":2214,"Ġlaut":2215,"ĠNie":2216,"offen":2217,"ĠWohn":2218,"ĠwÃ¼rden":2219,"ickt":2220,"Ġeuch":2221,"Ġliegt":2222,"Ġeil":2223,"Ġdeine":2224,"ĠNatur":2225,"nehm":2226,"Ġliebe":2227,"ĠWahr":2228,"lafen":2229,"icken":2230,"ĠAch":2231,"Ġspiel":2232,"aÃŁte":2233,"unkel":2234,"Ã¤nge":2235,"ce":2236,"gegangen":2237,"rift":2238,"aur":2239,"Ġanzu":2240,"ĠSeine":2241,"Ġtat":2242,"ister":2243,"ĠSchwester":2244,"ĠDr":2245,"ĠSee":2246,"Ġuner":2247,"Ġdarf":2248,"ieden":2249,"Ã¤cheln":2250,"ĠHof":2251,"Ġnein":2252,"stellen":2253,"itel":2254,"ged":2255,"Ġverloren":2256,"bare":2257,"Ġwarum":2258,"Ġnachdem":2259,"Ġwider":2260,"ĠBet":2261,"ĠHÃ¤nden":2262,"Ġward":2263,"Ġehr":2264,"Ġherab":2265,"Ġfreilich":2266,"Ã¼cht":2267,"ĠTagen":2268,"ĠDich":2269,"Ã¤ngen":2270,"Ġgegeben":2271,"ĠâĢĵÂ«":2272,"ĠTro":2273,"ieben":2274,"Ġdein":2275,"mÃ¤ÃŁ":2276,"ĠGraf":2277,"heiten":2278,"este":2279,"ĠAd":2280,"Ġben":2281,"ĠKu":2282,"kÃ¼":2283,"ĠKam":2284,"ĠVon":2285,"Ã¤tte":2286,"ÃŁten":2287,"ĠGeschichte":2288,"elnd":2289,"mÃ¶glich":2290,"orben":2291,"agd":2292,"ehm":2293,"ugen":2294,"ĠgewiÃŁ":2295,"sal":2296,"lein":2297,"igung":2298,"Ġhol":2299,"ĠÃ¶":2300,"ieÃŁ":2301,"Ġfrem":2302,"ĠFrem":2303,"fahren":2304,"gro":2305,"ĠTre":2306,"ienen":2307,"zurÃ¼ck":2308,"lung":2309,"ehrte":2310,"anten":2311,"ĠNot":2312,"sprechen":2313,"elten":2314,"ĠFor":2315,"ĠschÃ¶nen":2316,"Ġfro":2317,"reiten":2318,"ĠSchm":2319,"ĠWorten":2320,"esse":2321,"ĠkÃ¶nne":2322,"lin":2323,"Ġschm":2324,"ĠfÃ¼":2325,"ĠWesen":2326,"dar":2327,"Ġgingen":2328,"ndlich":2329,"av":2330,"ct":2331,"ĠNein":2332,"erte":2333,"Ġsuchte":2334,"eig":2335,"ĠDamen":2336,"stes":2337,"Ġrasch":2338,"Ġgefunden":2339,"werden":2340,"rieben":2341,"Ġjedoch":2342,"euten":2343,"Ã¶ren":2344,"scheinlich":2345,"Ġfreund":2346,"sah":2347,"Ġglaubte":2348,"ĠMiÃŁ":2349,"fter":2350,"Eine":2351,"ilden":2352,"eichen":2353,"lauben":2354,"seine":2355,"uf":2356,"Ġ'":2357,"ĠWo":2358,"Ġentfern":2359,"ĠvorÃ¼ber":2360,"ĠHil":2361,"ĠKraft":2362,"dies":2363,"Ġeinfach":2364,"ĠschÃ¼ttel":2365,"Ġehe":2366,"mir":2367,"lÃ¤":2368,"eufel":2369,"losen":2370,"ganz":2371,"uck":2372,"Ġkonnten":2373,"ens":2374,"War":2375,"ĠNobody":2376,"Ġerhob":2377,"ose":2378,"ĠdrauÃŁen":2379,"berg":2380,"bet":2381,"reifen":2382,"Augen":2383,"ĠSchrei":2384,"Ġbede":2385,"Ġfehl":2386,"ĠGestalt":2387,"leben":2388,"iet":2389,"hielt":2390,"ĠHier":2391,"ĠPerson":2392,"Ġheil":2393,"ĠStein":2394,"Ġblau":2395,"weigen":2396,"iegel":2397,"eile":2398,"ihn":2399,"uche":2400,"Ġhob":2401,"Ã¤che":2402,"mÃ¼":2403,"Aus":2404,"ĠheiÃŁt":2405,"ĠGottes":2406,"Ġvergessen":2407,"bten":2408,"inde":2409,"ĠwÃ¼":2410,"ĠKna":2411,"ffiz":2412,"ĠnÃ¤m":2413,"io":2414,"fin":2415,"Sp":2416,"ai":2417,"hung":2418,"Ã¤uf":2419,"ĠHeim":2420,"ĠZug":2421,"ĠStÃ¼ck":2422,"Ġreden":2423,"Ġglauben":2424,"Ġkennen":2425,"Mein":2426,"ĠDinge":2427,"schau":2428,"schn":2429,"du":2430,"eber":2431,"ĠTeil":2432,"ĠWol":2433,"ĠBewegung":2434,"ĠHoff":2435,"ĠDeut":2436,"Ġfurcht":2437,"pft":2438,"ĠSchu":2439,"dings":2440,"ĠDiese":2441,"Ġfreu":2442,"recken":2443,"ĠglÃ¼cklich":2444,"ĠFall":2445,"wend":2446,"pfte":2447,"Ġqu":2448,"ĠWerk":2449,"ĠAlte":2450,"ĠReg":2451,"yr":2452,"Frau":2453,"ĠMinuten":2454,"ium":2455,"ertig":2456,"ĠSeiten":2457,"alen":2458,"reise":2459,"ende":2460,"ina":2461,"auber":2462,"beg":2463,"ĠPeter":2464,"Ġc":2465,"ĠEx":2466,"ĠDiener":2467,"Ġjedem":2468,"Jetzt":2469,"Ġmeines":2470,"Ġeigenen":2471,"Ġel":2472,"ĠGold":2473,"ĠschÃ¶ne":2474,"ĠReise":2475,"ĠGarten":2476,"our":2477,"ĠGener":2478,"ĠÃ¤uÃŁ":2479,"tsam":2480,"Ã¼m":2481,"schon":2482,"prÃ¤ch":2483,"osen":2484,"llten":2485,"oder":2486,"Ġsieht":2487,"ĠInsel":2488,"Ġaufge":2489,"hÃ¶":2490,"enk":2491,"ĠLÃ¤cheln":2492,"ĠChar":2493,"ĠSein":2494,"gesehen":2495,"ĠAlle":2496,"Ġausge":2497,"Ġernst":2498,"Ġgetan":2499,"ĠMannes":2500,"Ġhinab":2501,"ĠLau":2502,"ĠGeist":2503,"Ġaufs":2504,"je":2505,"fang":2506,"ĠAngst":2507,"Ġgeschehen":2508,"one":2509,"Ġentgegnete":2510,"Ġdeut":2511,"schlag":2512,"kÃ¶n":2513,"els":2514,"wohn":2515,"ĠJe":2516,"ĠwÃ¼n":2517,"Ġgebracht":2518,"uÃŁt":2519,"iefen":2520,"Ã¤ngt":2521,"Ġstatt":2522,"ĠHÃ¤u":2523,"ĠSir":2524,"Ġstarr":2525,"Ġhell":2526,"ip":2527,"Men":2528,"Ġgenommen":2529,"mar":2530,"ĠlÃ¤chelte":2531,"Ġjedes":2532,"aff":2533,"riffen":2534,"Ġeinst":2535,"sterte":2536,"ĠRÃ¼ck":2537,"ĠKrieg":2538,"Ġaufzu":2539,"ĠGlas":2540,"ĠgroÃŁer":2541,"ruh":2542,"Ã¤ger":2543,"lief":2544,"ĠlÃ¤ÃŁt":2545,"Ġnahe":2546,"ĠBesch":2547,"Ġvern":2548,"ius":2549,"mich":2550,"ĠUnglÃ¼ck":2551,"icher":2552,"aters":2553,"Ġjede":2554,"uren":2555,"ĠschlieÃŁlich":2556,"olle":2557,"tig":2558,"Ã¤glich":2559,"Ġgesprochen":2560,"Ġweniger":2561,"besch":2562,"ĠWege":2563,"weilen":2564,"Ġbesonders":2565,"ĠTeufel":2566,"ĠSter":2567,"ies":2568,"schied":2569,"Ġvorbei":2570,"igem":2571,"ys":2572,"schlagen":2573,"Ġstieg":2574,"Um":2575,"isches":2576,"ĠGeheim":2577,"reffen":2578,"abe":2579,"ĠBuch":2580,"ins":2581,"ÃŁig":2582,"ĠHÃ¼":2583,"ĠweiÃŁen":2584,"ĠSal":2585,"ĠSpiel":2586,"Ã¤re":2587,"ĠBrau":2588,"unk":2589,"ĠhÃ¼b":2590,"ohann":2591,"gier":2592,"mittag":2593,"denken":2594,"Ġhet":2595,"Ġdro":2596,"ĠStirn":2597,"hei":2598,"red":2599,"legte":2600,"ĠnÃ¶t":2601,"Ġbitte":2602,"Ġletzte":2603,"ĠNÃ¤he":2604,"umpf":2605,"Ġwollten":2606,"elfen":2607,"str":2608,"agten":2609,"Ġhundert":2610,"ĠDar":2611,"ure":2612,"ĠHal":2613,"ĠWand":2614,"Ġfei":2615,"ĠÃ¶ffnete":2616,"Wer":2617,"zten":2618,"indet":2619,"Ġwelchem":2620,"ĠHÃ¶he":2621,"Wo":2622,"bald":2623,"aÃŁen":2624,"Ġliegen":2625,"dien":2626,"Ġbesten":2627,"ĠvÃ¶":2628,"Ġzitter":2629,"ĠWeile":2630,"Ġwirst":2631,"endet":2632,"ĠSchn":2633,"echsel":2634,"ĠGroÃŁ":2635,"Ġbemerkte":2636,"Ġsahen":2637,"Ġauszu":2638,"ĠKirche":2639,"hlen":2640,"aunt":2641,"chmal":2642,"ĠWein":2643,"machen":2644,"weil":2645,"orfen":2646,"frieden":2647,"Ġsechs":2648,"achtet":2649,"Ġsollten":2650,"ehmen":2651,"ĠMad":2652,"ĠMitt":2653,"doch":2654,"ĠPoliz":2655,"ĠbÃ¶":2656,"Ġkeiner":2657,"brach":2658,"ane":2659,"ĠRom":2660,"Ġwillst":2661,"ĠerzÃ¤hlte":2662,"gebracht":2663,"ĠHei":2664,"ĠBed":2665,"mittel":2666,"Ġhand":2667,"ĠlÃ¤nger":2668,"Ġtot":2669,"ĠSchatten":2670,"such":2671,"hoben":2672,"ĠAnt":2673,"erg":2674,"zÃ¼":2675,"vollen":2676,"ielten":2677,"Ġnickte":2678,"Ã¼llt":2679,"stet":2680,"Ġsprang":2681,"Ġseltsam":2682,"Ġabend":2683,"ĠFamilie":2684,"schaften":2685,"ĠKomm":2686,"ĠschÃ¼ttelte":2687,"son":2688,"ĠGefahr":2689,"ĠPferde":2690,"zog":2691,"Unter":2692,"ĠHolz":2693,"Ġherein":2694,"neten":2695,"Ġerfahren":2696,"Ġdarum":2697,"dann":2698,"itzt":2699,"wÃ¼rdig":2700,"unkt":2701,"ĠSchlaf":2702,"Ġeinander":2703,"ĠMittel":2704,"Ġjemand":2705,"Zu":2706,"Ã¤rm":2707,"ĠsÃ¼":2708,"ĠChrist":2709,"All":2710,"ym":2711,"Ġhohen":2712,"Ã¤chtig":2713,"rÃ¼ben":2714,"ĠSold":2715,"ĠFar":2716,"Ġgegangen":2717,"Ġschwarzen":2718,"Ġvorher":2719,"ĠKunst":2720,"trauen":2721,"Ġch":2722,"immung":2723,"ix":2724,"ĠSchloÃŁ":2725,"latt":2726,"Ã¤usch":2727,"ĠBaron":2728,"alter":2729,"ried":2730,"ilber":2731,"lage":2732,"ĠRicht":2733,"opp":2734,"ore":2735,"fess":2736,"wesen":2737,"Ġmochte":2738,"if":2739,"ionen":2740,"egenheit":2741,"wart":2742,"Ġverschw":2743,"ĠRÃ¼cken":2744,"ĠErst":2745,"ĠSchick":2746,"ĠwÃ¤ren":2747,"Wei":2748,"ĠerklÃ¤rte":2749,"Fr":2750,"Ã¼tzen":2751,"ierten":2752,"ĠRat":2753,"Ġalter":2754,"ĠSchÃ¶n":2755,"usik":2756,"Ġfl":2757,"ieber":2758,"iegen":2759,"Ġunserer":2760,"ue":2761,"denn":2762,"Ġalt":2763,"brau":2764,"Ġkannte":2765,"Str":2766,"ĠOn":2767,"bild":2768,"ĠHals":2769,"gestellt":2770,"ĠmÃ¼sse":2771,"merz":2772,"Gesch":2773,"haften":2774,"Ġstet":2775,"ĠGrÃ¤":2776,"ammen":2777,"inen":2778,"ĠnÃ¤mlich":2779,"ĠGast":2780,"frau":2781,"00":2782,"ĠOffiz":2783,"ichtete":2784,"konn":2785,"Ġdre":2786,"ĠBank":2787,"Ġanderes":2788,"Ġsage":2789,"seiner":2790,"Ã¤umen":2791,"hafte":2792,"ling":2793,"ĠKampf":2794,"asen":2795,"fahr":2796,"Ġsuchen":2797,"Ġwolle":2798,"Ġmerk":2799,"Ã¼re":2800,"Ġeinge":2801,"Her":2802,"ĠRitter":2803,"Ġfor":2804,"ĠschloÃŁ":2805,"pl":2806,"ĠSchne":2807,"Ġeinzige":2808,"ĠKur":2809,"nern":2810,"nÃ¼":2811,"Ġlief":2812,"deckt":2813,"ĠBu":2814,"Ġstellte":2815,"Ġru":2816,"Ġbeweg":2817,"ĠgrÃ¶ÃŁer":2818,"lose":2819,"gra":2820,"Ġjene":2821,"acken":2822,"aust":2823,"stu":2824,"nÃ¤d":2825,"Ã¤ume":2826,"fÃ¼hren":2827,"Ġwor":2828,"Ġfolgte":2829,"ĠAusdruck":2830,"Ã¤mmer":2831,"Ã¼tter":2832,"sagen":2833,"ĠEd":2834,"Ġschwie":2835,"ĠVerl":2836,"ĠSchritt":2837,"ĠMond":2838,"Ġstets":2839,"ĠDeck":2840,"ĠMut":2841,"Ġweder":2842,"ĠNicht":2843,"Ġstark":2844,"vier":2845,"Ġbeglei":2846,"ĠDienst":2847,"ĠGrÃ¼":2848,"mme":2849,"schm":2850,"regung":2851,"zend":2852,"Ġgelang":2853,"ĠOhr":2854,"euf":2855,"Ġschn":2856,"ĠTa":2857,"nten":2858,"ĠUfer":2859,"ĠLa":2860,"Ġverk":2861,"ĠDank":2862,"ĠTat":2863,"essel":2864,"ĠSonnen":2865,"ĠMaj":2866,"ma":2867,"beiten":2868,"indung":2869,"Ġabge":2870,"ĠMeister":2871,"Ġabzu":2872,"Ġschaute":2873,"ĠHeil":2874,"Ġtraur":2875,"Im":2876,"fangen":2877,"Ġleb":2878,"Ġgestern":2879,"denschaft":2880,"Ġflo":2881,"Se":2882,"ĠKor":2883,"Auch":2884,"echt":2885,"gesetzt":2886,"Ġunge":2887,"urfte":2888,"Hier":2889,"Mar":2890,"ĠSta":2891,"ĠTreppe":2892,"erv":2893,"atte":2894,"eien":2895,"erkt":2896,"euchten":2897,"ĠThe":2898,"sucht":2899,"setz":2900,"Ġscheint":2901,"ĠvÃ¶llig":2902,"ĠBesuch":2903,"deut":2904,"Ġbeh":2905,"ĠWohl":2906,"Ġgeste":2907,"Ġverschieden":2908,"ftigen":2909,"Ġgeheim":2910,"ĠEmpf":2911,"Ġdicht":2912,"ĠSelbst":2913,"rech":2914,"Ġerhalten":2915,"ektor":2916,"gern":2917,"ersÃ¶n":2918,"Ġschwei":2919,"seinen":2920,"Ġwe":2921,"Ġhinunter":2922,"anzen":2923,"ĠWirt":2924,"ĠFle":2925,"ĠTe":2926,"yl":2927,"aunen":2928,"Ã¼ch":2929,"sprach":2930,"fessor":2931,"ĠÃ¼berall":2932,"Ġew":2933,"Ġbekommen":2934,"Ġversetzte":2935,"Ġdeutlich":2936,"Ã¶st":2937,"esser":2938,"ssel":2939,"Ġkannst":2940,"ĠGeneral":2941,"ĠBaum":2942,"ĠIr":2943,"ĠCar":2944,"selbst":2945,"Ġdunkl":2946,"ĠKlo":2947,"ĠLage":2948,"Ġumher":2949,"hem":2950,"Ã¤chtigen":2951,"ĠWahrheit":2952,"ĠEigen":2953,"ĠGesprÃ¤ch":2954,"ĠHinter":2955,"ĠZeichen":2956,"ĠY":2957,"Bei":2958,"iene":2959,"eshalb":2960,"ĠWider":2961,"ĠEind":2962,"Ġbefand":2963,"Ġarmen":2964,"ĠParis":2965,"Ġed":2966,"eiben":2967,"ĠSinn":2968,"ĠWohnung":2969,"Ġmurm":2970,"Ġvielen":2971,"Ġhabt":2972,"ĠRede":2973,"ĠWinter":2974,"Ã¤chst":2975,"ĠMÃ¶":2976,"ĠfrÃ¼h":2977,"ĠRaum":2978,"ĠstieÃŁ":2979,"ĠGewalt":2980,"ĠHilfe":2981,"ĠFlÃ¼":2982,"ĠMenge":2983,"ĠGeschÃ¤ft":2984,"Ġster":2985,"Ġziemlich":2986,"Ġdaher":2987,"tend":2988,"Ġsehe":2989,"Ġfertig":2990,"ĠgehÃ¶r":2991,"best":2992,"oben":2993,"ient":2994,"ĠmuÃŁten":2995,"Ġinner":2996,"ĠBÃ¼rger":2997,"sol":2998,"ĠKÃ¶rper":2999,"alien":3000,"reichen":3001,"ika":3002,"ĠArmen":3003,"ĠGei":3004,"Ġbeob":3005,"emar":3006,"Ġzuerst":3007,"Ġhing":3008,"Ġ2":3009,"Ã¼hm":3010,"hnt":3011,"Ġlas":3012,"ĠJohann":3013,"ohlen":3014,"Ġseid":3015,"frei":3016,"nahme":3017,"itÃ¤t":3018,"Ġarme":3019,"heil":3020,"ĠWochen":3021,"oÃŁen":3022,"Ġmei":3023,"uchs":3024,"arren":3025,"Ġbereit":3026,"osten":3027,"Ġzugleich":3028,"gÃ¼l":3029,"Ġgebe":3030,"samen":3031,"ĠUeber":3032,"ehren":3033,"waren":3034,"Ġbrach":3035,"ama":3036,"stellung":3037,"treten":3038,"ĠhinÃ¼ber":3039,"ĠGeh":3040,"ĠIhrer":3041,"pel":3042,"ĠKon":3043,"Ġbein":3044,"ĠSchritte":3045,"ĠVaters":3046,"Ġheran":3047,"Ġeinzu":3048,"orge":3049,"Ġfern":3050,"Ġgeblieben":3051,"to":3052,"ieten":3053,"ĠNachbar":3054,"Ġsitzen":3055,"annten":3056,"Ġwiederholte":3057,"ĠDurch":3058,"ĠVerw":3059,"ĠPal":3060,"Ġtut":3061,"ĠGedanke":3062,"ahlen":3063,"anc":3064,"ĠFest":3065,"erin":3066,"Ġverz":3067,"Ġsolcher":3068,"derte":3069,"stÃ¼r":3070,"ĠWillen":3071,"ĠMale":3072,"ĠfÃ¼hren":3073,"Ġschreck":3074,"ament":3075,"ĠPfarr":3076,"Doch":3077,"ĠerzÃ¤hlen":3078,"tlichen":3079,"stein":3080,"ĠGelegenheit":3081,"Ġgewalt":3082,"Ġgesp":3083,"teuer":3084,"ĠFinger":3085,"ĠIst":3086,"olden":3087,"habe":3088,"Ġdeshalb":3089,"abri":3090,"ĠEhre":3091,"reut":3092,"Hand":3093,"ĠglÃ¤n":3094,"ise":3095,"Ġgefallen":3096,"ĠDorf":3097,"wert":3098,"hier":3099,"litz":3100,"inne":3101,"uss":3102,"ĠFÃ¼ÃŁen":3103,"ause":3104,"ĠRau":3105,"rt":3106,"legenheit":3107,"Ġzweiten":3108,"nichts":3109,"ĠZweifel":3110,"ĠÃ¤r":3111,"ĠHut":3112,"dert":3113,"Ist":3114,"unsch":3115,"orte":3116,"ĠBauern":3117,"ult":3118,"finden":3119,"ond":3120,"samm":3121,"kannten":3122,"Ġmitten":3123,"ĠdrÃ¼ben":3124,"ĠRegen":3125,"ummer":3126,"ras":3127,"sichtig":3128,"wegs":3129,"Gew":3130,"Von":3131,"ĠunglÃ¼ck":3132,"ĠZeu":3133,"Ġdagegen":3134,"Ġallgem":3135,"ĠBoot":3136,"ĠStuhl":3137,"Ġlagen":3138,"Ġreich":3139,"Ã¤ufig":3140,"ĠMat":3141,"Ã¤lte":3142,"zel":3143,"Ġhelfen":3144,"oche":3145,"ĠEhe":3146,"ĠJunge":3147,"Ġsan":3148,"Ġzeigen":3149,"iden":3150,"ieÃŁen":3151,"lÃ¼hen":3152,"ersch":3153,"ole":3154,"rist":3155,"Ġbevor":3156,"ĠSand":3157,"Ã¤gt":3158,"Also":3159,"ĠErinner":3160,"ĠHauses":3161,"sagte":3162,"ĠMacht":3163,"ĠKerl":3164,"ĠLord":3165,"geschlagen":3166,"zeug":3167,"ipp":3168,"ĠLeuten":3169,"ĠJugend":3170,"blei":3171,"ĠHans":3172,"ĠTier":3173,"volle":3174,"Ġfragen":3175,"ay":3176,"ĠPferd":3177,"Ġseien":3178,"ĠweiÃŁt":3179,"jen":3180,"flich":3181,"seit":3182,"liegen":3183,"zun":3184,"Ã¤ge":3185,"Ġhierher":3186,"ĠPaul":3187,"wahr":3188,"stadt":3189,"konnte":3190,"ĠKapitel":3191,"ĠLust":3192,"Ã¤llt":3193,"eller":3194,"Ġengl":3195,"ĠflÃ¼sterte":3196,"kla":3197,"jetzt":3198,"Ġla":3199,"ĠProfessor":3200,"bin":3201,"bung":3202,"reuz":3203,"fiel":3204,"Ġderselben":3205,"Na":3206,"vers":3207,"ĠMÃ¼he":3208,"ĠErn":3209,"Ġrichtig":3210,"zusammen":3211,"Ġdenke":3212,"ĠMich":3213,"Ġgehalten":3214,"etzter":3215,"zwanzig":3216,"ĠSturm":3217,"stÃ¤ndig":3218,"brechen":3219,"tliche":3220,"Ġis":3221,"Ġerl":3222,"Ġtausend":3223,"Diese":3224,"Ġguter":3225,"reckte":3226,"Warum":3227,"Ġschwieg":3228,"ĠVier":3229,"ĠVielleicht":3230,"Ġdan":3231,"ĠPer":3232,"ĠKaiser":3233,"ĠmÃ¼ÃŁte":3234,"ĠOb":3235,"digt":3236,"ĠKlei":3237,"laub":3238,"ve":3239,"gezogen":3240,"Ġheut":3241,"ĠDieser":3242,"ign":3243,"Ġtreu":3244,"Ġerkannte":3245,"aren":3246,"ĠFelsen":3247,"Ġblo":3248,"ĠkrÃ¤":3249,"ĠTrÃ¤nen":3250,"ĠHoffnung":3251,"gnÃ¼gen":3252,"Ġwarten":3253,"Ã¤ck":3254,"ac":3255,"Ġbekannt":3256,"dieser":3257,"ĠbeschÃ¤ft":3258,"Ġkleiner":3259,"Ġfolgen":3260,"onen":3261,"ĠFeld":3262,"Ġthun":3263,"wider":3264,"Ġthe":3265,"ĠTal":3266,"ĠdrÃ¼ckte":3267,"lot":3268,"ĠLande":3269,"Ġdurchaus":3270,"ĠOrd":3271,"ĠFurcht":3272,"Ġkn":3273,"Ġverstehen":3274,"ĠTor":3275,"Ġselten":3276,"alte":3277,"trag":3278,"...Â«":3279,"app":3280,"kommt":3281,"Ã¤us":3282,"ĠgnÃ¤d":3283,"Ġklein":3284,"Ġbleibt":3285,"ĠMag":3286,"kehren":3287,"ĠAnd":3288,"lebt":3289,"Ġmurmelte":3290,"Mann":3291,"Ġtragen":3292,"ĠBlumen":3293,"abei":3294,"ĠJul":3295,"Ġgedacht":3296,"ĠOnkel":3297,"gemacht":3298,"ĠBord":3299,"Ġgering":3300,"weisen":3301,"ĠSchuld":3302,"ĠbiÃŁ":3303,"grÃ¼":3304,"ĠGang":3305,"ĠWarum":3306,"alk":3307,"Ġbat":3308,"Ġeinigen":3309,"Ġerre":3310,"ĠKom":3311,"ĠLachen":3312,"ĠEcke":3313,"Leben":3314,"Ġsetzen":3315,"ĠPolizei":3316,"leisch":3317,"flÃ¼":3318,"Ġerinner":3319,"ĠFÃ¼rst":3320,"ĠHerzog":3321,"wenig":3322,"Ġans":3323,"haltung":3324,"ĠBew":3325,"Ġlust":3326,"ĠBerg":3327,"Al":3328,"erlich":3329,"ĠverlieÃŁ":3330,"ĠlÃ¤chelnd":3331,"schieden":3332,"win":3333,"Ã¤lter":3334,"Ġmen":3335,"ĠVerhÃ¤lt":3336,"ĠlÃ¤ngst":3337,"ĠMeinung":3338,"amit":3339,"igten":3340,"Ã¤ste":3341,"ĠBlicke":3342,"verstÃ¤nd":3343,"gelassen":3344,"beiter":3345,"ĠRie":3346,"Ġerkennen":3347,"weit":3348,"ĠEis":3349,"ĠdÃ¼rfen":3350,"ĠDi":3351,"Ġsonder":3352,"riester":3353,"Ġklang":3354,"teress":3355,"ĠEltern":3356,"ĠAlter":3357,"Ã¤s":3358,"Ġfahren":3359,"usammen":3360,"Ã¤hrt":3361,"ĠDort":3362,"ĠGu":3363,"icke":3364,"ĠAt":3365,"ĠBefehl":3366,"ĠBrÃ¼":3367,"Ġbisher":3368,"Nicht":3369,"igkeiten":3370,"haup":3371,"arte":3372,"ĠStock":3373,"sb":3374,"Ġkenne":3375,"Ġstren":3376,"Ġtau":3377,"gewesen":3378,"Ã¤g":3379,"Ġanderer":3380,"wÃ¤hrend":3381,"pfel":3382,"stande":3383,"bruch":3384,"Ġsogleich":3385,"ĠhÃ¶her":3386,"Ġfallen":3387,"of":3388,"Ġdadurch":3389,"ĠAlso":3390,"auft":3391,"Ġsieben":3392,"ĠÃ¼berzeu":3393,"ĠmiÃŁ":3394,"ĠWill":3395,"Ã¤chter":3396,"kten":3397,"Ġherbei":3398,"Ġbek":3399,"ote":3400,"amp":3401,"ĠAnblick":3402,"kehrt":3403,"Ġmanchmal":3404,"ĠLehr":3405,"Ã¶pfe":3406,"akter":3407,"ĠBel":3408,"ĠEisen":3409,"ĠJung":3410,"seinem":3411,"achend":3412,"ikan":3413,"Ġzwanzig":3414,"âĶģâĶģâĶģâĶģâĶģâĶģâĶģâĶģâĶģâĶģâĶģâĶģâĶģâĶģâĶģâĶģâĶģâĶģâĶģâĶģâĶģâĶģâĶģâĶģâĶģâĶģâĶģâĶģâĶģâĶģâĶģâĶģ":3415,"uns":3416,"ĠAugenblicke":3417,"hÃ¼":3418,"Ã¼hle":3419,"Ġgr":3420,"diese":3421,"ĠĠĠ":3422,"laufen":3423,"eifen":3424,"Ġentw":3425,"ĠHar":3426,"res":3427,"ĠGru":3428,"ire":3429,"ĠVo":3430,"ĠerzÃ¤hlt":3431,"fuhr":3432,"anzÃ¶s":3433,"ĠKer":3434,"wiesen":3435,"Ab":3436,"Ġfin":3437,"schr":3438,"ĠJohn":3439,"ied":3440,"Ġjenem":3441,"ĠStraÃŁen":3442,"Ã¤ndern":3443,"Ġschritt":3444,"Ġdunkel":3445,"ĠEindruck":3446,"gab":3447,"chtete":3448,"ĠKrÃ¤":3449,"ĠHund":3450,"ĠFol":3451,"ĠSchicksal":3452,"weiÃŁ":3453,"gefÃ¤hr":3454,"ĠDunkel":3455,"ĠManne":3456,"ĠMitte":3457,"ĠÃ¼brigens":3458,"uchten":3459,"gesp":3460,"Ġziehen":3461,"ĠSommer":3462,"ĠLeib":3463,"les":3464,"Ġsterben":3465,"Menschen":3466,"indern":3467,"ift":3468,"Ġnennen":3469,"ĠIhren":3470,"ĠBesitz":3471,"Ġallerdings":3472,"ĠPrinz":3473,"ĠEllen":3474,"bew":3475,"ĠMusik":3476,"mÃ¶gen":3477,"Ġschlecht":3478,"ĠAlten":3479,"ĠGrÃ¤fin":3480,"zut":3481,"Ġheftig":3482,"straÃŁe":3483,"ĠSoldaten":3484,"Gel":3485,"Ġwelchen":3486,"fahrt":3487,"ĠGut":3488,"geschlossen":3489,"rotz":3490,"ĠKat":3491,"trat":3492,"urt":3493,"ĠSchnee":3494,"rad":3495,"ĠfÃ¼gte":3496,"ehrt":3497,"ĠUl":3498,"ĠAnst":3499,"gewÃ¶hn":3500,"ley":3501,"ĠÃĸ":3502,"gefÃ¼hrt":3503,"ĠArzt":3504,"Ã¶rder":3505,"Ġvoraus":3506,"Ġschlafen":3507,"Ġandre":3508,"Ġbeinahe":3509,"ĠlieÃŁen":3510,"ĠWieder":3511,"ĠsaÃŁen":3512,"ihre":3513,"ĠGleich":3514,"liebt":3515,"rug":3516,"ugend":3517,"ĠMu":3518,"ĠMiene":3519,"ĠCl":3520,"mein":3521,"sache":3522,"Ġgehe":3523,"Ġberuh":3524,"bau":3525,"Ġzerst":3526,"ĠKloster":3527,"Ġbetrachtete":3528,"antwor":3529,"urz":3530,"Ġscharf":3531,"Ġtraf":3532,"Ġinteress":3533,"Ġbestimmt":3534,"ĠThÃ¼r":3535,"wind":3536,"Ã¶sen":3537,"Ġverstand":3538,"undzwanzig":3539,"ĠHalt":3540,"ocken":3541,"alles":3542,"Ġerstaunt":3543,"gleichen":3544,"Ġobwohl":3545,"Ġeins":3546,"anne":3547,"Ġwillen":3548,"ĠspÃ¤t":3549,"ĠWunder":3550,"Ġnot":3551,"ĠMittag":3552,"ĠunmÃ¶glich":3553,"Ġdunk":3554,"ĠKan":3555,"ĠName":3556,"Ġkleines":3557,"ĠTode":3558,"mÃ¤h":3559,"sind":3560,"Ġerhe":3561,"ĠKnie":3562,"Ġaufger":3563,"achtung":3564,"zi":3565,"yn":3566,"ĠAnder":3567,"Ã¤tze":3568,"ĠGrafen":3569,"Ġrot":3570,"Ġsag":3571,"ĠMart":3572,"ieg":3573,"schrift":3574,"Ġvollkommen":3575,"Ġkomme":3576,"ĠhÃ¤lt":3577,"Ġfal":3578,"Ġjunger":3579,"kÃ¼r":3580,"drei":3581,"ichen":3582,"Ġfreundlich":3583,"deten":3584,"ume":3585,"schluÃŁ":3586,"ĠBerlin":3587,"tritt":3588,"freund":3589,"ĠMark":3590,"vol":3591,"ĠZorn":3592,"ĠPriester":3593,"ĠPapier":3594,"ĠErd":3595,"Ġat":3596,"rief":3597,"quem":3598,"niÃŁ":3599,"Ã¶ger":3600,"ĠTrÃ¤":3601,"Ġwahrscheinlich":3602,"assung":3603,"Ġfing":3604,"Ġschmal":3605,"rocken":3606,"ĠÃ¤hn":3607,"Ã¤chlich":3608,"aller":3609,"âĢ¹,":3610,"suchen":3611,"Ġmachten":3612,"Ġeiniger":3613,"ĠGefangen":3614,"Ġdurfte":3615,"ĠFrieden":3616,"zunehmen":3617,"Ġdeinen":3618,"inks":3619,"wurde":3620,"ĠMill":3621,"ĠIde":3622,"ĠWÃ¼r":3623,"Ġgeschlossen":3624,"Ġ18":3625,"Ġnit":3626,"ĠZukunft":3627,"ĠFÃ¼hr":3628,"ĠFeind":3629,"âĢ¦":3630,"ĠKamer":3631,"ĠfaÃŁte":3632,"zum":3633,"ĠSu":3634,"einmal":3635,"hnung":3636,"ĠmuÃŁt":3637,"ara":3638,"weiter":3639,"Gott":3640,"ĠrÃ¼hr":3641,"Zeit":3642,"Ent":3643,"stÃ¤nde":3644,"ĠgroÃŁes":3645,"ĠHin":3646,"ĠWal":3647,"ĠSchweigen":3648,"ĠAtem":3649,"ĠToten":3650,"ĠMor":3651,"ĠFort":3652,"Ġdank":3653,"ĠKleid":3654,"Ġgep":3655,"irgend":3656,"andt":3657,"ĠÃ¼br":3658,"Ġgelegen":3659,"ĠBest":3660,"Ã¶d":3661,"ĠSonn":3662,"mÃ¤ÃŁig":3663,"ĠhieÃŁ":3664,"richten":3665,"etwas":3666,"ktiv":3667,"hten":3668,"schu":3669,"hÃ¤tte":3670,"Ġsolle":3671,"Den":3672,"ĠKnaben":3673,"letzt":3674,"ĠGar":3675,"ĠGrunde":3676,"ĠNa":3677,"laubt":3678,"Ġwartete":3679,"ĠOhren":3680,"hel":3681,"brigens":3682,"ĠBahn":3683,"ĠOrdnung":3684,"sehr":3685,"Ã¼nstler":3686,"Ġhart":3687,"ĠDem":3688,"ĠJÃ¼n":3689,"ĠDampf":3690,"ĠLuc":3691,"steigen":3692,"Ġunterbrach":3693,"ĠdÃ¼":3694,"Ġteil":3695,"weis":3696,"Ġschwarz":3697,"kn":3698,"ĠLad":3699,"ĠNoch":3700,"Ġwohin":3701,"stÃ¼ck":3702,"mus":3703,"ĠLieb":3704,"ĠNase":3705,"ĠVergnÃ¼gen":3706,"Â«.":3707,"immte":3708,"bu":3709,"Ġschrei":3710,"dessen":3711,"bem":3712,"grund":3713,"ĠSchÃ¶nheit":3714,"schÃ¶n":3715,"ĠFragen":3716,"spruch":3717,"ĠMel":3718,"Schw":3719,"ĠriÃŁ":3720,"ĠTraum":3721,"blickte":3722,"ĠerfÃ¼":3723,"ĠKammer":3724,"ĠEngland":3725,"Ġta":3726,"nungen":3727,"recher":3728,"erken":3729,"ordentlich":3730,"are":3731,"bern":3732,"anze":3733,"ĠgefÃ¤hr":3734,"Ġkrank":3735,"platz":3736,"Ġdeiner":3737,"ĠkÃ¶nnten":3738,"ias":3739,"ĠPart":3740,"auerte":3741,"Ã¨":3742,"ĠWetter":3743,"hle":3744,"Ġbitten":3745,".âĢ¹":3746,"Ġwicht":3747,"Ġverschwand":3748,"lieder":3749,"Ġverlang":3750,"Ã¼tzt":3751,"wegen":3752,"uth":3753,"tre":3754,"Ġzufrieden":3755,"ĠRos":3756,"ĠRichtung":3757,"elen":3758,"Ġoffenbar":3759,"ĠSchmerz":3760,"Ste":3761,"iefe":3762,"ĠFahr":3763,"Ã¤rtlich":3764,"iebt":3765,"liebe":3766,"ĠdÃ¼n":3767,"Ã¼tze":3768,"ssig":3769,"ĠweiÃŁe":3770,"ĠGegend":3771,"Ġwann":3772,"seite":3773,"ĠEuer":3774,"talien":3775,"lichem":3776,"Ġheiter":3777,"Ã¼tz":3778,"Ġbehaup":3779,"Ġpro":3780,"Ġlesen":3781,"ĠNeben":3782,"fach":3783,"kÃ¶nnen":3784,"satz":3785,"hause":3786,"cker":3787,"olf":3788,"Ġbedeuten":3789,"ĠSicher":3790,"mÃ¤hlich":3791,"Ã¤ub":3792,"ĠAbsicht":3793,"Ġherauf":3794,"wird":3795,"enkte":3796,"gegeben":3797,"Ġdrehte":3798,"ĠLager":3799,"Ã¤tter":3800,"Lie":3801,"Ġkalt":3802,"ĠWild":3803,"Ã¤ngte":3804,"Ġverfol":3805,"Re":3806,"urs":3807,"euchte":3808,"wollte":3809,"ĠMil":3810,"ĠHen":3811,"ĠWaffen":3812,"kung":3813,"ĠTru":3814,"ĠSchulter":3815,"uÃŁten":3816,"Ġversuchte":3817,"Ġbrei":3818,"Ã¼te":3819,"annen":3820,"Ġkrie":3821,"Ġwenigen":3822,"Ġherunter":3823,"Ã¼tte":3824,"ller":3825,"Ġgeschrieben":3826,"endes":3827,"ampe":3828,"ernt":3829,"sl":3830,"Ġschweren":3831,"Ġgolden":3832,"ĠJagd":3833,"schten":3834,"Ġvertrau":3835,"ĠOffizier":3836,"ĠTasche":3837,"ĠWin":3838,"stunde":3839,"schrei":3840,"ĠFrank":3841,"Ã¤ren":3842,"Ġmeisten":3843,"Ġmel":3844,"leiter":3845,"Ġlauter":3846,"Ġgeist":3847,"reisen":3848,"Ġentfernt":3849,"brachte":3850,"hang":3851,"ĠHeimat":3852,"jÃ¤hr":3853,"Ġlachen":3854,"ĠZÃ¤":3855,"Ġeinzel":3856,"ĠZusammen":3857,"reckt":3858,"Ġdennoch":3859,"Ġgeschah":3860,"itsch":3861,"onner":3862,"fÃ¤llig":3863,"Ġobgleich":3864,"maÃŁen":3865,"zeitig":3866,"ĠLauf":3867,"ĠVerd":3868,"ĠnÃ¶tig":3869,"Ġbezahl":3870,"ĠBau":3871,"Ġzuckte":3872,"Ġdunklen":3873,"Ġhohe":3874,"Ġeilte":3875,"Ġreichte":3876,"Ġkurzen":3877,"ĠbiÃŁchen":3878,"ĠGlauben":3879,"ĠPfarrer":3880,"Ã¶h":3881,"ĠNichts":3882,"ahre":3883,"har":3884,"ĠInter":3885,"Nur":3886,"wollen":3887,"ĠTodes":3888,"Ã¼st":3889,"ĠWa":3890,"irr":3891,"Ãľber":3892,"Ġbrauchen":3893,"ros":3894,"ĠbesaÃŁ":3895,"ĠbegrÃ¼":3896,"mmern":3897,"ĠOrt":3898,"ĠMajor":3899,"ĠBurg":3900,"iment":3901,"ĠSchon":3902,"gefunden":3903,"lÃ¼ssel":3904,"Ã¶m":3905,"Ġroten":3906,"abel":3907,"Ġerb":3908,"ĠMir":3909,"ĠEhren":3910,"ĠEure":3911,"Ġfinster":3912,"Ġrichtete":3913,"Ġliebte":3914,"Gl":3915,"atter":3916,"Ġleer":3917,"Ġdemselben":3918,"lecht":3919,"Ġstumm":3920,"Ġsolch":3921,"ĠOt":3922,"fest":3923,"ĠDor":3924,"ĠAug":3925,"ĠPu":3926,"barer":3927,"gabe":3928,"Ġschwarze":3929,"ĠSchwar":3930,"gebung":3931,"Ġte":3932,"ĠPflicht":3933,"form":3934,"schaffen":3935,"ĠEben":3936,"Ġschrieb":3937,"ĠAntlitz":3938,"raben":3939,"ĠDaÃŁ":3940,"Ã¤rt":3941,"Ġgetroffen":3942,"ĠFla":3943,"Ġbrauchte":3944,"Ã¤ngnis":3945,"unser":3946,"ĠFabri":3947,"ĠAnge":3948,"ĠSprache":3949,"erei":3950,"Ġschr":3951,"ĠVetter":3952,"ehrten":3953,"ĠBraut":3954,"Ġrechten":3955,"rer":3956,"verl":3957,"zenden":3958,"Ġschienen":3959,"Ã¶lf":3960,"ĠÃ¤rger":3961,"schuld":3962,"ĠHotel":3963,"bahn":3964,"Ġstolz":3965,"ĠNebel":3966,"eigung":3967,"Ġgesetzt":3968,"piel":3969,"macht":3970,"Ġbun":3971,"Ġlebte":3972,"Ġjenen":3973,"schland":3974,"ĠGal":3975,"ĠTante":3976,"ĠMeilen":3977,"ĠDingen":3978,"ĠBrot":3979,"Ã¶ste":3980,"Ġbegeg":3981,"orgt":3982,"ĠLeut":3983,"Ġmensch":3984,"sonst":3985,"bis":3986,"WÃ¤hrend":3987,"aub":3988,"ĠWissen":3989,"ĠSchutz":3990,"ko":3991,"ĠBeam":3992,"ierung":3993,"ĠLond":3994,"ĠBriefe":3995,"Ġklo":3996,"ĠWunsch":3997,"ĠfranzÃ¶s":3998,"ĠberÃ¼hm":3999,"Ġjenes":4000,"welche":4001,"Noch":4002,"ĠheiÃŁen":4003,"ĠKne":4004,"vo":4005,"ĠLÃ¶":4006,"ĠErfol":4007,"merksam":4008,"',":4009,"Ġzun":4010,"Ġerhoben":4011,"utet":4012,"Ã¼nd":4013,"Br":4014,"deckte":4015,"Ġhielten":4016,"Ġsorg":4017,"Ġneuem":4018,"ĠZweck":4019,"Ġwollt":4020,"ĠDach":4021,"ĠTem":4022,"erb":4023,"eucht":4024,"eigt":4025,"ĠOpfer":4026,"Ġtiefer":4027,"ĠSchrecken":4028,"hme":4029,"Ġvielmehr":4030,"ĠStellung":4031,"ĠSchultern":4032,"uft":4033,"sei":4034,"lech":4035,"buch":4036,"Ġeinzigen":4037,"ĠTone":4038,"ĠOder":4039,"ĠHol":4040,"ĠBart":4041,"Ġspielen":4042,"ianer":4043,"ĠSaal":4044,"Ġeher":4045,"pro":4046,"ĠAben":4047,"Ġsicht":4048,"ĠFeder":4049,"ĠAbschied":4050,"ĠPat":4051,"eisen":4052,"ĠÃ¼berw":4053,"ackt":4054,"nant":4055,"ĠBem":4056,"ĠmÃ¶gen":4057,"ĠReisen":4058,"ĠSc":4059,"egt":4060,"gehÃ¶rt":4061,"ĠâĢ¦":4062,"ĠMeine":4063,"ĠCap":4064,"Schl":4065,"Ã¶tt":4066,"ĠÃ¤ngst":4067,"ĠHor":4068,"ĠFahrt":4069,"Dieser":4070,"ĠPlan":4071,"Ġblauen":4072,"ohne":4073,"eins":4074,"ĠJo":4075,"Ged":4076,"ĠGren":4077,"ĠÃľ":4078,"zweif":4079,"rÃ¤n":4080,"onne":4081,"same":4082,"hÃ¶ren":4083,"Ġfroh":4084,"Land":4085,"ungslos":4086,"ĠEv":4087,"ĠEnglÃ¤nder":4088,"tausend":4089,"ĠKreuz":4090,"gelt":4091,"Ġverschwunden":4092,"holen":4093,"ĠFreundin":4094,"gesprochen":4095,"ĠSchlag":4096,"ĠstÃ¼rzte":4097,"Ġblieben":4098,"wissen":4099,"laden":4100,"Ġdeinem":4101,"ĠReiter":4102,"Ġlinks":4103,"Ġtiefen":4104,"!âĢ¹":4105,"far":4106,"Ġversich":4107,"ĠStube":4108,"FÃ¼r":4109,"Ã¤uber":4110,"ĠKarl":4111,"gangen":4112,"Ġangen":4113,"ana":4114,"amt":4115,"ĠReihe":4116,"ĠAut":4117,"ĠBen":4118,"ochten":4119,"leidet":4120,"Augenblick":4121,"ĠgefÃ¼hrt":4122,"Ġisch":4123,"ĠFreiheit":4124,"Ġheiligen":4125,"mt":4126,"fft":4127,"Ġsobald":4128,"ĠErinnerung":4129,"ĠIhrem":4130,"Ġstamm":4131,"Ġras":4132,"gÃ¼ltig":4133,"ĠStille":4134,"Ġerreicht":4135,"Ġverr":4136,"Ġneun":4137,"Ġentr":4138,"Ġeis":4139,"Ġdass":4140,"ĠAnfang":4141,"ctor":4142,"ĠFerne":4143,"Ġreg":4144,"Ġzweite":4145,"Zwei":4146,"ischt":4147,"ĠZeiten":4148,"teilt":4149,"Ġhind":4150,"wald":4151,"Ġdaraus":4152,"bart":4153,"herz":4154,"Ġnannte":4155,"Ã¼ckten":4156,"Ã¼hlen":4157,"ĠEntsch":4158,"Ġungehe":4159,"ĠHarr":4160,"eitung":4161,"ĠGet":4162,"ettet":4163,"ĠPrÃ¤":4164,"Ġmehrere":4165,"ĠZiel":4166,"handen":4167,"Ġgewissen":4168,"ĠwÃ¼rd":4169,"ĠRÃ¶":4170,"Ġgemein":4171,"ĠSÃ¤":4172,"ĠLondon":4173,"ĠErnst":4174,"Ġvoller":4175,"Ġebenfalls":4176,"ĠMatro":4177,"getreten":4178,"ĠJungen":4179,"ĠLin":4180,"ĠRes":4181,"Ġwert":4182,"zz":4183,"ĠstÃ¤r":4184,"ĠhÃ¼":4185,"ĠTische":4186,"uÃŁts":4187,"Ġpass":4188,"ĠzurÃ¼ckzu":4189,"gefallen":4190,"ĠAmer":4191,"Ġergriff":4192,"ĠAlt":4193,"hend":4194,"ĠMadame":4195,"ĠViertel":4196,"stÃ¤nden":4197,"Ġnachher":4198,"bleiben":4199,"Ã¤chtige":4200,"ĠZÃ¼ge":4201,"flo":4202,"ĠEing":4203,"ĠFrie":4204,"wohner":4205,"ĠbÃ¶se":4206,"Ġletzter":4207,"boden":4208,"drÃ¼ckt":4209,"Ġbot":4210,"ong":4211,"Ġzuletzt":4212,"ĠWel":4213,"ĠÃ¤lter":4214,"ĠgewÃ¶hnlich":4215,"ĠStand":4216,"ĠCharakter":4217,"geht":4218,"Mr":4219,"Ġdasselbe":4220,"ĠArbeiter":4221,"Ġrein":4222,"geboren":4223,"statt":4224,"ba":4225,"Gesicht":4226,"Ġseuf":4227,"Ġkennt":4228,"ĠFaust":4229,"Ġbekam":4230,"ĠSeit":4231,"ĠpersÃ¶n":4232,"Ã¤me":4233,"Ġglei":4234,"unger":4235,"ĠWeiber":4236,"ĠTaschen":4237,"ĠGeheimnis":4238,"ĠDeine":4239,"auen":4240,"ĠjÃ¼n":4241,"ĠmÃ¼de":4242,"ĠReihen":4243,"Ã¤tzen":4244,"fers":4245,"Ġvert":4246,"ĠWut":4247,"ĠRosen":4248,"Ġkehrte":4249,"ĠEndlich":4250,"igsten":4251,"fluÃŁ":4252,"merksamkeit":4253,"Ġtrotzdem":4254,"ftige":4255,"willkÃ¼r":4256,"Meine":4257,"ruhe":4258,"enntnis":4259,"Ġto":4260,"schwar":4261,"eise":4262,"igste":4263,"Ġna":4264,"Ġrechts":4265,"Ġeigene":4266,"Ġgelegt":4267,"Ġdiesmal":4268,"ĠGewissen":4269,"fert":4270,"hatten":4271,"Ġbraucht":4272,"ratet":4273,"haftig":4274,"Ġleid":4275,"eidig":4276,"ĠFremden":4277,"ihrer":4278,"Ġgriff":4279,"ĠWoche":4280,"Ġschreiben":4281,"Ġgelassen":4282,"ĠErzÃ¤hl":4283,"ĠhÃ¼bsch":4284,"Ger":4285,"Bl":4286,"acher":4287,"ĠGÃ¤ste":4288,"utzen":4289,"ta":4290,"ĠTri":4291,"usse":4292,"ĠMord":4293,"ihren":4294,"mitten":4295,"ĠSorge":4296,"irt":4297,"ĠzurÃ¼ckge":4298,"zweifl":4299,"ith":4300,"liehen":4301,"ischte":4302,"ĠgehÃ¶rte":4303,"ktion":4304,"Ġganzes":4305,"Ġentlang":4306,"Ġhalbe":4307,"ahnsinn":4308,"Ġspielte":4309,"ĠKauf":4310,"ĠvorwÃ¤rts":4311,"vielleicht":4312,"Ġerhielt":4313,"ĠStimmung":4314,"ĠFa":4315,"Ġmiteinander":4316,"Ġgrauen":4317,"scheu":4318,"ĠFÃ¼ÃŁe":4319,"ĠNachricht":4320,"zeichnet":4321,"Ġme":4322,"ĠMauer":4323,"Ġarm":4324,"Haus":4325,"ĠForm":4326,"seits":4327,"ĠHann":4328,"Ġober":4329,"Ġdanach":4330,"Ġwagte":4331,"ron":4332,"Ã¶re":4333,"wÃ¼rde":4334,"ĠPaar":4335,"Ġjedenfalls":4336,"mmte":4337,"ĠVoll":4338,"ĠSicherheit":4339,"Ġlachend":4340,"Ġhinweg":4341,"ĠFranken":4342,"Vater":4343,"ĠgeÃ¶ff":4344,"Gegen":4345,"scheinung":4346,"Ġet":4347,"aun":4348,"igar":4349,"Ġblut":4350,"ĠFremde":4351,"meine":4352,"ĠÃĦr":4353,"ĠKranken":4354,"uÃŁtsein":4355,"ĠlaÃŁ":4356,"Ã¤del":4357,"Ġspricht":4358,"Ġschar":4359,"Ġstillen":4360,"Ġbemerkt":4361,"euchtete":4362,"ĠBis":4363,"Ġkurze":4364,"Ġvermochte":4365,"othe":4366,"ffee":4367,"ĠMunde":4368,"ersten":4369,"ieder":4370,"ohnt":4371,"ĠStrom":4372,"ĠÃ¼brig":4373,"Ġwild":4374,"fÃ¼nf":4375,"Ġkeinem":4376,"ĠSan":4377,"ĠRuf":4378,"Ġstellen":4379,"Ġwein":4380,"Ġreichen":4381,"Ġempfand":4382,"denklich":4383,"ismus":4384,"ĠVermÃ¶gen":4385,"ackte":4386,"klÃ¤rung":4387,"ĠAng":4388,"getr":4389,"ark":4390,"antas":4391,"ĠEurop":4392,"fernung":4393,"ĠOberst":4394,"ĠHÃ¤user":4395,"bur":4396,"ĠPost":4397,"klei":4398,"fa":4399,"Ã¼ste":4400,"Ã¤chte":4401,"eils":4402,"schwer":4403,"Ġdieselbe":4404,"Ġzerr":4405,"Ġholen":4406,"vater":4407,"ael":4408,"Ġbeu":4409,"mmert":4410,"ĠAbends":4411,"Ġwilden":4412,"ĠgenÃ¼":4413,"ĠHerzens":4414,"ĠGlo":4415,"ĠSpitze":4416,"Ġgeschm":4417,"ĠHafen":4418,"nissen":4419,"Ġbra":4420,"ĠBeine":4421,"rom":4422,"ĠAnna":4423,"geworfen":4424,"ĠKopfe":4425,"ĠDon":4426,"Ġsteckte":4427,"Dar":4428,"Ġsollst":4429,"reuÃŁ":4430,"rieb":4431,"Ġweiten":4432,"ĠVerwand":4433,"iÃŁt":4434,"hÃ¤nd":4435,"ĠbrÃ¼":4436,"Ġhalt":4437,"gerichtet":4438,"nieder":4439,"ĠWolken":4440,"Ã¤umt":4441,"lag":4442,"yp":4443,"ĠDein":4444,"ĠTau":4445,"Ġarbei":4446,"Ġschob":4447,"ĠTiefe":4448,"Ã¼rzt":4449,"ĠKÃ¶nigin":4450,"laf":4451,"ĠTrotz":4452,"drÃ¼cken":4453,"eife":4454,"versch":4455,"Ġgezogen":4456,"Ġsprachen":4457,"ĠzunÃ¤chst":4458,"hÃ¤u":4459,"ĠKÃ¼che":4460,"ĠNord":4461,"ĠSchein":4462,"hafter":4463,"Ã¤nn":4464,"ĠRock":4465,"ĠFranzosen":4466,"Ġgenannt":4467,"eide":4468,"ĠSer":4469,"ĠSonntag":4470,"gut":4471,"lungen":4472,"ĠkÃ¼ÃŁte":4473,"ĠNiemand":4474,"ĠFlucht":4475,"ĠDichter":4476,"Ġessen":4477,"ĠAnn":4478,"werfen":4479,"Ġents":4480,"ump":4481,"Ã¤tz":4482,"Ġerinnerte":4483,"Ġlegen":4484,"Ġdeutschen":4485,"ĠRa":4486,"bef":4487,"ĠJÃ¼ngl":4488,"ĠPort":4489,"Ġhinten":4490,"Ġtraurig":4491,"ĠzÃ¤hl":4492,"ĠSchrift":4493,"Ġvorhin":4494,"eiter":4495,"Ġmache":4496,"ĠFleisch":4497,"Ġunseren":4498,"hungen":4499,"ĠZur":4500,"ĠEssen":4501,"Ġhellen":4502,"fs":4503,"Ġwin":4504,"ĠLes":4505,"than":4506,"ĠLiebes":4507,"ĠKameraden":4508,"Ber":4509,"ĠPlat":4510,"ĠFÃ¼rsten":4511,"Ã¶ÃŁe":4512,"ov":4513,"Ġnimmt":4514,"ischem":4515,"ĠMaÃŁ":4516,"Ġerreichen":4517,"ĠAugust":4518,"ĠSachen":4519,"di":4520,"Ġstarrte":4521,"ĠTra":4522,"wies":4523,"fÃ¤lt":4524,"ĠRot":4525,"Ġfanden":4526,"oph":4527,"ĠSchÃ¼":4528,"ĠLady":4529,"Vielleicht":4530,"afen":4531,"ĠSat":4532,"ĠgrÃ¼nen":4533,"ĠZauber":4534,"Ã¤ndert":4535,"Alle":4536,"ĠzÃ¶ger":4537,"Ġerschienen":4538,"abend":4539,"ittern":4540,"haber":4541,"Ġangenehm":4542,"ĠKriegs":4543,"ĠÃ¼berras":4544,"ite":4545,"rak":4546,"nun":4547,"ĠVerr":4548,"Ġsolches":4549,"ĠGesetz":4550,"Ã¤mpfen":4551,"rock":4552,"ĠDies":4553,"ĠFing":4554,"ragt":4555,"Ã¤chen":4556,"ĠBÃ¼ch":4557,"Ġhil":4558,"Ġzuvor":4559,"ftiger":4560,"Ġgehor":4561,"Ġfremden":4562,"wort":4563,"Ġbitter":4564,"ĠRas":4565,"ollt":4566,"eden":4567,"theil":4568,"ildete":4569,"Ġrech":4570,"ĠWangen":4571,"ĠallmÃ¤hlich":4572,"ĠBeispiel":4573,"ĠfrÃ¶h":4574,"ĠSpur":4575,"ĠLeiden":4576,"blau":4577,"Ġschaffen":4578,"ĠgrÃ¶ÃŁten":4579,"Ġlasse":4580,"ogra":4581,"ĠzwÃ¶lf":4582,"Ġsank":4583,"Ġausgest":4584,"Ã¤cher":4585,"Ġflog":4586,"ĠVogel":4587,"dam":4588,"ĠGrau":4589,"ĠKol":4590,"bed":4591,"folge":4592,"wÃ¼rdigen":4593,"Ã¶hnen":4594,"Ġpol":4595,"Ġgeschickt":4596,"ĠKnabe":4597,"ĠMantel":4598,"ĠSchlÃ¼ssel":4599,"ĠBerge":4600,"ĠSchlos":4601,"Ġerfuhr":4602,"ĠHein":4603,"Ġdunkle":4604,"arbei":4605,"ĠRed":4606,"nurr":4607,"ĠVersuch":4608,"geworden":4609,"ĠdÃ¼ster":4610,"lex":4611,"ippen":4612,"stem":4613,"umme":4614,"Frei":4615,"eigte":4616,"onie":4617,"Ġhastig":4618,"angenehm":4619,"glichkeit":4620,"ĠBÃ¤ume":4621,"tÃ¶n":4622,"ĠMiss":4623,"zweiflung":4624,"immten":4625,"ĠHaut":4626,"Ġhoff":4627,"Ġfurchtbar":4628,"ĠheiÃŁ":4629,"Bo":4630,"ĠMom":4631,"ĠDeutschland":4632,"geblieben":4633,"ĠKÃ¼ste":4634,"Ġretten":4635,"Ġur":4636,"Ġschwere":4637,"paar":4638,"blichen":4639,"estÃ¤t":4640,"ĠSpiegel":4641,"Ġzahl":4642,"auspiel":4643,"essin":4644,"ĠLeidenschaft":4645,"Ã¶pfen":4646,"Ġtreffen":4647,"Ġhalben":4648,"Ġlebt":4649,"ĠGegenwart":4650,"willkÃ¼rlich":4651,"Ġleiden":4652,"Ġleider":4653,"Ġerinn":4654,"Ġaufmerksam":4655,"ĠPri":4656,"ĠWirklich":4657,"Ġschweigend":4658,"Pf":4659,"ward":4660,"besser":4661,"losigkeit":4662,"Ã¶ch":4663,"Ġhindurch":4664,"kan":4665,"Ġsehn":4666,"Ã¶se":4667,"Ġgestorben":4668,"Ġbreiten":4669,"Ġentschlossen":4670,"ĠUlrich":4671,"Gr":4672,"Gen":4673,"Ġlaufen":4674,"ĠUnterhaltung":4675,"),":4676,"Kl":4677,"ĠgefaÃŁt":4678,"ĠfÃ¼hrt":4679,"Ġerwarten":4680,"tektiv":4681,"Ġvorn":4682,"groÃŁen":4683,"Mutter":4684,"Ġtrieb":4685,"Ġdi":4686,"Ġlehnte":4687,"Ġwobei":4688,"ĠFin":4689,"Ġsoviel":4690,"sichten":4691,"ĠLou":4692,"ziehung":4693,"Ġmerkte":4694,"ĠhÃ¶rt":4695,"ĠAp":4696,"Ġversp":4697,"Ġverwand":4698,"Ġtraten":4699,"underung":4700,"ĠfÃ¤llt":4701,"Ġbegab":4702,"diesem":4703,"willig":4704,"Bes":4705,"teilen":4706,"Ġstreckte":4707,"ĠKlein":4708,"ruhig":4709,"ĠRauch":4710,"ĠhÃ¶chst":4711,"mte":4712,"ĠMesser":4713,"Ġgleichen":4714,"ĠThr":4715,"Ġirgendwo":4716,"beug":4717,"ĠmÃ¶ge":4718,"Ġschlief":4719,"ĠJÃ¤ger":4720,"ĠDrei":4721,"ĠReich":4722,"herrn":4723,"erz":4724,"Ġwenige":4725,"heraus":4726,"ĠĠĠĠĠĠĠĠĠĠĠĠĠĠĠĠ":4727,"iten":4728,"ihnen":4729,"ĠSchwer":4730,"ĠStÃ¤d":4731,"Ġzuweilen":4732,"Ġstol":4733,"ĠJun":4734,"ĠSilber":4735,"ĠRevol":4736,"wesenheit":4737,"MÃ¤dchen":4738,"ĠFe":4739,"ĠkÃ¶nnt":4740,"ĠHimmels":4741,"beits":4742,"ly":4743,"min":4744,"Ġex":4745,"iers":4746,"eier":4747,"ĠFrÃ¼hl":4748,"Freund":4749,"Ġerwartet":4750,"Komm":4751,"ĠThat":4752,"Seine":4753,"plÃ¶tzlich":4754,"arg":4755,"ĠFluÃŁ":4756,"reden":4757,"Ġtrinken":4758,"flÃ¤che":4759,"mel":4760,"Ġallzu":4761,"Ġph":4762,"Ġverlor":4763,"ĠRobert":4764,"Ġverab":4765,"ski":4766,"hstÃ¼ck":4767,"ĠDecke":4768,"co":4769,"Ġsitzt":4770,"Ġfindet":4771,"warten":4772,"Ã¤hrten":4773,"wendig":4774,"Ġbringt":4775,"rasch":4776,"vern":4777,"Ġerm":4778,"Ġrings":4779,"Ġbehand":4780,"ĠReden":4781,"ĠMama":4782,"row":4783,"Ġthat":4784,"mÃ¼tig":4785,"stell":4786,"rucht":4787,"neu":4788,"mmerte":4789,"lichkeiten":4790,"wÃ¼rdige":4791,"Le":4792,"keine":4793,"Ġzogen":4794,"ĠFÃ¤":4795,"ffentlich":4796,"Ġnahmen":4797,"verb":4798,"ĠCo":4799,"Ã¶lker":4800,"bergen":4801,"ĠTurm":4802,"Ġunserem":4803,"ĠNachmittag":4804,"ĠInteresse":4805,"ile":4806,"wagen":4807,"mutz":4808,"Ġerscheinen":4809,"ationen":4810,"grau":4811,"Ġdenkt":4812,"verd":4813,"innt":4814,"ĠLandes":4815,"ĠTÃ¼re":4816,"Ġgutes":4817,"ĠHunde":4818,"kraft":4819,"Ġvorsichtig":4820,"ĠglÃ¼hen":4821,"ĠHast":4822,"ĠDing":4823,"ĠÃ¼bel":4824,"Ġnich":4825,"ĠgÃ¤":4826,"ĠWinkel":4827,"ĠÃ¼berzeugt":4828,"Endlich":4829,"ipfel":4830,"test":4831,"Oh":4832,"van":4833,"ĠtÃ¤glich":4834,"ĠVertrauen":4835,"aupt":4836,"ankheit":4837,"fÃ¼hl":4838,"ĠGo":4839,"bach":4840,"wan":4841,"Ġverwir":4842,"ĠZum":4843,"schiff":4844,"ilt":4845,"ĠMÃ¤r":4846,"ĠErfolg":4847,"ildet":4848,"Ġwies":4849,"ĠSteuer":4850,"ĠMinute":4851,"soll":4852,"eider":4853,"ĠStamm":4854,"ingend":4855,"Ġkeines":4856,"Ġniedr":4857,"zwungen":4858,"Ġverstanden":4859,"Ġerschrocken":4860,"ĠerklÃ¤ren":4861,"gehalten":4862,"ition":4863,"ĠvollstÃ¤ndig":4864,"ĠHaare":4865,"Ġ3":4866,"Ġvollen":4867,"merzen":4868,"int":4869,"ĠWaldemar":4870,"enig":4871,"ĠPause":4872,"walt":4873,"ĠBra":4874,"ĠfÃ¼rchte":4875,"ĠbemÃ¼":4876,"hu":4877,"Ġtreten":4878,"ĠEntfernung":4879,"ĠBegleiter":4880,"Ġscheu":4881,"Ġgestanden":4882,"punkt":4883,"schritt":4884,"ĠGemÃ¼t":4885,"Ġdanke":4886,"ĠKleider":4887,"ĠBrand":4888,"reg":4889,"ĠLot":4890,"ĠVern":4891,"indesten":4892,"ĠAufmerksamkeit":4893,"gelang":4894,"ĠGrab":4895,"wenden":4896,"emann":4897,"elig":4898,"ums":4899,"PlÃ¶tzlich":4900,"ĠLat":4901,"Ġgewisse":4902,"Pro":4903,"welt":4904,"lied":4905,"utete":4906,"Ã¤ne":4907,"Ġunsern":4908,"Ġgeboren":4909,"ĠBÃ¼r":4910,"eth":4911,"ĠMaria":4912,"ĠKÃ¤":4913,"Ã¼chtig":4914,"Nacht":4915,"klang":4916,"ĠStimmen":4917,"ĠHaltung":4918,"Ġverlegen":4919,"Ġbreit":4920,"Ġeifr":4921,"ĠFÃ¼hrer":4922,"geblich":4923,"Ġvorzu":4924,"ĠPapa":4925,"Gut":4926,"ĠSalon":4927,"ndete":4928,"ial":4929,"ĠPfund":4930,"ĠKindern":4931,"sollte":4932,"ĠBall":4933,"henden":4934,"fent":4935,"Ġtrocken":4936,"ĠfÃ¼hlen":4937,"wisch":4938,"chtet":4939,"ĠWellen":4940,"Ġliebens":4941,"gesicht":4942,"zeichen":4943,"Ġempfangen":4944,"ais":4945,"ĠHÃ¤l":4946,"ĠZwischen":4947,"verstÃ¤ndlich":4948,"ĠWeil":4949,"Ã¤ude":4950,"Ġdenk":4951,"Ġdumm":4952,"hinter":4953,"schwei":4954,"erner":4955,"Ġsy":4956,"pfe":4957,"Ġzweif":4958,"fÃ¼hrer":4959,"ĠJeder":4960,"gefÃ¼hl":4961,"ĠRolle":4962,"eur":4963,"Ġfassen":4964,"hÃ¶rte":4965,"ĠOl":4966,"denk":4967,"Ġvornehm":4968,"ĠberÃ¼hr":4969,"Ġfehlte":4970,"Ġtiefe":4971,"Ġend":4972,"ĠFieber":4973,"ĠLÃ¤rm":4974,"Ġschlagen":4975,"ĠGerÃ¤usch":4976,"ndet":4977,"barkeit":4978,"ti":4979,"Ġvo":4980,"ĠOhne":4981,"ĠKaffee":4982,"ĠRiesen":4983,"setzte":4984,"ĠHÃ¼tte":4985,"ĠZustand":4986,"ckten":4987,"brÃ¼":4988,"Ġgerichtet":4989,"bÃ¼":4990,"sondern":4991,"ĠAufregung":4992,"ĠWert":4993,"Ġentsetz":4994,"anders":4995,"ĠMrs":4996,"ĠKÃ¶nigs":4997,"ĠBitte":4998,"Ġanf":4999,"ĠRich":5000,"ĠGeschÃ¤":5001,"wirt":5002,"ĠrÃ¼ck":5003,"ĠChin":5004,"ĠKÃ¼nstler":5005,"laut":5006,"ĠMac":5007,"Ġgalt":5008,"illa":5009,"reue":5010,"ĠGewiÃŁ":5011,"zÃ¼glich":5012,"ĠEinen":5013,"Ġbequem":5014,"sicher":5015,"Ġgelesen":5016,"gelte":5017,"ĠbeschÃ¤ftigt":5018,"Ġschne":5019,"loser":5020,"fels":5021,"feld":5022,"ps":5023,"ĠKut":5024,"Wieder":5025,"ĠImmer":5026,"ĠBauer":5027,"trei":5028,"gerissen":5029,"ora":5030,"ĠFranc":5031,"Ġoffenen":5032,"leier":5033,"ĠgewuÃŁt":5034,"ĠWÃ¤hrend":5035,"Ah":5036,"Ã¶gel":5037,"ĠHaÃŁ":5038,"ĠSehn":5039,"ĠErei":5040,"eul":5041,"Ihre":5042,"Ġbru":5043,"Ã¤tigkeit":5044,"Ġwirk":5045,"ams":5046,"Wahr":5047,"mack":5048,"par":5049,"En":5050,"isser":5051,"ĠRest":5052,"bank":5053,"geschn":5054,"Ġheimlich":5055,"iner":5056,"Ġverlieren":5057,"stube":5058,"Ġveran":5059,"leute":5060,"ieh":5061,"Ġkom":5062,"ĠMas":5063,"blik":5064,"lad":5065,"ĠNieder":5066,"laube":5067,"ĠErscheinung":5068,"Ġgefangen":5069,"Wasser":5070,"Ġhoffe":5071,"Ġgerne":5072,"ator":5073,"Fl":5074,"ĠNorden":5075,"ĠschÃ¶ner":5076,"Ġallerlei":5077,"ĠHam":5078,"riet":5079,"ĠGlanz":5080,"ĠMasch":5081,"ober":5082,"ĠZufall":5083,"ĠFeinde":5084,"Ġgeworfen":5085,"genie":5086,"ĠBurschen":5087,"ĠStern":5088,"Ġverhei":5089,"ĠWÃ¤r":5090,"ĠBÃ¼cher":5091,"Ġverstehe":5092,"hagen":5093,"ĠKein":5094,"azier":5095,"ĠErstaunen":5096,"zeigt":5097,"ide":5098,"raum":5099,"ĠBlicken":5100,"ĠMath":5101,"urst":5102,"Ġgeschlagen":5103,"ĠBetr":5104,"ĠTheil":5105,"Ã¶chter":5106,"artig":5107,"Ġbleich":5108,"Ġfolgenden":5109,"Ġlustig":5110,"ena":5111,"getragen":5112,"empf":5113,"Ġdrang":5114,"ĠFamilien":5115,"Alles":5116,"ĠAbt":5117,"Ġleuchten":5118,"ĠBursche":5119,"ĠItalien":5120,"ĠBein":5121,"Ġherzlich":5122,"ĠSchlacht":5123,"ildeten":5124,"ĠDetektiv":5125,"Ġlernen":5126,"ĠdrÃ¤ngte":5127,"ĠhÃ¶re":5128,"diesen":5129,"stÃ¼cke":5130,"ĠPreis":5131,"ĠFreundschaft":5132,"ĠVerlo":5133,"gerade":5134,"Ġbestand":5135,"san":5136,"Ġgewinnen":5137,"ppel":5138,"unkte":5139,"Ġries":5140,"Ġdire":5141,"ĠSk":5142,"ĠMÃ¤dchens":5143,"Ġergriffen":5144,"ĠSchau":5145,"ĠwuÃŁten":5146,"ĠMaler":5147,"ĠMatrosen":5148,"wegungen":5149,"Ġarbeiten":5150,"Ġrechte":5151,"Ġgebrau":5152,"Ġvorhanden":5153,"ĠJose":5154,"Ã¤tsel":5155,"kehrte":5156,"Ġlebhaft":5157,"Ġsanft":5158,"haf":5159,"del":5160,"ĠSinne":5161,"Ġdesselben":5162,"voller":5163,"ington":5164,"ĠHem":5165,"Ġheiraten":5166,"laÃŁ":5167,"ese":5168,"Ġaugen":5169,"ĠStolz":5170,"verm":5171,"Ġdick":5172,"tÃ¼m":5173,"ĠDel":5174,"ĠSol":5175,"fÃ¼hrte":5176,"ĠSehnsucht":5177,"ĠBlatt":5178,"lichsten":5179,"Ã¼tzte":5180,"Haben":5181,"ĠSchiffe":5182,"ĠLis":5183,"Ġverspr":5184,"stieg":5185,"Ġbehalten":5186,"ĠKindes":5187,"Ġ-":5188,"ĠWil":5189,"Ġdarunter":5190,"Ġlanger":5191,"phe":5192,"ulen":5193,"Ġdritten":5194,"Ã¼rf":5195,"ĠAhnung":5196,"ĠPa":5197,"gott":5198,"ĠAcht":5199,"Ġauseinander":5200,"Ġpl":5201,"ĠJak":5202,"strÃ¶":5203,"Ġentz":5204,"Ġunheim":5205,"eitet":5206,"ĠdreiÃŁig":5207,"fÃ¶r":5208,"ry":5209,"utzt":5210,"schlug":5211,"ĠZigar":5212,"Ġhalte":5213,"ĠGras":5214,"ton":5215,"ĠfÃ¼rchtete":5216,"Ġverf":5217,"Ġantworten":5218,"ĠEntschluÃŁ":5219,"wÃ¤re":5220,"undern":5221,"DaÃŁ":5222,"ĠCol":5223,"Ġliebt":5224,"ĠVerstand":5225,"Durch":5226,"mutter":5227,"ĠKas":5228,"Ã¼tig":5229,"Ġfreien":5230,"Ġgetragen":5231,"hard":5232,"Ġschwach":5233,"ĠLaune":5234,"Ei":5235,"Ġverein":5236,"Ġsagten":5237,"Ġof":5238,"antasie":5239,"Ġwarm":5240,"ĠTanz":5241,"ĠherÃ¼ber":5242,"Ġerwartete":5243,"kopf":5244,"Ġenglischen":5245,"gner":5246,"ĠGatten":5247,"ĠDro":5248,"adel":5249,"Ġy":5250,"iren":5251,"Ã¤tten":5252,"ĠVerzweiflung":5253,"gelegt":5254,"Ġerster":5255,"ĠChe":5256,"baum":5257,"tÃ¼r":5258,"ĠLaden":5259,"Ġfein":5260,"ĠHir":5261,"ĠSek":5262,"anen":5263,"ĠTiere":5264,"dieses":5265,"machte":5266,"ĠMÃ¶n":5267,"werde":5268,"maÃŁ":5269,"Ġhor":5270,"schnell":5271,"Ġinzwischen":5272,"ĠRech":5273,"Ġseufzte":5274,"lÃ¤ufig":5275,"unt":5276,"Ġneuer":5277,"ĠRing":5278,"Schon":5279,"hinaus":5280,"ĠPhil":5281,"po":5282,"ĠFritz":5283,"bogen":5284,"Ã¤hig":5285,"gnen":5286,"wig":5287,"tell":5288,"ĠJulian":5289,"Ã¤ten":5290,"Kopf":5291,"ĠBilder":5292,"bein":5293,"furcht":5294,"Ġdien":5295,"spektor":5296,"ĠGewehr":5297,"ĠMonate":5298,"tra":5299,"leb":5300,"Ġrufen":5301,"Ġbescheiden":5302,"ĠHu":5303,"ugt":5304,"Ġvernahm":5305,"edes":5306,"lem":5307,"sst":5308,"olgt":5309,"ĠSeelen":5310,"Ġbetro":5311,"ĠDoctor":5312,"lichten":5313,"Ġunn":5314,"ĠgleichgÃ¼ltig":5315,"strahl":5316,"ars":5317,"ĠUnruhe":5318,"ĠDan":5319,"terte":5320,"Ã¤uft":5321,"astor":5322,"ĠFrÃ¼hstÃ¼ck":5323,"Ġgeheimnis":5324,"ames":5325,"ĠStaats":5326,"hut":5327,"ĠAg":5328,"ĠBand":5329,"ula":5330,"ĠSchule":5331,"ĠInner":5332,"gestanden":5333,"GewiÃŁ":5334,"ĠEingang":5335,"ternacht":5336,"ĠMillionen":5337,"ita":5338,"ĠUnser":5339,"ĠSpaÃŁ":5340,"Ġbrennen":5341,"kret":5342,"Ro":5343,"kamen":5344,"iffen":5345,"unruh":5346,"Ã¤ndig":5347,"inkt":5348,"ĠBewuÃŁtsein":5349,"muÃŁte":5350,"ĠZeug":5351,"ĠKell":5352,"ĠIndianer":5353,"ford":5354,"ĠPunkt":5355,"ĠHoriz":5356,"Ġsamm":5357,"ĠGanz":5358,"Beg":5359,"ĠDabei":5360,"ĠRh":5361,"Ġneues":5362,"jungen":5363,"eres":5364,"itzer":5365,"ĠGÃ¶t":5366,"ĠÃ¼berrascht":5367,"Ġstrahl":5368,"ĠprÃ¼":5369,"ĠErregung":5370,"holt":5371,"ennst":5372,"blicken":5373,"Ġdenselben":5374,"ĠBald":5375,"ĠtrÃ¼":5376,"sog":5377,"augen":5378,"ĠgÃ¼nst":5379,"wasser":5380,"Ġgelei":5381,"ĠerfÃ¼llt":5382,"Ġzitterte":5383,"Ihnen":5384,"erzÃ¤hl":5385,"reiche":5386,"willen":5387,"benden":5388,"decken":5389,"ettern":5390,"pfl":5391,"ike":5392,"arin":5393,"ĠBi":5394,"Ġverraten":5395,"ĠNeugier":5396,"Ġgestellt":5397,"Ġvergeben":5398,"ĠwÃ¼nschte":5399,"Ġerkannt":5400,"ffer":5401,"ĠRand":5402,"Ã¤usern":5403,"pol":5404,"Ġfielen":5405,"Ġruss":5406,"Ã¤nner":5407,"einst":5408,"erkl":5409,"steht":5410,"ĠKirch":5411,"Ġschlimm":5412,"Ġrote":5413,"unz":5414,"irm":5415,"Ã¤ufer":5416,"iker":5417,"ĠgeÃ¶ffnet":5418,"ĠAnstren":5419,"afe":5420,"lange":5421,"si":5422,"ĠFalle":5423,"kleinen":5424,"Wald":5425,"Ġentf":5426,"Ãª":5427,"Ġwerfen":5428,"ĠPark":5429,"Tr":5430,"ĠMÃ¶rder":5431,"arrte":5432,"fan":5433,"hil":5434,"ĠBier":5435,"eleg":5436,"Ġabends":5437,"ĠBa":5438,"ĠSÃ¼den":5439,"ĠSchluÃŁ":5440,"Ã¤umte":5441,"freu":5442,"ĠBegriff":5443,"underte":5444,"ive":5445,"Ġnachzu":5446,"raut":5447,"ĠBrÃ¼der":5448,"treffen":5449,"worden":5450,"ĠKÃ¶n":5451,"ĠErsch":5452,"ĠMarie":5453,"ĠJungfrau":5454,"arb":5455,"ilos":5456,"ĠSchauspiel":5457,"einde":5458,"ĠSkla":5459,"Ġneugier":5460,"ĠLast":5461,"ĠungefÃ¤hr":5462,"Ġleichter":5463,"ĠOh":5464,"zÃ¼ge":5465,"hnten":5466,"ĠLied":5467,"Ġbrauche":5468,"las":5469,"enken":5470,"ĠKugel":5471,"Kap":5472,"ĠStief":5473,"fÃ¼hrung":5474,"ĠVerbindung":5475,"anderen":5476,"ĠKlaus":5477,"ĠBrÃ¼cke":5478,"eiger":5479,"Ġwack":5480,"deutung":5481,"cc":5482,"ĠHochzeit":5483,"Ġeilig":5484,"que":5485,"utzend":5486,"Ġklopfte":5487,"ĠEll":5488,"verw":5489,"beiden":5490,"Ġverschiedenen":5491,"Ã¤nglich":5492,"ĠMeter":5493,"usch":5494,"Ġeinsam":5495,"ĠKummer":5496,"zende":5497,"ihrem":5498,"ĠPersonen":5499,"indungen":5500,"gesagt":5501,"Ġredete":5502,"gie":5503,"Ġkost":5504,"ischof":5505,"ĠVerdacht":5506,"reche":5507,"ĠLÃ¼":5508,"morgen":5509,"ĠverstÃ¤nd":5510,"bares":5511,"ĠUni":5512,"Ġholte":5513,"ĠFarben":5514,"ĠMichael":5515,"gek":5516,"ĠfÃ¼rchten":5517,"glichen":5518,"ĠKleine":5519,"ĠMah":5520,"ĠFels":5521,"Ã¤te":5522,"Ġverborgen":5523,"jahr":5524,"iter":5525,"stellte":5526,"etwegen":5527,"obald":5528,"ĠLeutnant":5529,"ĠMagd":5530,"Ġherrschte":5531,"dir":5532,"Ġgeraten":5533,"frÃ¼":5534,"ĠâĢĵ,":5535,"ĠCor":5536,"ĠJahres":5537,"ĠKirchen":5538,"mete":5539,"allte":5540,"twas":5541,"drÃ¼ck":5542,"Ġweshalb":5543,"unnen":5544,"ĠMoment":5545,"eif":5546,"Ġsingen":5547,"ĠNeg":5548,"ĠFrankreich":5549,"Ġmancher":5550,"ograph":5551,"ĠFer":5552,"smann":5553,"ĠAufent":5554,"ĠStreit":5555,"ĠUmstÃ¤nden":5556,"Morgen":5557,"ĠVort":5558,"omp":5559,"ankte":5560,"inzen":5561,"Ã¶ten":5562,"ĠFehl":5563,"ĠnÃ¤herte":5564,"Ġds":5565,"ĠBogen":5566,"ĠUnbe":5567,"ĠflÃ¼cht":5568,"ĠHÃ¤lfte":5569,"stete":5570,"ĠWien":5571,"ĠWesten":5572,"Ġgeliebt":5573,"undheit":5574,"Ġtrank":5575,"eind":5576,"gehÃ¶r":5577,"Ġdopp":5578,"ĠBlei":5579,"ĠPo":5580,"Ġdicken":5581,"ĠFreuden":5582,"Nie":5583,"ĠWÃ¤l":5584,"roÃŁ":5585,"sichtlich":5586,"ĠBette":5587,"Ġvertr":5588,"olke":5589,"Ġtrugen":5590,"wieger":5591,"Ind":5592,"Ob":5593,"iche":5594,"schien":5595,"ĠFen":5596,"Ġsinn":5597,"ĠBri":5598,"Bru":5599,"Denn":5600,"ĠKla":5601,"ring":5602,"Ġjemals":5603,"vid":5604,"ĠPlÃ¶tzlich":5605,"naden":5606,"dre":5607,"ird":5608,"allein":5609,"ĠBemerk":5610,"linge":5611,"ement":5612,"ution":5613,"ĠtrÃ¤gt":5614,"ĠerwÃ¤":5615,"ocht":5616,"ĠErich":5617,"urer":5618,"Ã¼hrung":5619,"ĠDol":5620,"Ġerstenmal":5621,"ĠGefangenen":5622,"ktr":5623,"nade":5624,"endung":5625,"Ġgelernt":5626,"ĠApp":5627,"ĠAuff":5628,"Ġleidenschaft":5629,"ĠSitz":5630,"Ġgeschw":5631,"ĠfÃ¼nfzig":5632,"grunde":5633,"ĠZÃ¤hne":5634,"bereit":5635,"ĠHaufen":5636,"ĠHofe":5637,"Ġangef":5638,"Sein":5639,"hÃ¤ngen":5640,"ĠRichter":5641,"ĠPass":5642,"El":5643,"Ne":5644,"Gem":5645,"ĠgrÃ¶ÃŁte":5646,"ĠFarbe":5647,"Ġfrisch":5648,"afft":5649,"Mir":5650,"Welt":5651,"stuhl":5652,"inke":5653,"Ġpflegte":5654,"Blick":5655,"stre":5656,"ĠMahl":5657,"Ġko":5658,"lock":5659,"Ġbeugte":5660,"ĠWirklichkeit":5661,"Ġzurecht":5662,"ĠMauern":5663,"ĠVers":5664,"Ġseitdem":5665,"ĠHunger":5666,"ĠAussicht":5667,"ĠMinister":5668,"ĠstÃ¤rker":5669,"kleid":5670,"schÃ¼ttel":5671,"Ã¶pft":5672,"holz":5673,"vel":5674,"ĠZÃ¼gen":5675,"mensch":5676,"eckt":5677,"ruf":5678,"Zw":5679,"ĠGebir":5680,"grÃ¶":5681,"acke":5682,"ĠTheater":5683,"ĠMÃ¼n":5684,"ĠLampe":5685,"ĠSchnell":5686,"ĠErden":5687,"ĠInnern":5688,"ĠTafel":5689,"vat":5690,"zubringen":5691,"Gra":5692,"ĠFreundes":5693,"Ġbewegte":5694,"fÃ¤ltig":5695,"Ġsoeben":5696,"ĠNer":5697,"ĠkÃ¼hl":5698,"Ġfehlt":5699,"Ġwach":5700,"ĠGeorg":5701,"krÃ¤":5702,"ĠSchwei":5703,"fri":5704,"Ġsiehst":5705,"olog":5706,"beln":5707,"ham":5708,"ĠvernÃ¼n":5709,"ĠSign":5710,"zukommen":5711,"Ġstarken":5712,"schlieÃŁen":5713,"ĠWit":5714,"ĠSchwert":5715,"Ġpein":5716,"drich":5717,"Ġweite":5718,"ĠMÃ¤nnern":5719,"Ġversuchen":5720,"tert":5721,"ĠKÃ¤lte":5722,"zeugung":5723,"ĠWÃ¤":5724,"stehenden":5725,"Ġzorn":5726,"Ġwiederum":5727,"drÃ¼ckte":5728,"val":5729,"Ġdicke":5730,"ĠIngenie":5731,"ĠDick":5732,"Ġblitz":5733,"Ġmach":5734,"Ġno":5735,"Ka":5736,"Ġabermals":5737,"iens":5738,"Ġmindesten":5739,"chens":5740,"Ġbeginnen":5741,"ĠSil":5742,"ĠBÃ¤umen":5743,"see":5744,"ĠAllein":5745,"attet":5746,"Ġinmitten":5747,"ĠHalb":5748,"Ġsilber":5749,"ĠFolge":5750,"Dem":5751,"mith":5752,"garten":5753,"ĠÃ¶fter":5754,"Tag":5755,"Ġunseres":5756,"pu":5757,"ĠDirektor":5758,"Nobody":5759,"Ġverbr":5760,"ĠUmgebung":5761,"zweifel":5762,"dich":5763,"ieter":5764,"Ġunsch":5765,"Ġdumpf":5766,"umpen":5767,"ĠGatt":5768,"ĠLiebl":5769,"Ġversteht":5770,"Wel":5771,"ĠZahl":5772,"ĠnatÃ¼r":5773,"dienst":5774,"ĠFlammen":5775,"ilo":5776,"lÃ¶tz":5777,"flucht":5778,"ĠGas":5779,"ĠwÃ¼nschen":5780,"ildern":5781,"Ġunsre":5782,"artigen":5783,"ĠWirkung":5784,"Dies":5785,"ĠMitleid":5786,"ĠProv":5787,"ĠSel":5788,"ĠDieses":5789,"ĠBal":5790,"ĠFisch":5791,"ĠNor":5792,"ĠZeitung":5793,"Ġhalf":5794,"lust":5795,"dent":5796,"ĠSegel":5797,"Ġfolgten":5798,"ĠEdel":5799,"seines":5800,"ĠAbb":5801,"Ġsorgen":5802,"ĠDruck":5803,"euchteten":5804,"ĠjÃ¼nger":5805,"ĠArn":5806,"Ġnehme":5807,"isk":5808,"hoch":5809,"mÃ¤dchen":5810,"Ã¶rung":5811,"Ġvergangen":5812,"ĠMorgens":5813,"tau":5814,"ime":5815,"Ġverschl":5816,"Ġehem":5817,"ĠmerkwÃ¼rdig":5818,"ĠKÃ¶pfe":5819,"din":5820,"aute":5821,"Ġdesto":5822,"ĠArbeits":5823,"Ã¤chtnis":5824,"mor":5825,"ĠfÃ¼rchter":5826,"Ġindessen":5827,"ĠSterne":5828,"Ġwinkte":5829,"ĠhÃ¶chsten":5830,"ĠGericht":5831,"ĠJan":5832,"reif":5833,"gerufen":5834,"ĠEiner":5835,"ĠRechte":5836,"ichteten":5837,"ĠErk":5838,"Ġgeradezu":5839,"ĠGemach":5840,"Ġnennt":5841,"Erst":5842,"Ġsang":5843,"Ġtanz":5844,"Ġgleichsam":5845,"ĠJÃ¼ngling":5846,"ĠhÃ¤ufig":5847,"ĠWalde":5848,"Fel":5849,"Ġfuhren":5850,"pekt":5851,"ĠbestÃ¤t":5852,"irne":5853,"ice":5854,"ĠÃ¶ffnen":5855,"ĠBÃ¼rgermeister":5856,"Ma":5857,"eckte":5858,"ĠWÃ¼rde":5859,"ieht":5860,"Ã¤ngten":5861,"ĠVerbrechen":5862,"ĠFingern":5863,"ĠmÃ¤chtigen":5864,"deuten":5865,"ĠVaterland":5866,"liegenden":5867,"Ã¼chtern":5868,"Ġerregt":5869,"ĠEreig":5870,"uner":5871,"Nichts":5872,"ĠgnÃ¤dige":5873,"ĠZunge":5874,"ĠRegierung":5875,"Ġfried":5876,"ĠJim":5877,"iller":5878,"ĠSchritten":5879,"Gedanken":5880,"uÃŁer":5881,"Kind":5882,"Ġbildete":5883,"Ġritt":5884,"ĠFlasche":5885,"Ġgewonnen":5886,"hervor":5887,"Ã¼tten":5888,"Ġbedeckt":5889,"Ġpre":5890,"ĠvergnÃ¼":5891,"Ġbege":5892,"Ġbeherr":5893,"Ġgesund":5894,"ĠmÃ¼h":5895,"Ġdorthin":5896,"ĠWahl":5897,"blich":5898,"Ġgebrochen":5899,"ĠAnsicht":5900,"Ġverschlossen":5901,"Ġgiebt":5902,"redung":5903,"Ġdazwischen":5904,"ulden":5905,"mitt":5906,"ĠBot":5907,"amer":5908,"ĠMeeres":5909,"Kr":5910,"Ġschwe":5911,"artige":5912,"ĠfrÃ¼heren":5913,"Ġfremd":5914,"gei":5915,"mund":5916,"ĠErb":5917,"ĠBlÃ¤tter":5918,"auert":5919,"lepp":5920,"manns":5921,"ĠTuch":5922,"reite":5923,"ĠLeid":5924,"reff":5925,"eidigen":5926,"ĠIdee":5927,"wetter":5928,"eiÃŁen":5929,"ĠÃ¤ngstlich":5930,"Ġinne":5931,"ĠTÃ¶chter":5932,"ecke":5933,"ĠStrand":5934,"andere":5935,"davon":5936,"ĠGefÃ¤hrten":5937,"Ġunserm":5938,"gelaufen":5939,"Ġewig":5940,"dort":5941,"Ã¼rte":5942,"groÃŁ":5943,"hls":5944,"ĠPfl":5945,"Ġbegleiten":5946,"ĠzufÃ¤llig":5947,"000":5948,"wÃ¼n":5949,"Ġnah":5950,"Ġfla":5951,"gemein":5952,"digen":5953,"lauf":5954,"zene":5955,"ĠGegenstand":5956,"Ġschmalen":5957,"ĠGesichter":5958,"ĠSchreibt":5959,"ĠSumme":5960,"ĠGere":5961,"ĠRad":5962,"iesen":5963,"Ġunged":5964,"Ġbegriff":5965,"ĠKrankheit":5966,"schauen":5967,"Ġanges":5968,"ĠblaÃŁ":5969,"Ġlinken":5970,"Ġnochmals":5971,"ĠHeute":5972,"Ġunangenehm":5973,"leiten":5974,"uge":5975,"gingen":5976,"ĠTrÃ¼":5977,"Dr":5978,"Selbst":5979,"ĠSpan":5980,"ĠHeiligen":5981,"ĠErklÃ¤rung":5982,"Ġstehe":5983,"glÃ¤ub":5984,"ĠnÃ¤chste":5985,"Zum":5986,"ettel":5987,"ĠschlieÃŁen":5988,"ek":5989,"ete":5990,"ĠWander":5991,"gefahren":5992,"kein":5993,"ĠSchuÃŁ":5994,"eilung":5995,"ĠEinsamkeit":5996,"ĠhÃ¶rten":5997,"Ġstreng":5998,"Ġnimmer":5999,"ĠPastor":6000,"ickten":6001,"Zimmer":6002,"ĠElend":6003,"wechsel":6004,"Ġbefanden":6005,"ĠHÃ¶r":6006,"Ġmanche":6007,"geld":6008,"immern":6009,"ĠEurer":6010,"ĠJohanna":6011,"Ġstille":6012,"NatÃ¼rlich":6013,"Ġleichten":6014,"ĠMitg":6015,"iebten":6016,"Ġheilige":6017,"chst":6018,"ĠEngel":6019,"ĠEinzel":6020,"Ġach":6021,"reuen":6022,"ĠAller":6023,"ĠAdel":6024,"suchte":6025,"ĠEle":6026,"ĠSieg":6027,"reiÃŁen":6028,"Ã¶hnte":6029,"denen":6030,"ĠSchreck":6031,"Mensch":6032,"ĠRichard":6033,"plat":6034,"Ġweichen":6035,"verne":6036,"Ġdienen":6037,"Ã¶sten":6038,"bewegung":6039,"zeihen":6040,"deckten":6041,"ĠUrsache":6042,"enehmen":6043,"richtung":6044,"Will":6045,"Ġweitere":6046,"ĠAmb":6047,"ĠGefÃ¼hle":6048,"Ġweinte":6049,"ĠWolf":6050,"kur":6051,"lÃ¤nder":6052,"ĠKrÃ¤fte":6053,"orten":6054,"derwisch":6055,"ĠfÃ¼hle":6056,"geheuer":6057,"ĠPul":6058,"ĠFabrik":6059,"enkt":6060,"Ġfesten":6061,"ĠLoch":6062,"ĠErfahr":6063,"ĠBeruf":6064,"warf":6065,"ĠhÃ¤tt":6066,"besonder":6067,"Gleich":6068,"He":6069,"ĠhÃ¤ngen":6070,"ĠWÃ¼n":6071,"Ã¤hlt":6072,"Stadt":6073,"Stimme":6074,"bliche":6075,"schloÃŁ":6076,"Ġgethan":6077,"haar":6078,"Ġstiegen":6079,"Ġallgemeinen":6080,"erseits":6081,"by":6082,"genossen":6083,"Ġschuldig":6084,"ĠAnkunft":6085,"stag":6086,"Ġeng":6087,"II":6088,"ĠFern":6089,"ĠHaben":6090,"ĠGegenteil":6091,"hauses":6092,"Ġzweimal":6093,"ĠBlitz":6094,"ĠGewohn":6095,"Ganz":6096,"Â»...":6097,"ĠGÃ¼te":6098,"Ġbesuchen":6099,"Ġverwundert":6100,"ĠReicht":6101,"legten":6102,"ĠVorstellung":6103,"sieht":6104,"Gesellschaft":6105,"ĠTrost":6106,"ĠÃ¤hnlich":6107,"atsÃ¤chlich":6108,"schnitt":6109,"Dien":6110,"gs":6111,"schreiben":6112,"zugehen":6113,"Ġnerv":6114,"ĠunwillkÃ¼rlich":6115,"ĠFig":6116,"ĠFenstern":6117,"ĠGeister":6118,"ĠDonner":6119,"hinein":6120,"Ġgetreten":6121,"ĠwÃ¼ÃŁte":6122,"ĠEw":6123,"ĠTur":6124,"Ġpackte":6125,"ickelt":6126,"verstanden":6127,"Weil":6128,"Ġklug":6129,"Ġwenden":6130,"ĠVerlegenheit":6131,"ĠHeinrich":6132,"utig":6133,"ĠRache":6134,"Ġumf":6135,"Ġwerdet":6136,"eilte":6137,"Ġglaubt":6138,"asc":6139,"mÃ¼ssen":6140,"ĠMajestÃ¤t":6141,"ippe":6142,"raschung":6143,"edem":6144,"ĠFlÃ¼gel":6145,"altet":6146,"Ã¤hren":6147,"Liebe":6148,"Ġgaben":6149,"Ġgefragt":6150,"Ġbemerken":6151,"ĠgewÃ¶hnt":6152,"unten":6153,"ĠGnaden":6154,"Ã¤chtiger":6155,"ĠStall":6156,"ĠSpazier":6157,"geschrieben":6158,"ĠMarqu":6159,"wirklich":6160,"ĠBeide":6161,"ĠBlÃ¼":6162,"trug":6163,"ĠOheim":6164,"kles":6165,"Ġplau":6166,"wirr":6167,"itÃ¤r":6168,"Ġgerettet":6169,"handlung":6170,"Ġinn":6171,"schend":6172,"ĠRÃ¤uber":6173,"Ġleichte":6174,"ĠVerlangen":6175,"Seit":6176,"junge":6177,"anges":6178,"geschickt":6179,"Ġlebendig":6180,"gÃ¼lt":6181,"ĠAndre":6182,"Peter":6183,"kne":6184,"stren":6185,"weichen":6186,"ĠschÃ¶nes":6187,"Ã¤hen":6188,"ĠKÃ¶r":6189,"ĠKab":6190,"Ã¤mmerung":6191,"dor":6192,"eilt":6193,"Or":6194,"blieb":6195,"Ġwem":6196,"Ġwachsen":6197,"ĠhÃ¤ÃŁ":6198,"Ġgra":6199,"Ã¼ren":6200,"Ġmeint":6201,"ĠRen":6202,"utzte":6203,"edig":6204,"Ġderselbe":6205,"ĠfÃ¶r":6206,"vertrau":6207,"ĠSÃ¼d":6208,"leitung":6209,"annung":6210,"ork":6211,"auff":6212,"ĠgrÃ¤":6213,"ĠNu":6214,"Ã¤uscht":6215,"tun":6216,"Ġannehmen":6217,"trÃ¤glich":6218,"etze":6219,"Ġzieht":6220,"Ġunbeweg":6221,"Abend":6222,"Ġdauerte":6223,"roff":6224,"jenigen":6225,"tief":6226,"ĠPet":6227,"Einen":6228,"Ġsichtbar":6229,"siden":6230,"ĠKreise":6231,"Spr":6232,"Ġdieselben":6233,"ĠHalle":6234,"Ġverzweif":6235,"ierig":6236,"sichts":6237,"Ġbewegen":6238,"ĠHauptmann":6239,"Hast":6240,"Ġwechsel":6241,"ĠSteine":6242,"Nachdem":6243,"ĠJean":6244,"ĠBeamten":6245,"dringen":6246,"derben":6247,"ĠPosten":6248,"ĠGestalten":6249,"leu":6250,"Ġfinde":6251,"ĠSam":6252,"ĠSchatz":6253,"ahrte":6254,"ĠStaub":6255,"Ã¤nzlich":6256,"Ã¶sung":6257,"Ġnid":6258,"Ġwagen":6259,"indel":6260,"Ġmanches":6261,"ĠStroh":6262,"ĠSorgen":6263,"ĠHÃ¤nd":6264,"ĠMeere":6265,"wÃ¤rt":6266,"Ġgetrieben":6267,"Schiff":6268,"schlieÃŁlich":6269,"rauch":6270,"ĠGesichts":6271,"Ġfremde":6272,"ĠHÃ¼gel":6273,"hor":6274,"ĠDunkelheit":6275,"ĠsÃ¤m":6276,"Ġkind":6277,"ennung":6278,"ĠPrinzessin":6279,"Ġregel":6280,"ĠJeden":6281,"erw":6282,"ĠSchwelle":6283,"het":6284,"ĠCy":6285,"Ġerschrak":6286,"ĠgrÃ¼n":6287,"ĠPhantasie":6288,"ĠVilla":6289,"Ġoh":6290,"Ġbeschw":6291,"GlÃ¼ck":6292,"ĠzÃ¤rtlich":6293,"schlossen":6294,"ackten":6295,"Ġeinzelnen":6296,"itik":6297,"ĠBergen":6298,"Ġzeigten":6299,"Ġweinen":6300,"scheiden":6301,"ĠGeschlecht":6302,"Lu":6303,"ode":6304,"eis":6305,"ĠOsten":6306,"ĠBewegungen":6307,"ietet":6308,"Ġwilde":6309,"ĠDes":6310,"ĠFro":6311,"ĠKehl":6312,"Ġschmer":6313,"âĢĻ":6314,"Ġworauf":6315,"Ġeifrig":6316,"trÃ¼":6317,"entgegen":6318,"tels":6319,"ĠGlieder":6320,"leicht":6321,"ĠDeutschen":6322,"ĠBruders":6323,"Ġhandelt":6324,"Me":6325,"itu":6326,"ĠTab":6327,"ĠPen":6328,"ĠStahl":6329,"heben":6330,"fangs":6331,"gungen":6332,"lege":6333,"ĠGnade":6334,"ordon":6335,"elegra":6336,"sech":6337,"Ġtoll":6338,"Ġgoldenen":6339,"arbeitet":6340,"ĠBill":6341,"ĠGeschw":6342,"Ġbetrachten":6343,"ĠAchseln":6344,"Ġgelangen":6345,"Ġerkund":6346,"betr":6347,"dreiÃŁig":6348,"Himmel":6349,"Ã¶tet":6350,"ĠMitternacht":6351,"Ġgleichfalls":6352,"lings":6353,"hielten":6354,"deren":6355,"ĠErw":6356,"Ã¤hrte":6357,"ĠGeschmack":6358,"ĠMode":6359,"Ġunerwar":6360,"Ġschuld":6361,"Ġjedesmal":6362,"ĠHab":6363,"uÃŁland":6364,"Ġtreiben":6365,"sieur":6366,"Ġeleg":6367,"ĠÂ«":6368,"ĠKath":6369,"ĠKreis":6370,"Ġentschieden":6371,"ĠGeschichten":6372,"ils":6373,"ĠBon":6374,"ĠPel":6375,"Ġleisten":6376,"Ġschickte":6377,"ĠlÃ¤ng":6378,"Ġbrummte":6379,"derung":6380,"ĠSchreiben":6381,"Ġsteigen":6382,"Ġpra":6383,"Fenster":6384,"andern":6385,"Vier":6386,"frie":6387,"ĠLeder":6388,"Ġwohnen":6389,"Ġsetzten":6390,"ĠJakob":6391,"ĠSim":6392,"ino":6393,"endem":6394,"ĠMÃ¶glichkeit":6395,"sehn":6396,"Ġbeobachtete":6397,"hÃ¤ndler":6398,"Dort":6399,"ters":6400,"gesetzten":6401,"ĠKinde":6402,"kad":6403,"ĠUe":6404,"teln":6405,"euchtet":6406,"ĠkÃ¤me":6407,"Ho":6408,"ĠDutzend":6409,"Ġversucht":6410,"vom":6411,"ĠHex":6412,"falt":6413,"ĠGau":6414,"ĠHan":6415,"Ġdrin":6416,"ĠGrÃ¶ÃŁe":6417,"Ġweh":6418,"gels":6419,"reunde":6420,"Ã¤gen":6421,"ĠSchwier":6422,"zusehen":6423,"Ġeinziges":6424,"ĠEntsetzen":6425,"Ġempfing":6426,"mten":6427,"Ġverbergen":6428,"Ġhingen":6429,"Chr":6430,"ĠFlut":6431,"Ġkurzer":6432,"wÃ¼rdiger":6433,"ĠbÃ¶sen":6434,"ĠWÃ¤nde":6435,"ĠBedeutung":6436,"ĠWeiÃŁ":6437,"ital":6438,"Ã¶ck":6439,"altete":6440,"ĠGeschrei":6441,"ĠwÃ¼tend":6442,"ymp":6443,"ĠSessel":6444,"ĠLehn":6445,"ĠLeichen":6446,"lÃ¤ss":6447,"ca":6448,"Ġkaufen":6449,"ĠViertelstunde":6450,"Ġschlich":6451,"Ġtod":6452,"insen":6453,"Ġnachdenklich":6454,"Ober":6455,"Ġwozu":6456,"Ġvierzehn":6457,"riechen":6458,"ĠNacken":6459,"anger":6460,"ĠGefÃ¤ngnis":6461,"rede":6462,"ks":6463,"ĠPla":6464,"Ġerinnern":6465,"Ã¤tt":6466,"Herrn":6467,"Wohl":6468,"Ġgelo":6469,"ĠKal":6470,"meinen":6471,"ĠEifer":6472,"Ġgeglaubt":6473,"Ã¤st":6474,"Ġstarke":6475,"erten":6476,"Ġbefr":6477,"sprache":6478,"Hoch":6479,"ĠErzÃ¤hlung":6480,"Ġsi":6481,"ndes":6482,"ĠDom":6483,"ĠbewuÃŁt":6484,"Ġentfernte":6485,"ylord":6486,"ĠmÃ¼ÃŁten":6487,"Ġvolle":6488,"ĠVolks":6489,"ĠHeiter":6490,"nus":6491,"ichtung":6492,"ĠMau":6493,"klo":6494,"xt":6495,"ĠHerrin":6496,"Ġsagst":6497,"ĠSchar":6498,"lotte":6499,"Ġunab":6500,"legenheiten":6501,"ĠBeste":6502,"geschnitten":6503,"Ġbill":6504,"Ġversamm":6505,"weile":6506,"Ġunterwegs":6507,"ĠHerbst":6508,"ĠerfÃ¼llte":6509,"ĠFinstern":6510,"Ã¶hne":6511,"Ġfeinen":6512,"reckten":6513,"darauf":6514,"Ġdeutsche":6515,"Ġgilt":6516,"ĠLaut":6517,"Ġangenommen":6518,"Ġleeren":6519,"penst":6520,"ĠGesundheit":6521,"ku":6522,"Ġerblickte":6523,"ĠDumm":6524,"ĠhÃ¶flich":6525,"Ġstrich":6526,"Gest":6527,"innung":6528,"ĠStufen":6529,"nahmen":6530,"Kir":6531,"Ġrund":6532,"ĠOfen":6533,"ĠvergaÃŁ":6534,"tuch":6535,"achs":6536,"Pol":6537,"dachte":6538,"Ġsowie":6539,"ĠAuÃŁer":6540,"Ġsowohl":6541,"ĠArch":6542,"ĠFreunden":6543,"ĠReisenden":6544,"ĠDampfer":6545,"Ġschicken":6546,"Ġbegannen":6547,"Ġversprochen":6548,"echnet":6549,"ĠStellen":6550,"ĠMonaten":6551,"ĠOffiziere":6552,"sterreich":6553,"rus":6554,"sern":6555,"Ġmar":6556,"Ġfle":6557,"ĠHÃ¶hle":6558,"ĠRÃ¼ckkehr":6559,"ĠMartin":6560,"ĠIngenieur":6561,"sitzen":6562,"Ġdergleichen":6563,"ĠPist":6564,"woll":6565,"Ġmu":6566,"ungl":6567,"Ġstammelte":6568,"Ã¤llig":6569,"low":6570,"ustav":6571,"schreiten":6572,"ĠDoll":6573,"rauf":6574,"ĠSchwieger":6575,"ĠMax":6576,"Ġwohnte":6577,"ĠGruÃŁ":6578,"ĠAnspruch":6579,"Bar":6580,"gaben":6581,"ĠSchmerzen":6582,"ĠStÃ¤":6583,"Ġdeutete":6584,"Vers":6585,"drungen":6586,"Ġbefahl":6587,"igtausend":6588,"tÃ¼":6589,"wuÃŁte":6590,"Ġneugierig":6591,"Ġharm":6592,"ĠHannes":6593,"seligen":6594,"ĠplÃ¶tz":6595,"ĠheiÃŁe":6596,"ĠEile":6597,"ĠAmerika":6598,"Em":6599,"ĠReu":6600,"Ġberuhigen":6601,"Ã¼gt":6602,"Ġminder":6603,"ĠSeuf":6604,"ĠMaul":6605,"Ġstecken":6606,"Jawohl":6607,"ĠGeschÃ¤fte":6608,"Ru":6609,"aner":6610,"ĠKinn":6611,"Ġsollt":6612,"ĠAufgabe":6613,"ĠAngriff":6614,"ĠHoll":6615,"rack":6616,"ĠVorder":6617,"Ġbegleitet":6618,"eibe":6619,"estern":6620,"Ġsogen":6621,"selig":6622,"Geb":6623,"Ġverdient":6624,"lÃ¤ssig":6625,"Ġaugenblick":6626,"uar":6627,"einz":6628,"gep":6629,"ordnung":6630,"ĠWall":6631,"Ġliebsten":6632,"Hel":6633,"ĠSeemann":6634,"erm":6635,"Ġuf":6636,"ĠKeller":6637,"Ġschimmer":6638,"Ġbeunruh":6639,"krÃ¤n":6640,"Ġelf":6641,"Ġerheben":6642,"iebte":6643,"Ã¶mm":6644,"halte":6645,"Ġgehol":6646,"ĠInhalt":6647,"Ġbrannte":6648,"ĠAmt":6649,"ĠAbbÃ©":6650,"Ġsuchten":6651,"Ġfrug":6652,"Ġschein":6653,"otten":6654,"Ġentdeckt":6655,"Ġfreute":6656,"hÃ¤ng":6657,"uern":6658,"ĠBedÃ¼rf":6659,"Ã¤hn":6660,"fÃ¼hrt":6661,"ĠAbenteuer":6662,"ĠWiesen":6663,"groÃŁe":6664,"irgends":6665,"eifer":6666,"ĠFuÃŁe":6667,"Ã¤mt":6668,"dlichen":6669,"anischen":6670,"Ġberau":6671,"ĠRoÃŁ":6672,"Lebens":6673,"Ġwander":6674,"ĠWeis":6675,"springen":6676,"ĠfÃ¼nfzehn":6677,"ĠJuden":6678,"gangenheit":6679,"Haupt":6680,"kÃ¼n":6681,"ĠSehen":6682,"Ġdirekt":6683,"?âĢ¹":6684,"wehr":6685,"Ġbar":6686,"ĠLieber":6687,"ines":6688,"Ã¶lk":6689,"Leute":6690,"lehnt":6691,"Ġgestr":6692,"Ġgelben":6693,"ĠFÃ¼rstin":6694,"fand":6695,"ĠVerkehr":6696,"itischen":6697,"ĠAlex":6698,"usk":6699,"eidung":6700,"fle":6701,"gekehrt":6702,"ĠAuftrag":6703,"Ġordentlich":6704,"helm":6705,"Ġvergeblich":6706,"Ġstud":6707,"sinnig":6708,"Pr":6709,"!...":6710,"laubte":6711,"usses":6712,"Mon":6713,"Ġaufrecht":6714,"klagen":6715,"Ġeigenes":6716,"Ġstarb":6717,"ĠschoÃŁ":6718,"rufen":6719,"ellenz":6720,"Ġunruhig":6721,"reicher":6722,"zustellen":6723,"Ã¤men":6724,"ĠHeu":6725,"ĠverkÃ¼":6726,"ĠVÃ¶gel":6727,"Ġgleichzeitig":6728,"Ġschneller":6729,"ĠSmith":6730,"Ġerle":6731,"ĠtÃ¼cht":6732,"Ġwendete":6733,"treff":6734,"Hat":6735,"ĠKerk":6736,"Ġverlangte":6737,"eten":6738,"Ġangesehen":6739,"Ġarg":6740,"Ġbesondere":6741,"ĠGeschen":6742,"Ġgezeigt":6743,"ĠBewohner":6744,"liegt":6745,"ĠAussehen":6746,"geborenen":6747,"chtes":6748,"Ã¼gel":6749,"Ã¤ll":6750,"irte":6751,"Ġentstand":6752,"ĠAusgang":6753,"haufen":6754,"ĠLeiche":6755,"ĠVerhÃ¤ltnisse":6756,"ĠFriedrich":6757,"Ġgleiche":6758,"part":6759,"uldigen":6760,"ĠMilch":6761,"ilosoph":6762,"ĠTats":6763,"Ġaltes":6764,"ĠHat":6765,"ĠNov":6766,"licherweise":6767,"dorf":6768,"zeiten":6769,"Ġfester":6770,"Ġwoher":6771,"Ġwuchs":6772,"locken":6773,"drÃ¤ngt":6774,"ĠLehrer":6775,"ĠBeinen":6776,"gewachsen":6777,"ĠTropfen":6778,"ĠMehr":6779,"trieben":6780,"ĠZeitungen":6781,"ĠTee":6782,"ĠrÃ¼hrte":6783,"geist":6784,"verlassen":6785,"ĠBericht":6786,"Ġ4":6787,"ĠGegner":6788,"ĠSpitz":6789,"ĠkÃ¶st":6790,"Ġwarst":6791,"ĠHarry":6792,"ĠMonat":6793,"ĠÃľbrigens":6794,"hig":6795,"Ġ5":6796,"armen":6797,"ussen":6798,"feuer":6799,"tasche":6800,"lichste":6801,"Ġumgeben":6802,"ĠMarkt":6803,"Ġwahrhaftig":6804,"ĠAngelegenheit":6805,"ĠMerk":6806,"fÃ¤lle":6807,"wes":6808,"muÃŁ":6809,"Ã¼nde":6810,"Ġsolchem":6811,"wege":6812,"Ġewigen":6813,"Ġsolange":6814,"Ġkurzem":6815,"ĠÃ¤rgerlich":6816,"Ġhu":6817,"Ġanfangen":6818,"iete":6819,"ĠLeibe":6820,"ĠLucien":6821,"kind":6822,"not":6823,"ĠFischer":6824,"Ġgewisser":6825,"ĠTrauer":6826,"ĠgewÃ¶hnlichen":6827,"Ġdrohte":6828,"Ġschlie":6829,"ĠJames":6830,"Ã¤chsten":6831,"ĠWeiter":6832,"ikel":6833,"ĠGran":6834,"ĠAndere":6835,"ĠHorizont":6836,"entr":6837,"Ġbegreifen":6838,"ĠGruppe":6839,"letzten":6840,"mmel":6841,"ĠsorgfÃ¤ltig":6842,"HÃ¶":6843,"rig":6844,"Ã¼hlt":6845,"geschm":6846,"getan":6847,"LaÃŁ":6848,"Ġwahren":6849,"ĠSen":6850,"une":6851,"ĠkÃ¶nig":6852,"sprÃ¼":6853,"ĠWeges":6854,"ĠGemahl":6855,"tum":6856,"Ġselben":6857,"samer":6858,"ĠDienste":6859,"ĠerklÃ¤rt":6860,"geheim":6861,"ĠSatz":6862,"ĠPreuÃŁ":6863,"iste":6864,"Ġgefolgt":6865,"Ġlebe":6866,"ĠWiderstand":6867,"ember":6868,"Schul":6869,"ĠGedÃ¤chtnis":6870,"Ġengen":6871,"gru":6872,"Ã¤ser":6873,"ument":6874,"Ġschluch":6875,"ĠReihenfels":6876,"ĠBeute":6877,"marsch":6878,"KÃ¶nig":6879,"Kinder":6880,"mat":6881,"Ġsinken":6882,"Mich":6883,"hob":6884,"aglich":6885,"ĠBeob":6886,"Ġbegeben":6887,"verst":6888,"Ġzerrissen":6889,"wurden":6890,"kretÃ¤r":6891,"ĠSchreibtisch":6892,"Ġzier":6893,"ĠÃ¼berlegen":6894,"ĠGutes":6895,"ĠKnecht":6896,"ĠGattin":6897,"ĠstÃ¶ren":6898,"Ġbeiseite":6899,"ĠfranzÃ¶sischen":6900,"ĠPrÃ¤siden":6901,"ĠTerr":6902,"Ġres":6903,"damit":6904,"tat":6905,"ĠRitt":6906,"Ġweich":6907,"stert":6908,"wandte":6909,"Ġverdamm":6910,"Ġunbed":6911,"ĠKommand":6912,"De":6913,"kol":6914,"Ġkalten":6915,"Ġdavor":6916,"ĠEinfluÃŁ":6917,"Ġfragt":6918,"pften":6919,"gestalt":6920,"ĠHelm":6921,"ĠTepp":6922,"Ġatmete":6923,"Ã¤sten":6924,"glÃ¤n":6925,"ĠDarum":6926,"ĠUnrecht":6927,"ĠNerven":6928,"ĠMed":6929,"ĠBro":6930,"Ġtoten":6931,"riften":6932,"apole":6933,"meiner":6934,"Ġunsicht":6935,"ĠRechten":6936,"ĠRue":6937,"frem":6938,"orbenen":6939,"fro":6940,"ĠkÃ¤m":6941,"ĠGeschick":6942,"Ġjunges":6943,"Ur":6944,"oy":6945,"Ġliefen":6946,"ĠgehÃ¶ren":6947,"ettung":6948,"decke":6949,"ĠpersÃ¶nlich":6950,"Ġknie":6951,"Ġallerhand":6952,"stoÃŁ":6953,"ĠSonst":6954,"stelle":6955,"prungen":6956,"Ġbeobachten":6957,"ĠFrÃ¼hling":6958,"Ġvoran":6959,"achteten":6960,"Ġerwachte":6961,"recke":6962,"ĠEuropa":6963,"fred":6964,"Ġ.Â«":6965,"herum":6966,"ĠGeduld":6967,"ĠSattel":6968,"gelangt":6969,"ĠNatÃ¼rlich":6970,"Ġarmer":6971,"ĠMenschheit":6972,"ĠKellner":6973,"ĠLange":6974,"chenkt":6975,"Ġgold":6976,"ends":6977,"ĠJahrhundert":6978,"FrÃ¼":6979,"langen":6980,"orenz":6981,"ĠGeburt":6982,"Sind":6983,"Ġsauber":6984,"ĠgÃ¤nzlich":6985,"ĠBande":6986,"ĠNarr":6987,"Ġdurchs":6988,"ima":6989,"Ġverbrei":6990,"ĠEtwas":6991,"ĠTu":6992,"deckung":6993,"Th":6994,"heute":6995,"Ġerreichte":6996,"ĠBÃ¶":6997,"ĠAmts":6998,"ĠGeistes":6999,"ĠGreis":7000,"ĠNachdem":7001,"aise":7002,"Ġbreite":7003,"hing":7004,"emand":7005,"Ġdaheim":7006,"Ġversprach":7007,"Ġunauf":7008,"euchen":7009,"Ġferner":7010,"ĠverrÃ¼ckt":7011,"tor":7012,"eiÃŁ":7013,"ĠEntw":7014,"dlich":7015,"ĠWÃ¤nden":7016,"lers":7017,"ÃĦ":7018,"ĠBach":7019,"ĠlaÃŁt":7020,"ĠWirts":7021,"Do":7022,"ĠVieh":7023,"aÃŁe":7024,"ĠspÃ¶tt":7025,"ĠPfeife":7026,"Sehr":7027,"Ġsenkte":7028,"ĠSchleier":7029,"ĠRuÃŁland":7030,"ĠDavid":7031,"ĠRuhm":7032,"ĠBrig":7033,"ĠHÃ¤upt":7034,"Ġarbeitete":7035,"ĠDÃ¶r":7036,"ĠEsel":7037,"errt":7038,"wiegen":7039,"wurf":7040,"eigentlich":7041,"nal":7042,"Ġunmittel":7043,"ĠArbeiten":7044,"Ġgefahren":7045,"mÃ¤ÃŁigen":7046,"witz":7047,"ĠMasse":7048,"richtet":7049,"Ġblaue":7050,"ĠRegiment":7051,"ankt":7052,"SchÃ¶n":7053,"Ġhandelte":7054,"ĠBeweis":7055,"ĠFlur":7056,"Ġfurchtbaren":7057,"Ã¼rz":7058,"ĠAnzahl":7059,"âĶģâĶģâĶģâĶģâĶģâĶģ":7060,"Ġgeringste":7061,"ĠMos":7062,"Ġherz":7063,"ala":7064,"ĠVal":7065,"ĠGeliebten":7066,"Ġbefest":7067,"Ġerz":7068,"komme":7069,"ĠTreppen":7070,"ikaner":7071,"berge":7072,"urra":7073,"amb":7074,"ĠInst":7075,"Ã©e":7076,"Ġungeduldig":7077,"ĠmÃ¤chtig":7078,"Ġscheinen":7079,"âĶģâĶģâĶģâĶģâĶģâĶģâĶģ":7080,"Ġriefen":7081,"fragte":7082,"zusetzen":7083,"aÃŁten":7084,"ĠKohlen":7085,"geschichte":7086,"Ġleuchtete":7087,"ĠKra":7088,"ĠVorschlag":7089,"Ġverlangt":7090,"Ġeinzelne":7091,"ĠerrÃ¶":7092,"Ġvierzig":7093,"ĠHelden":7094,"Ġwich":7095,"Ġvornehmen":7096,"ney":7097,"Ġgesucht":7098,"kanntschaft":7099,"Ġneigte":7100,"ĠMet":7101,"Ġgeschieht":7102,"lÃ¤ch":7103,"ĠSchaden":7104,"ĠSpuren":7105,"ĠVorsicht":7106,"ifft":7107,"Ġhoffte":7108,"erklÃ¤r":7109,"ittes":7110,"ĠWaffe":7111,"Ġscharfen":7112,"go":7113,"ĠOst":7114,"ĠHerrschaft":7115,"ĠGesang":7116,"ienten":7117,"ĠEinige":7118,"ĠUntersuch":7119,"Ġbraunen":7120,"richter":7121,"ĠAmbros":7122,"dah":7123,"enz":7124,"ĠauÃŁerdem":7125,"fÃ¶rm":7126,"hre":7127,"hner":7128,"Ġgeringsten":7129,"Ġwomit":7130,"Ġruft":7131,"lÃ¶":7132,"Ġlachten":7133,"leiden":7134,"neben":7135,"Ġirr":7136,"fÃ¤ll":7137,"sammlung":7138,"Ġentweder":7139,"pur":7140,"verr":7141,"olken":7142,"ĠbetrÃ¼":7143,"Ġemp":7144,"kÃ¶nnte":7145,"ĠEmpfang":7146,"urop":7147,"Ġbegraben":7148,"Ġschlechte":7149,"Ã¤sser":7150,"haftes":7151,"denke":7152,"ĠVeran":7153,"ohnten":7154,"Ġlangweil":7155,"Ġglaub":7156,"Ġbewegt":7157,"ags":7158,"Je":7159,"ville":7160,"Ġgelebt":7161,"Ġunaus":7162,"onna":7163,"ĠmÃ¶glichst":7164,"ĠTelegra":7165,"Ġwahre":7166,"ĠWitwe":7167,"ÃŁlich":7168,"andte":7169,"ĠRein":7170,"hmt":7171,"ĠMarsch":7172,"âĶģâĶģâĶģâĶģâĶģâĶģâĶģâĶģâĶģâĶģâĶģâĶģâĶģâĶģâĶģ":7173,"fried":7174,"ĠBischof":7175,"zufrieden":7176,"artier":7177,"ĠFreilich":7178,"ĠdÃ¼rfte":7179,"ĠhÃ¶chste":7180,"ĠAnstrengung":7181,"ĠAufenthalt":7182,"aufe":7183,"ĠHeer":7184,"Ġmy":7185,"digung":7186,"ĠTÃ¼ren":7187,"kor":7188,"ĠPauline":7189,"arina":7190,"Ġeinsamen":7191,"unbe":7192,"ĠGelÃ¤chter":7193,"Ġschwerer":7194,"Ġjetz":7195,"Ġimmerhin":7196,"ahmen":7197,"dung":7198,"gelten":7199,"ĠgefÃ¤llt":7200,"Ġgelungen":7201,"mittags":7202,"dÃ¼r":7203,"Ġmeist":7204,"Ã¤uschen":7205,"ordet":7206,"ĠGrenze":7207,"ĠzÃ¶gerte":7208,"ĠHitze":7209,"uldigung":7210,"ĠHeirat":7211,"Bitte":7212,"ĠverÃ¤cht":7213,"unddreiÃŁig":7214,"chtigkeit":7215,"edet":7216,"schlÃ¤ge":7217,"Ġdrinnen":7218,"utenant":7219,"ĠKarte":7220,"Ã¼ter":7221,"Ġleiser":7222,"ĠHaup":7223,"Ġsicherlich":7224,"ĠAuto":7225,"Ġbegegnete":7226,"artet":7227,"Ġversehen":7228,"Ġmeinst":7229,"ĠhÃ¤ttest":7230,"Ġbetreten":7231,"ĠGebÃ¤ude":7232,"Ġangekommen":7233,"ĠmÃ¼hsam":7234,"FrÃ¤ulein":7235,"MÃ¶":7236,"ĠMÃ¼tze":7237,"ĠÃ¼berr":7238,"Ġwelch":7239,"ĠerschÃ¼tter":7240,"Ġhoffen":7241,"wÃ¼rden":7242,"ĠGenossen":7243,"andelt":7244,"ĠSpe":7245,"Ġbegrei":7246,"ĠSegen":7247,"Ohne":7248,"Ġsetzt":7249,"Ġschlau":7250,"Ã¼rtel":7251,"Ġbrachten":7252,"met":7253,"pern":7254,"Ġwisse":7255,"Franz":7256,"Ġergeben":7257,"Ġrichten":7258,"ĠhÃ¼bsche":7259,"ĠKleidung":7260,"wick":7261,"Ġdritte":7262,"ĠLinie":7263,"ĠVerwandten":7264,"ĠGewohnheit":7265,"Rei":7266,"Ġmunter":7267,"gehenden":7268,"Ġeinziger":7269,"Ġschrecklich":7270,"ĠblÃ¼hen":7271,"agan":7272,"Ġleises":7273,"kleine":7274,"ĠStrafe":7275,"Ġverlangen":7276,"zeichnete":7277,"ĠVerhÃ¤ltnis":7278,"ĠKutscher":7279,"mÃ¤chtig":7280,"zeÃŁ":7281,"?!":7282,"Ã¼stet":7283,"alie":7284,"blÃ¶":7285,"Ġord":7286,"ĠauÃŁen":7287,"ĠTreue":7288,"Ġbesitzen":7289,"schÃ¼":7290,"ĠFlederwisch":7291,"Ġehemal":7292,"liebten":7293,"Ġvermag":7294,"ĠBeding":7295,"Ã¤uschung":7296,"Ġverschiedene":7297,"Ġhelle":7298,"ĠSchild":7299,"ĠmÃ¼ÃŁt":7300,"Ġseltsamen":7301,"ndung":7302,"Ġflat":7303,"ĠKuÃŁ":7304,"Ġung":7305,"alls":7306,"ĠkrÃ¤ftig":7307,"Ġpassen":7308,"Ġbegonnen":7309,"ĠAlb":7310,"Ġruhiger":7311,"ĠSerge":7312,"Ġgezwungen":7313,"Ġvorstellen":7314,"Ġbesorgt":7315,"Ġgerufen":7316,"Ġbeobachtet":7317,"ĠWicht":7318,"Ã¶rte":7319,"Ġgefiel":7320,"âĶģâĶģâĶģâĶģâĶģâĶģâĶģâĶģâĶģâĶģâĶģâĶģâĶģâĶģâĶģâĶģâĶģâĶģâĶģâĶģâĶģâĶģâĶģâĶģâĶģâĶģâĶģâĶģâĶģâĶģâĶģâĶģâĶģâĶģâĶģâĶģâĶģâĶģâĶģâĶģâĶģâĶģâĶģâĶģâĶģâĶģâĶģâĶģâĶģâĶģâĶģâĶģâĶģâĶģâĶģâĶģâĶģâĶģâĶģâĶģâĶģâĶģâĶģâĶģ":7321,"Ġma":7322,"Ġoffene":7323,"Ġfeierlich":7324,"ĠGrÃ¼n":7325,"Ġbezahlen":7326,"Ġbildeten":7327,"ĠNeigung":7328,"ĠKoenig":7329,"âĶģâĶģâĶģâĶģâĶģâĶģâĶģâĶģâĶģâĶģâĶģâĶģâĶģâĶģâĶģâĶģâĶģâĶģâĶģâĶģâĶģâĶģâĶģâĶģâĶģâĶģâĶģâĶģâĶģâĶģâĶģâĶģâĶģâĶģâĶģâĶģâĶģâĶģâĶģâĶģâĶģâĶģâĶģâĶģâĶģâĶģâĶģâĶģâĶģâĶģâĶģâĶģâĶģâĶģâĶģâĶģâĶģâĶģâĶģâĶģâĶģâĶģâĶģâĶģâĶģâĶģâĶģâĶģâĶģâĶģâĶģâĶģâĶģâĶģâĶģâĶģâĶģâĶģâĶģ":7330,"lington":7331,"ule":7332,"ĠSy":7333,"Ġreisen":7334,"Ġumsonst":7335,"geduld":7336,"ĠPublik":7337,"stock":7338,"treiben":7339,"Ġentscheiden":7340,"ĠPlÃ¤ne":7341,"Ġrichtige":7342,"ĠgrÃ¶ÃŁere":7343,"ĠKehle":7344,"ata":7345,"ĠJunker":7346,"Ġerfol":7347,"ĠbeschloÃŁ":7348,"ĠunglÃ¼cklichen":7349,"hÃ¶rt":7350,"regen":7351,"Ġstein":7352,"Ġdul":7353,"ĠKoffer":7354,"Ġverbunden":7355,"richtig":7356,"Ġertragen":7357,"Ġbegleitete":7358,"Ã¤rtlichkeit":7359,"nungs":7360,"ĠGute":7361,"ĠschÃ¶nsten":7362,"Ġohn":7363,"umph":7364,"Ġeh":7365,"Geld":7366,"ĠDorfe":7367,"Ġhie":7368,"ĠIhm":7369,"ĠNew":7370,"Ġvergebens":7371,"Ġaufgeregt":7372,"KapitÃ¤n":7373,"ĠGab":7374,"indert":7375,"ĠHob":7376,"ĠFeu":7377,"ĠÃ¼berlassen":7378,"Ġunsrer":7379,"ĠKommen":7380,"ehre":7381,"aufte":7382,"echan":7383,"ĠVolkes":7384,"ĠEbene":7385,"fertig":7386,"erste":7387,"eige":7388,"Ġbrechen":7389,"Ġzuzu":7390,"ĠDam":7391,"ĠTar":7392,"ĠGep":7393,"ĠBoote":7394,"Ġkommst":7395,"ĠGemeinde":7396,"ĠSchmuck":7397,"ĠSoldat":7398,"Ġbog":7399,"elnden":7400,"elektr":7401,"ĠunglÃ¼cklich":7402,"Ġtauchte":7403,"ĠSind":7404,"schenden":7405,"ganze":7406,"ĠBahnhof":7407,"ĠSzene":7408,"ĠertÃ¶n":7409,"ĠRob":7410,"ĠÃ¼berlegte":7411,"hausen":7412,"ĠUmstÃ¤nde":7413,"ĠIndier":7414,"Ġmerken":7415,"ĠAs":7416,"ĠVerfol":7417,"Ġgewann":7418,"volles":7419,"ĠGebÃ¤r":7420,"Ġversicherte":7421,"ĠWag":7422,"bell":7423,"ĠVerk":7424,"Ġgleicher":7425,"Ġdaneben":7426,"keinen":7427,"emen":7428,"Ġsoweit":7429,"ĠMylord":7430,"Ġlock":7431,"ĠKoll":7432,"Ġtrenn":7433,"ĠhÃ¶chstens":7434,"Ġdankbar":7435,"auÃŁer":7436,"ĠFal":7437,"Ã¤nken":7438,"Ġeinzig":7439,"ummte":7440,"wunder":7441,"ĠSamm":7442,"Ġaufgenommen":7443,"esche":7444,"ĠFolgen":7445,"ĠBemerkung":7446,"Drei":7447,"ĠStaunen":7448,"ĠfÃ¼hrten":7449,"Ġbenach":7450,"Ġhern":7451,"ĠSpitzen":7452,"ĠSchneider":7453,"Ueber":7454,"ĠStÃ¼cke":7455,"Ġgeriet":7456,"ĠWerke":7457,"Ġeintreten":7458,"ĠLichter":7459,"Ġseltsame":7460,"stimmen":7461,"Ġbilden":7462,"Ġgekannt":7463,"gegenÃ¼ber":7464,"ĠArmee":7465,"ĠDep":7466,"ĠEmpfindung":7467,"ĠFÃ¶r":7468,"ĠfortwÃ¤hrend":7469,"Unser":7470,"ĠSterben":7471,"Ġworin":7472,"ĠSchlosse":7473,"bs":7474,"hende":7475,"saal":7476,"Ġheiser":7477,"Ġzeigt":7478,"Ġpassiert":7479,"Wort":7480,"iÃ¨":7481,"âĢ¹.":7482,"nes":7483,"ĠSofa":7484,"arbeiten":7485,"ĠRande":7486,"Neu":7487,"ĠKarten":7488,"Ġverpf":7489,"sahen":7490,"Ġwiederholt":7491,"Damit":7492,"dabei":7493,"yt":7494,"insel":7495,"ĠLam":7496,"Ġenerg":7497,"asser":7498,"use":7499,"ĠÃ¼bern":7500,"Hinter":7501,"hÃ¤nge":7502,"Ġunterst":7503,"Ġgesessen":7504,"Ġbestimmten":7505,"Ġfeind":7506,"wahrscheinlich":7507,"ĠberÃ¼hmten":7508,"ĠHemd":7509,"ikles":7510,"illon":7511,"hast":7512,"Ġsteckt":7513,"ziehungen":7514,"Ġquer":7515,"iam":7516,"nacht":7517,"ĠHatte":7518,"ĠGustav":7519,"ĠWollen":7520,"zuge":7521,"ĠWeibe":7522,"imml":7523,"arvan":7524,"onte":7525,"usine":7526,"laster":7527,"Ġbesonderen":7528,"ĠBescheid":7529,"ĠSinnen":7530,"ĠWink":7531,"derten":7532,"ĠVerein":7533,"ĠRuder":7534,"ĠZeugen":7535,"ĠLÃ¤nge":7536,"ĠRÃ¤":7537,"ĠVan":7538,"Ġweiteren":7539,"ĠCharles":7540,"gibt":7541,"ĠServ":7542,"arbeit":7543,"Ġvernehmen":7544,"ĠCou":7545,"rifft":7546,"ĠPariser":7547,"Ġblickten":7548,"ĠerfÃ¼llen":7549,"Recht":7550,"ĠDÃ¼":7551,"ĠAbreise":7552,"Ġkeineswegs":7553,"Hause":7554,"ĠWalter":7555,"gestiegen":7556,"Ã¼stung":7557,"ĠHÃ¤usern":7558,"Ã¤rten":7559,"Ġmeldete":7560,"Ġbezahlt":7561,"ĠNummer":7562,"hell":7563,"lesen":7564,"ĠQual":7565,"grÃ¤":7566,"schung":7567,"ĠkÃ¼n":7568,"glÃ¼":7569,"ĠDuft":7570,"Ġgez":7571,"rab":7572,"ĠChristian":7573,"lassung":7574,"Ġdanken":7575,"Ġtu":7576,"erkennen":7577,"Ġgemeint":7578,"sÃ¤chlich":7579,"ĠFried":7580,"Ġschweigen":7581,"gesucht":7582,"'m":7583,"Wissen":7584,"glauben":7585,"gedacht":7586,"ĠLang":7587,"ĠungewÃ¶hn":7588,"halter":7589,"ĠGebet":7590,"up":7591,"ĠKanz":7592,"anda":7593,"Ġweiteres":7594,"eignet":7595,"Famil":7596,"Ġor":7597,"Ġtue":7598,"ĠSchiffes":7599,"ĠEmil":7600,"wartung":7601,"erem":7602,"aud":7603,"abeth":7604,"Dieses":7605,"Ġbleibe":7606,"ĠWinde":7607,"ĠnÃ¤cht":7608,"ĠKette":7609,"arrt":7610,"Ġreiche":7611,"Ġmenschlichen":7612,"ĠWechsel":7613,"ĠWahnsinn":7614,"ĠschÃ¼tzen":7615,"ĠVi":7616,"Ġstimmte":7617,"Ġdreimal":7618,"napp":7619,"ganzen":7620,"ladung":7621,"ĠMary":7622,"eisterung":7623,"sta":7624,"ini":7625,"ĠtatsÃ¤chlich":7626,"sonder":7627,"Ġahnte":7628,"still":7629,"ĠÃ¤ndern":7630,"Ġmor":7631,"Ġschmutz":7632,"ĠtÃ¶d":7633,"ĠKost":7634,"Ġgewaltigen":7635,"lÃ¤nd":7636,"ĠFir":7637,"ĠHosen":7638,"unkeln":7639,"wenigstens":7640,"Jahr":7641,"ĠnÃ¼t":7642,"Ġzeit":7643,"ĠTart":7644,"ĠtÃ¤t":7645,"beste":7646,"ĠExp":7647,"ĠRevolver":7648,"reppe":7649,"Freilich":7650,"Reg":7651,"atzen":7652,"herein":7653,"ome":7654,"ĠBesser":7655,"boten":7656,"ĠZÃ¤hnen":7657,"MiÃŁ":7658,"schungen":7659,"aler":7660,"ĠFÃ¤u":7661,"ehrer":7662,"Ġsonderbar":7663,"Ġsieh":7664,"geladen":7665,"Ġindes":7666,"okrat":7667,"ĠKissen":7668,"Ã¼rt":7669,"ĠJes":7670,"Par":7671,"Ġsucht":7672,"ĠtÃ¶n":7673,"Ġmanchen":7674,"drein":7675,"ĠWÃ¤rme":7676,"Ġlitt":7677,"undes":7678,"enner":7679,"Ġgewohnt":7680,"ĠKleinen":7681,"Halt":7682,"Ġansehen":7683,"Ġanfangs":7684,"eitausend":7685,"ĠSchur":7686,"ĠScherz":7687,"vergessen":7688,"Ġbegegnet":7689,"ĠZurÃ¼ck":7690,"ĠwiÃŁt":7691,"stoÃŁen":7692,"ĠSchlÃ¤":7693,"Ġanzusehen":7694,"iumph":7695,"ĠLÃ¶wen":7696,"let":7697,"ĠStirne":7698,"kammer":7699,"Ġhilf":7700,"Ġharten":7701,"ĠVic":7702,"ĠStoÃŁ":7703,"ĠKamin":7704,"Ġerlebt":7705,"ĠHorn":7706,"ĠWest":7707,"Ġbunten":7708,"ĠSollte":7709,"asia":7710,"isabeth":7711,"ĠVergangenheit":7712,"schaute":7713,"swer":7714,"Ġfurchtbare":7715,"Ġgespielt":7716,"ĠhÃ¤ngt":7717,"bereitet":7718,"ĠfÃ¤hrt":7719,"ĠVerschw":7720,"osse":7721,"Ġgerei":7722,"ĠGlen":7723,"ĠKommiss":7724,"ĠLor":7725,"olen":7726,"auernd":7727,"ĠfÃ¼hlt":7728,"ĠSohnes":7729,"ĠHeide":7730,"ĠSeufzer":7731,"bieten":7732,"vÃ¶lker":7733,"beam":7734,"bekommen":7735,"ĠBesonder":7736,"Wirklich":7737,"Ġheller":7738,"sig":7739,"erikan":7740,"ĠKlang":7741,"ĠFehler":7742,"Krie":7743,"bett":7744,"dest":7745,"wa":7746,"Ã¤uÃŁ":7747,"ĠHÃ¶lle":7748,"ĠJoseph":7749,"Char":7750,"Ġbefrei":7751,"Ġfreuen":7752,"Ġungeheure":7753,"zzio":7754,"ĠLÃ¤":7755,"ĠvorlÃ¤ufig":7756,"ĠOffen":7757,"ĠErfahrung":7758,"osph":7759,"ĠDazu":7760,"ui":7761,"ĠBÃ¤ren":7762,"ĠTom":7763,"legung":7764,"ĠVertrau":7765,"Ġfreie":7766,"Euch":7767,"dro":7768,"orie":7769,"Ġvortreff":7770,"ĠClau":7771,"Ġsprich":7772,"sy":7773,"Ġungest":7774,"Ġedlen":7775,"burger":7776,"gu":7777,"ĠDamit":7778,"itterte":7779,"ĠSchwarz":7780,"Bis":7781,"Ġmo":7782,"ona":7783,"ĠBenehmen":7784,"ĠHandel":7785,"Ġhandeln":7786,"gliche":7787,"ingel":7788,"ĠScham":7789,"Ġbetrat":7790,"Ġgebunden":7791,"Ġeind":7792,"Ġgekleidet":7793,"ĠIndien":7794,"Ġehrlich":7795,"gewiÃŁ":7796,"Ġgelten":7797,"ĠLeiter":7798,"Frauen":7799,"ĠGehirn":7800,"ĠLos":7801,"verschw":7802,"ĠSpott":7803,"ĠsÃ¼ÃŁ":7804,"blo":7805,"fragen":7806,"Ġeingesch":7807,"ola":7808,"ĠBrunnen":7809,"Herzen":7810,"ĠLohn":7811,"Ġfrische":7812,"hofe":7813,"Ġglitt":7814,"ĠGrad":7815,"ĠPapiere":7816,"ĠRoman":7817,"Ġdringen":7818,"Ġschlimmer":7819,"ĠpreÃŁte":7820,"wÃ¤l":7821,"ĠWunde":7822,"Ġweitem":7823,"ĠbetÃ¤u":7824,"darÃ¼ber":7825,"ĠGriff":7826,"stel":7827,"Gef":7828,"antworten":7829,"Immer":7830,"sburg":7831,"Ġzuviel":7832,"ĠGou":7833,"Ġreiten":7834,"Ġnotwendig":7835,"Pap":7836,"Wollen":7837,"ichtes":7838,"ĠPater":7839,"lande":7840,"ĠMÃ¶nch":7841,"Ġmindestens":7842,"zellenz":7843,"attete":7844,"Ã¤nke":7845,"Ġbefinden":7846,"Ġunterbrochen":7847,"ivil":7848,"wirrung":7849,"ĠSeiden":7850,"ĠHaustÃ¼r":7851,"Ġschlechter":7852,"azieren":7853,"ĠVerbrecher":7854,"ĠUnterredung":7855,"antwortet":7856,"hes":7857,"ĠmÃ¤nn":7858,"liebte":7859,"aufzu":7860,"werke":7861,"ĠĠĠĠĠĠĠ":7862,"Ġbedeutet":7863,"Ġbegegnen":7864,".,":7865,"ĠEugen":7866,"Ġpar":7867,"Ġdichten":7868,"ĠSÃ¤nger":7869,"Ġtritt":7870,"selte":7871,"Ġgegenseit":7872,"amentlich":7873,"Pfer":7874,"krie":7875,"logen":7876,"steh":7877,"ĠThor":7878,"Eigen":7879,"Ġfeine":7880,"Ġjugend":7881,"dring":7882,"Ġfehlen":7883,"Johann":7884,"bÃ¼rger":7885,"ĠSchlieÃŁlich":7886,"Ġfeier":7887,"ĠBusch":7888,"ĠgefÃ¤hrlich":7889,"Ġnimm":7890,"Ġnahen":7891,"gestoÃŁen":7892,"ĠÃ¤uÃŁerst":7893,"gebe":7894,"ĠKann":7895,"Ġdrein":7896,"ĠKasten":7897,"ĠKnochen":7898,"ĠhÃ¼bschen":7899,"Ġgsi":7900,"ĠGordon":7901,"arry":7902,"geiz":7903,"ĠAbst":7904,"ĠGre":7905,"Ġtrei":7906,"ĠHaaren":7907,"ĠwÃ¼nsche":7908,"StraÃŁe":7909,"fig":7910,"chn":7911,"ĠPrÃ¼":7912,"ĠWeibes":7913,"bli":7914,"ĠUrteil":7915,"eidigung":7916,"ĠliebenswÃ¼rdig":7917,"ĠRechnung":7918,"ĠauÃŁerordentlich":7919,"Christ":7920,"band":7921,"Ġersp":7922,"schlafen":7923,"zeichnen":7924,"Ġwunderbar":7925,"vierzig":7926,"ĠWille":7927,"ĠStÃ¤r":7928,"ĠMarquis":7929,"Ġflei":7930,"ĠHart":7931,"Ġscher":7932,"Ġverbar":7933,"ĠNab":7934,"etztes":7935,"ĠGlut":7936,"Ġfalsch":7937,"ĠLaufe":7938,"Ġerleich":7939,"impf":7940,"inte":7941,"ĠDur":7942,"ĠNation":7943,"Ġimstande":7944,"Schr":7945,"Ġversunken":7946,"ĠMonsieur":7947,"ĠvergnÃ¼gt":7948,"Tage":7949,"einige":7950,"ĠAh":7951,"ĠFil":7952,"ĠSchwÃ¤che":7953,"Heute":7954,"Ġeintrat":7955,"othek":7956,"ĠAngel":7957,"Ġerscheint":7958,"ĠEt":7959,"ĠSchnurr":7960,"Min":7961,"ĠMannschaft":7962,"antin":7963,"Ġehren":7964,"Ġgrimm":7965,"Ġdrauf":7966,"ĠSoll":7967,"ĠBell":7968,"fÃ¼gung":7969,"ĠDiam":7970,"ĠGlocken":7971,"ĠDÃ¤mmerung":7972,"ĠDarauf":7973,"Ġverheiratet":7974,"gÃ¤nge":7975,"ĠSÃ¶hne":7976,"ĠLud":7977,"ĠerschÃ¶pft":7978,"ĠAchtung":7979,"ĠGehen":7980,"Ġzumal":7981,"ĠMagen":7982,"ĠVis":7983,"ĠStich":7984,"Ġscheinbar":7985,"li":7986,"Ġunbest":7987,"verg":7988,"itzte":7989,"ave":7990,"Herz":7991,"Ġsonn":7992,"ance":7993,"ĠBÃ¶r":7994,"Ġverliebt":7995,"verk":7996,"Eben":7997,"Ġverriet":7998,"otte":7999,"rÃ¤utig":8000,"ity":8001,"Ġtanzen":8002,"antwortete":8003,"staben":8004,"schauer":8005,"ĠSchoÃŁ":8006,"ĠPunkte":8007,"ĠGewand":8008,"mahl":8009,"hrt":8010,"Ġfrage":8011,"jÃ¤hrigen":8012,"Ġringsum":8013,"ĠStiefel":8014,"Bald":8015,"loses":8016,"wÃ¼rfe":8017,"haftigkeit":8018,"Ġbetroffen":8019,"Ġabst":8020,"Ã¼chter":8021,"Ġentdeckte":8022,"welcher":8023,"Ġklaren":8024,"ĠGeiste":8025,"ĠFÃ¶rster":8026,"Licht":8027,"gÃ¤nger":8028,"iegt":8029,"Ġeingetreten":8030,"ĠOper":8031,"Ġbegeister":8032,"iko":8033,"scheinend":8034,"ĠGÃ¶tter":8035,"esseln":8036,"ĠMister":8037,"ĠWache":8038,"ĠSpeise":8039,"uk":8040,"schle":8041,"athe":8042,"ĠNapole":8043,"ĠKais":8044,"zeugen":8045,"croff":8046,"wein":8047,"ĠSchande":8048,"ĠLiebhaber":8049,"stellungen":8050,"meinem":8051,"ĠGipfel":8052,"Ġinfolge":8053,"also":8054,"ĠScher":8055,"bek":8056,"Ġbefehl":8057,"Ġverwirrt":8058,"ĠDeinen":8059,"ernte":8060,"Ġbeisammen":8061,"antast":8062,"ausende":8063,"ummen":8064,"Ġbieten":8065,"ĠAdr":8066,"Ġfernen":8067,"Ġentdecken":8068,"Ġbefindet":8069,"Ġstrei":8070,"Robert":8071,"achel":8072,"ĠEls":8073,"strand":8074,"Ġflogen":8075,"ĠVernunft":8076,"imen":8077,"gere":8078,"Ġschlugen":8079,"teilte":8080,"ĠWaren":8081,"setzt":8082,"Ġnu":8083,"reichte":8084,"ĠselbstverstÃ¤ndlich":8085,"Ġerfor":8086,"ĠPracht":8087,"Ex":8088,"dach":8089,"utt":8090,"ĠrÃ¼ckte":8091,"schaftlichen":8092,"ĠMai":8093,"Ġrechnen":8094,"ĠNahr":8095,"iven":8096,"ĠgrÃ¼ne":8097,"Zur":8098,"ĠRÃ¤tsel":8099,"ĠRettung":8100,"....":8101,"ĠNeger":8102,"Ġschier":8103,"sprang":8104,"fÃ¼nfzig":8105,"ĠfrÃ¶hlich":8106,"eidigt":8107,"alischen":8108,"ĠKri":8109,"ĠScheu":8110,"sprung":8111,"ĠFigur":8112,"ĠFeier":8113,"ĠFinsternis":8114,"Ġaugenblicklich":8115,"arch":8116,"ĠlÃ¶ste":8117,"Ġmitt":8118,"allt":8119,"setzung":8120,"ĠErinnerungen":8121,"kon":8122,"sohn":8123,"ĠSach":8124,"Ġverkauft":8125,"schuldigen":8126,"mo":8127,"ors":8128,"ĠGift":8129,"ĠIhres":8130,"oss":8131,"ĠIs":8132,"Ġvieles":8133,"ĠSchlitten":8134,"mord":8135,"ĠbeschrÃ¤n":8136,"Ġgetrunken":8137,"bildung":8138,"anzu":8139,"Ġwohnt":8140,"ĠNachrichten":8141,"ĠPrinzen":8142,"fÃ¼hlte":8143,"hab":8144,"Ġangeb":8145,"Ġbeweisen":8146,"ĠVerachtung":8147,"gewalt":8148,"ension":8149,"beugte":8150,"?!Â«":8151,"cqu":8152,"Ġwarmen":8153,"ĠAnk":8154,"ĠGemein":8155,"ĠDenken":8156,"ĠGrÃ¼nde":8157,"ĠKomp":8158,"Ġginge":8159,"ĠHarm":8160,"ĠIwan":8161,"agegen":8162,"Ġbegangen":8163,"Ġbringe":8164,"zeuge":8165,"Ġfangen":8166,"Ġstock":8167,"Ã¤rmen":8168,"Ġdahinter":8169,"kÃ¶nig":8170,"uel":8171,"ĠPor":8172,"ĠzurÃ¼ckgekehrt":8173,"ĠKaufmann":8174,"vent":8175,"ema":8176,"ultur":8177,"farben":8178,"Trotz":8179,"hrte":8180,"ĠUnsinn":8181,"Ġenglische":8182,"Namen":8183,"Ġbedeckte":8184,"Ġamerikan":8185,"ĠwÃ¼rdig":8186,"blickt":8187,"ĠNachbarn":8188,"ĠPlatze":8189,"gange":8190,"orgte":8191,"Ġgei":8192,"auszu":8193,"ĠStrahlen":8194,"ĠGerichts":8195,"Ġgraue":8196,"ĠÃ¶ffen":8197,"ĠTriumph":8198,"ĠTabak":8199,"!!":8200,"steck":8201,"ĠSchweden":8202,"ĠMagnus":8203,"schÃ¶nen":8204,"Ġunbeweglich":8205,"ĠSar":8206,"ĠDasein":8207,"Ġblind":8208,"etterte":8209,"Ġgeheimen":8210,"Ġzornig":8211,"dt":8212,"messer":8213,"iels":8214,"ĠmÃ¤chtige":8215,"arke":8216,"prÃ¼":8217,"ĠJubel":8218,"ĠAnton":8219,"Aller":8220,"wesenden":8221,"ĠPrivat":8222,"Ã¶rer":8223,"Ġ15":8224,"ĠSternen":8225,"Ġtapfer":8226,"Ġhorchte":8227,"ĠKorn":8228,"ĠRasen":8229,"ohnte":8230,"Ġteilte":8231,"Ġungeheuren":8232,"Ġentsetzt":8233,"GroÃŁ":8234,"Eines":8235,"ĠToil":8236,"Ġunterhalten":8237,"Ġgeschn":8238,"ĠChristen":8239,"Ġedle":8240,"nik":8241,"holte":8242,"ahnte":8243,"Ġ17":8244,"ĠStaat":8245,"sage":8246,"anch":8247,"Ġhau":8248,"ĠErz":8249,"ielte":8250,"ĠBegeg":8251,"Ġzwang":8252,"ĠeigentÃ¼m":8253,"ĠThom":8254,"Ġbehauptete":8255,"Ġfunkel":8256,"ĠDenk":8257,"ĠTempel":8258,"ĠmaÃŁ":8259,"oland":8260,"fenster":8261,"Ġnirgends":8262,"ĠgÃ¶t":8263,"Ġfieber":8264,"ĠtÃ¶ten":8265,"Ã¤ttern":8266,"Ġwerd":8267,"ĠUngeduld":8268,"ĠmÃ¶chten":8269,"underten":8270,"ĠRose":8271,"Geschichte":8272,"verloren":8273,"Ġunendlich":8274,"Ġums":8275,"Ã¶nnen":8276,"ĠZimmers":8277,"ĠJammer":8278,"Kann":8279,"blauen":8280,"Ha":8281,"irten":8282,"Besch":8283,"Ġmoder":8284,"ĠGeschÃ¤fts":8285,"schuhe":8286,"ĠPartei":8287,"ĠMÃ¤rchen":8288,"leuchten":8289,"Ġansah":8290,"hold":8291,"ĠLouis":8292,"Ant":8293,"fon":8294,"anzt":8295,"itta":8296,"ĠGeschÃ¶pf":8297,"ĠSÃ¼nde":8298,"ĠJohannes":8299,"schritten":8300,"ĠHenry":8301,"bauer":8302,"hÃ¤n":8303,"Ġbele":8304,"Ġrie":8305,"ĠHoheit":8306,"knecht":8307,"gebrochen":8308,"Ã¶die":8309,"ĠTun":8310,"ĠZerst":8311,"Ġgeschaffen":8312,"ittert":8313,"Ġgedachte":8314,"ĠdÃ¼rfe":8315,"Sehen":8316,"kampf":8317,"Ġruhigen":8318,"Ġbestehen":8319,"Ġus":8320,"Ġkon":8321,"Ġdeswegen":8322,"zieht":8323,"Ġruhte":8324,"ĠBas":8325,"ders":8326,"ĠRam":8327,"zusagen":8328,"ĠGespr":8329,"boot":8330,"Ġversteckt":8331,"Ġgebeten":8332,"Bet":8333,"digkeit":8334,"gebr":8335,"Ġfeur":8336,"uret":8337,"ĠgroÃŁem":8338,"Ġrichtigen":8339,"ĠPelz":8340,"Ġwahnsinn":8341,"genug":8342,"Ġzahlen":8343,"Ã¤ule":8344,"menschen":8345,"Ġschrecklichen":8346,"Ġ6":8347,"ĠAsp":8348,"ierend":8349,"riech":8350,"ĠLandschaft":8351,"ĠThorn":8352,"Tod":8353,"Ġheul":8354,"ĠDaniel":8355,"Mad":8356,"Ġwarfen":8357,"ĠgenieÃŁen":8358,"ĠUrs":8359,"Ġtele":8360,"eligion":8361,"Ġwilder":8362,"stamm":8363,"Ġbemerk":8364,"Ġverzweifelt":8365,"tan":8366,"stÃ¤":8367,"emm":8368,"ĠThal":8369,"Ġbeschlossen":8370,"ĠhÃ¶hn":8371,"Geh":8372,"atze":8373,"Ġinnen":8374,"ĠSchweiÃŁ":8375,"ĠIl":8376,"Ġzwingen":8377,"Ġrollte":8378,"jeden":8379,"Ġverschwinden":8380,"Ġruhen":8381,"ĠbegrÃ¼ÃŁte":8382,"uropÃ¤":8383,"Ã¤hne":8384,"ĠBert":8385,"ĠverÃ¤ndert":8386,"ĠPersÃ¶n":8387,"Ġreine":8388,"Ġirgendwie":8389,"Ġfreudig":8390,"schwarzen":8391,"ĠPreuÃŁen":8392,"ĠPublikum":8393,"Ġelektr":8394,"ieu":8395,"Ã¼s":8396,"Ã¼ÃŁt":8397,"Ã¼rze":8398,"Ġausgeb":8399,"ĠAnsehen":8400,"Ġleisen":8401,"ĠRuck":8402,"gehabt":8403,"ĠRhein":8404,"FÃ¼nf":8405,"ĠSchÃ¤del":8406,"ĠOrden":8407,"trÃ¤ger":8408,"ĠKurt":8409,"Ġverkaufen":8410,"HÃ¤nde":8411,"griff":8412,"ĠAfri":8413,"denten":8414,"ĠPant":8415,"ragend":8416,"Ã¼tigen":8417,"ĠBekanntschaft":8418,"ĠÃĦhn":8419,"ĠKrieger":8420,"spielen":8421,"ĠBewunderung":8422,"bungen":8423,"dunkel":8424,"berger":8425,"Ġangelangt":8426,"Ġtaten":8427,"Ã¤rchen":8428,"Ġenthielt":8429,"sleute":8430,"ĠberÃ¼hrte":8431,"ituation":8432,"ĠSchwierigkeiten":8433,"Seite":8434,"kas":8435,"ĠjÃ¤h":8436,"ĠVÃ¤ter":8437,"ĠErlaub":8438,"achtungen":8439,"ĠgemÃ¼t":8440,"ĠThier":8441,"Hoff":8442,"ĠRussen":8443,"entlem":8444,"ĠAltar":8445,"natÃ¼rlich":8446,"Ġkrei":8447,"egte":8448,"ĠEinmal":8449,"sprÃ¼n":8450,"dazu":8451,"Ġveranl":8452,"jagt":8453,"ĠTeller":8454,"Ġverlo":8455,"uÃŁe":8456,"gestern":8457,"ĠSchiffs":8458,"ĠTrÃ¤ume":8459,"eff":8460,"vis":8461,"ĠaÃŁ":8462,"Ġzweifel":8463,"wandt":8464,"ĠÃľberraschung":8465,"ĠBeamte":8466,"Ġhilft":8467,"Freu":8468,"lachen":8469,"ĠMun":8470,"ĠKunde":8471,"aban":8472,"ĠStefan":8473,"Ġewige":8474,"emo":8475,"ĠFack":8476,"Ġverschaffen":8477,"ĠEisenbahn":8478,"ftet":8479,"Ġaussah":8480,"brÃ¼cke":8481,"ĠCon":8482,"ĠGebÃ¼":8483,"ĠHauptsache":8484,"Ġmorgens":8485,"Art":8486,"ĠThrÃ¤nen":8487,"tens":8488,"iente":8489,"ĠWirtin":8490,"ĠWiedersehen":8491,"Ã§":8492,"stimmung":8493,"Ġglat":8494,"Ġlo":8495,"ĠVermut":8496,"ĠInspektor":8497,"Ġbedro":8498,"ĠSonnenschein":8499,"winkel":8500,"bnis":8501,"horn":8502,"Ġfliegen":8503,"Ġgewachsen":8504,"ĠInseln":8505,"Ġpfiff":8506,"Weg":8507,"fast":8508,"Ġgerau":8509,"kÃ¼mmert":8510,"Ġverfolgt":8511,"ĠWissenschaft":8512,"ĠgÃ¤be":8513,"Ġgre":8514,"selige":8515,"ĠKatharina":8516,"Ph":8517,"Ġfliehen":8518,"regel":8519,"ĠGefahren":8520,"Ġvan":8521,"Ã¶ÃŁen":8522,"ĠHindern":8523,"Ġtrennen":8524,"ihres":8525,"ĠstÃ¼rzen":8526,"ios":8527,"ĠSah":8528,"ohnung":8529,"Ġschmerz":8530,"ĠtÃ¶r":8531,"Ġtrot":8532,"verschieden":8533,"ĠgerÃ¼hrt":8534,"daran":8535,"ĠWÃ¼nsche":8536,"Ġunbedingt":8537,"Ġbefreien":8538,"wachsen":8539,"ickelte":8540,"Schm":8541,"ĠTruppen":8542,"Boden":8543,"ĠPhilipp":8544,"uppe":8545,"dere":8546,"ĠReiz":8547,"ĠFleck":8548,"ĠPerikles":8549,"ĠkrÃ¤ftigen":8550,"stimme":8551,"ĠHauch":8552,"Stunde":8553,"ĠglÃ¤nzenden":8554,"TÃ¼r":8555,"ĠEb":8556,"ĠLaÃŁ":8557,"ĠLob":8558,"ĠAnzug":8559,"ĠNamens":8560,"ĠstÃ¼rm":8561,"ĠBÃ¼ro":8562,"Sonnen":8563,"bot":8564,"hi":8565,"strich":8566,"Ġerhaben":8567,"ungsvoll":8568,"ĠOtto":8569,"Ġlacht":8570,"ĠEintritt":8571,"ascha":8572,"Ã¤glichen":8573,"behalten":8574,"ĠGesichte":8575,"Ġ7":8576,"Ġerlaubt":8577,"ĠzurÃ¼ckkehren":8578,"Ġeignen":8579,"schneiden":8580,"fung":8581,"Ã´":8582,"traf":8583,"ĠZÃ¤rtlichkeit":8584,"ĠJos":8585,"lies":8586,"ĠPassag":8587,"ĠReichtum":8588,"Ã¼bt":8589,"anter":8590,"ĠkÃ¶rper":8591,"ĠDeiner":8592,"ĠLÃ¼ge":8593,"Ġbesitzt":8594,"ĠBesorg":8595,"ĠEurem":8596,"ĠGewiÃŁheit":8597,"ĠZoll":8598,"Ġrunden":8599,"ĠAnwesenheit":8600,"ellos":8601,"Ġlauschte":8602,"ĠHarrlington":8603,"ĠGerechtigkeit":8604,"pers":8605,"eitete":8606,"Ġverdienen":8607,"Heil":8608,"ĠGatte":8609,"alitÃ¤t":8610,"Ġausgesprochen":8611,"ĠJack":8612,"estament":8613,"rÃ¤cht":8614,"eutnant":8615,"Ġzitternd":8616,"Feuer":8617,"Worte":8618,"luft":8619,"elm":8620,"ĠReit":8621,"undeten":8622,"richtete":8623,"ĠÃľberzeugung":8624,"ĠSchicks":8625,"ĠzÃ¤hlte":8626,"ĠlÃ¤ngs":8627,"ĠSib":8628,"ĠViel":8629,"ĠberÃ¼hrt":8630,"ĠLewin":8631,"ĠFrÃ¼h":8632,"sÃ¤":8633,"ĠlÃ¤uft":8634,"ĠNik":8635,"ĠZuh":8636,"ĠMont":8637,"phen":8638,"ĠSitte":8639,"Ġglich":8640,"ĠHall":8641,"ĠWur":8642,"ĠEil":8643,"mma":8644,"Ġschla":8645,"ĠLinken":8646,"Ġandres":8647,"lan":8648,"ĠGenuÃŁ":8649,"ĠNeues":8650,"Engl":8651,"ĠKaum":8652,"istor":8653,"Ġschleu":8654,"ĠFormen":8655,"beschÃ¤ft":8656,"ĠgrÃ¶ÃŁeren":8657,"ender":8658,"einwand":8659,"Ġausger":8660,"gert":8661,"ĠwÃ¼ten":8662,"ĠKanonen":8663,"Ġgoldene":8664,"ĠEwigkeit":8665,"ĠGlenarvan":8666,"eitel":8667,"asi":8668,"Ġfeste":8669,"Ġwirkte":8670,"Ġhoher":8671,"ĠgrÃ¼ÃŁte":8672,"Lassen":8673,"ĠDeshalb":8674,"ĠRud":8675,"ĠOrte":8676,"Ġgekauft":8677,"hÃ¤user":8678,"ĠGassen":8679,"agon":8680,"ĠJust":8681,"ĠGlÃ¤ser":8682,"ĠÃł":8683,"ĠBarb":8684,"ĠverblÃ¼":8685,"engt":8686,"ĠNÃ¤chte":8687,"lÃ¤ÃŁt":8688,"ĠProvinz":8689,"zeigen":8690,"iefer":8691,"Stu":8692,"ĠLeb":8693,"Ġdunkeln":8694,"ĠZige":8695,"Ã¤nze":8696,"grauen":8697,"mosph":8698,"wicht":8699,"eidet":8700,"Ġbesteht":8701,"ĠLaub":8702,"ĠprÃ¼fen":8703,"ĠRÃ¼":8704,"Ġsteif":8705,"ĠBeziehungen":8706,"zeihung":8707,"mÃ¼tigen":8708,"Ġgespannt":8709,"ĠVerhÃ¤ltnissen":8710,"ĠBotschaft":8711,"ftete":8712,"gste":8713,"kund":8714,"athol":8715,"sent":8716,"beweg":8717,"ĠStre":8718,"Ġtrafen":8719,"ĠStell":8720,"ĠHÃ¶hen":8721,"flichkeit":8722,"ĠHell":8723,"Ġdurcheinander":8724,"Ġspielt":8725,"ĠGeliebte":8726,"ĠFlamme":8727,"Ġschmerzlich":8728,"-,":8729,"Ġachten":8730,"Ġnix":8731,"ĠkÃ¤mpfen":8732,"Ġgehn":8733,"irren":8734,"Ġunrecht":8735,"herab":8736,"gebir":8737,"ĠAbgrund":8738,"ĠEifers":8739,"ĠLeser":8740,"ĠWÃ¤lder":8741,"risch":8742,"esta":8743,"ĠschlÃ¤gt":8744,"Ġgestohlen":8745,"ĠlÃ¤cheln":8746,"ĠSchuhe":8747,"ĠSchlafzimmer":8748,"ĠÃ¼berzeugen":8749,"ĠZun":8750,"ĠErf":8751,"Ġtriumph":8752,"Ġfrischen":8753,"Ġbefrie":8754,"Ġgebaut":8755,"aw":8756,"Ġzuge":8757,"ĠlÃ¶sen":8758,"thur":8759,"wÃ¤rtig":8760,"ĠBÃ¼nd":8761,"Ġinneren":8762,"Mitt":8763,"gsten":8764,"ĠÃ¤lte":8765,"ric":8766,"Ġbesetzt":8767,"klar":8768,"bereitungen":8769,"ĠvorzÃ¼glich":8770,"Ġbestimmte":8771,"Ġschauen":8772,"onsul":8773,"Ġerlo":8774,"ĠBann":8775,"rey":8776,"ĠTitel":8777,"ĠSklaven":8778,"rÃ¤t":8779,"Ã¼sten":8780,"ĠBrÃ¤utig":8781,"Ġjenseits":8782,"rown":8783,"ĠHÃ¤tte":8784,"ĠTer":8785,"able":8786,"UnglÃ¼ck":8787,"ĠFelder":8788,"Ġbehaupten":8789,"ĠfÃ¤hig":8790,"ĠLeicht":8791,"ĠVen":8792,"Ġalsbald":8793,"ĠTrom":8794,"ĠBusen":8795,"graf":8796,"Ġallgemeine":8797,"ĠEinzelheiten":8798,"Deut":8799,"ĠKrÃ¼":8800,"ĠverlieÃŁen":8801,"Ġunend":8802,"ĠHerrgott":8803,"Ġgeschenkt":8804,"ĠwÃ¤l":8805,"Ġlangem":8806,"fehlt":8807,"va":8808,"zien":8809,"ĠHille":8810,"ĠTugend":8811,"Ġschwang":8812,"Ġgetrennt":8813,"ĠFahrzeug":8814,"ĠweiÃŁer":8815,"ĠKrone":8816,"Schwester":8817,"friedigung":8818,"Lieber":8819,"The":8820,"mÃ¤nn":8821,"arat":8822,"lichtet":8823,"ĠArg":8824,"ĠKlasse":8825,"ĠlÃ¤cherlich":8826,"ĠkÃ¼ssen":8827,"Ġschlechten":8828,"Ġschnitt":8829,"ĠLaterne":8830,"kir":8831,"ĠHohn":8832,"ĠschieÃŁen":8833,"ĠLok":8834,"ridor":8835,"ĠHandels":8836,"ĠfÃ¼llte":8837,"ĠAdresse":8838,"weiÃŁen":8839,"mauer":8840,"stung":8841,"ĠJas":8842,"Ã¤nderung":8843,"Herren":8844,"jeder":8845,"Ġteuer":8846,"prÃ¤":8847,"Ġliebes":8848,"streifen":8849,"inten":8850,"ĠVÃ¶lker":8851,"Ġwenigsten":8852,"Kn":8853,"Luft":8854,"fÃ¤hig":8855,"ois":8856,"erer":8857,"Ã¤uch":8858,"Ġerklang":8859,"ĠZÃ¼gel":8860,"ĠSeel":8861,"ĠStreich":8862,"ottland":8863,"cho":8864,"Ġkennst":8865,"ĠBlau":8866,"irbt":8867,"ĠNÃ¤":8868,"ĠGefallen":8869,"allten":8870,"liedern":8871,"ĠGeruch":8872,"ĠMoos":8873,"ĠKnien":8874,"ĠWolke":8875,"ĠRÃ¼cksicht":8876,"ĠEmpfindungen":8877,"Ġit":8878,"Ã¶gern":8879,"undet":8880,"Tochter":8881,"sitz":8882,"geschw":8883,"imer":8884,"Ġernsten":8885,"ĠDun":8886,"Ã¤nderte":8887,"ĠMichel":8888,"ĠJedenfalls":8889,"engen":8890,"Ġmut":8891,"Geheim":8892,"ĠvermÃ¶":8893,"ĠBegleitung":8894,"Ġbetrachtet":8895,"diener":8896,"ĠAthen":8897,"nÃ¤ck":8898,"pflicht":8899,"ĠVerwirrung":8900,"kreis":8901,"Ġmochten":8902,"ĠAkt":8903,"ĠStande":8904,"lack":8905,"ĠHammer":8906,"Ġschmeich":8907,"ĠHalse":8908,"Ġdeines":8909,"ĠMot":8910,"ĠZelt":8911,"Ġchrist":8912,"Paul":8913,"Soll":8914,"chsen":8915,"Ġwehrte":8916,"ĠKonst":8917,"ĠGesellen":8918,"Ġwillkommen":8919,"Ġbeginnt":8920,"ĠZuge":8921,"ĠFlor":8922,"Ġverboten":8923,"etit":8924,"ersp":8925,"spitzen":8926,"ĠbefÃ¼r":8927,"Ġkrampf":8928,"bill":8929,"ĠFalten":8930,"ĠRuh":8931,"Ã¤nzer":8932,"ĠGebrauch":8933,"Ġedel":8934,"ĠPencroff":8935,"uen":8936,"Ġnackten":8937,"Ġverfallen":8938,"frage":8939,"Ġmon":8940,"Ġglatt":8941,"ĠBÃ¤r":8942,"ĠglÃ¼cklichen":8943,"affte":8944,"gelegen":8945,"ĠKeine":8946,"Ġbegriffen":8947,"ĠLieutenant":8948,"aganel":8949,"MÃ¤nner":8950,"Ġatem":8951,"ĠnÃ¶r":8952,"Ġzarten":8953,"ĠTÃ¤tigkeit":8954,"ĠErl":8955,"Ġheftigen":8956,"ĠMaske":8957,"Ġmil":8958,"ĠRats":8959,"Ġvieler":8960,"Ġthut":8961,"oft":8962,"ĠWerner":8963,"Ġaussehen":8964,"Ã¤nk":8965,"Ã¤hte":8966,"cy":8967,"helfen":8968,"ĠWeihn":8969,"Ġdeutsch":8970,"ĠHÃ¤uschen":8971,"Kar":8972,"halle":8973,"Ġteils":8974,"Ġhalber":8975,"sied":8976,"ĠWÃ¼ste":8977,"ĠFlei":8978,"ĠanstÃ¤nd":8979,"Sieh":8980,"ĠMarmor":8981,"ĠUnterschied":8982,"ĠWilhelm":8983,"Ġverbarg":8984,"ani":8985,"ĠMast":8986,"ures":8987,"ĠPir":8988,"spiegel":8989,"Ġverging":8990,"ĠWÃ¤sche":8991,"yer":8992,"ĠAst":8993,"undvierzig":8994,"ĠVerstÃ¤nd":8995,"ĠUmstand":8996,"ĠkÃ¼hn":8997,"ehe":8998,"ets":8999,"Ġschme":9000,"ĠPra":9001,"ugheit":9002,"ĠSchwestern":9003,"Ġgelangte":9004,"ĠrÃ¼ckwÃ¤rts":9005,"ĠWeisheit":9006,"pon":9007,"stunden":9008,"ĠLichte":9009,"Ġverzeihen":9010,"ĠBekannten":9011,"ĠBegeisterung":9012,"ĠSchmied":9013,"sanwalt":9014,"Ã¤ndnis":9015,"hs":9016,"gericht":9017,"Ã¼nscht":9018,"ĠLandstraÃŁe":9019,"ĠExzellenz":9020,"ĠmiÃŁtrau":9021,"ĠCapitel":9022,"ĠDolch":9023,"wesend":9024,"vok":9025,"ĠWogen":9026,"ĠschlÃ¼":9027,"ades":9028,"Ã¤chten":9029,"Ġberichtete":9030,"Ġversetzt":9031,"ĠSchnelligkeit":9032,"Lei":9033,"fra":9034,"ĠMÃ¤del":9035,"ĠZeilen":9036,"ĠStation":9037,"ĠEines":9038,"hinauf":9039,"ĠKrÃ¤ften":9040,"Ġrussischen":9041,"Ġverur":9042,"ĠPil":9043,"Ã¼nkt":9044,"ettert":9045,"zutreten":9046,"ĠSpanier":9047,"ĠPe":9048,"ierenden":9049,"Ã¤mte":9050,"ĠÃĦrger":9051,"Ġmarsch":9052,"ĠGi":9053,"ĠCha":9054,"ĠHeft":9055,"offiz":9056,"ĠSchreiber":9057,"sonne":9058,"18":9059,"massen":9060,"schriften":9061,"ĠGÃ¼rtel":9062,"ĠWoll":9063,"ĠStrecke":9064,"ĠMitten":9065,"Ġeigener":9066,"ĠSaint":9067,"ĠTemper":9068,"Darauf":9069,"ĠChef":9070,"Jahre":9071,"Ã¢":9072,"ĠLieben":9073,"ĠIrrt":9074,"Ġblonden":9075,"ĠSekunde":9076,"tro":9077,"adet":9078,"Stunden":9079,"ĠFabrizzio":9080,"Jahren":9081,"ĠStoff":9082,"vorÃ¼ber":9083,"brot":9084,"Ġerr":9085,"ĠfÃ¼n":9086,"ĠSohne":9087,"ĠAbwesenheit":9088,"flog":9089,"schuÃŁ":9090,"ĠHum":9091,"ĠGroÃŁvater":9092,"ĠMÃ¶bel":9093,"ĠSid":9094,"Ġausst":9095,"vert":9096,"ĠDieter":9097,"ĠSoph":9098,"blut":9099,"ĠIdeen":9100,"Bist":9101,"blatt":9102,"ners":9103,"rohr":9104,"roten":9105,"Schrei":9106,"ĠStrick":9107,"Ġerregte":9108,"ĠGanze":9109,"ĠGÃ¤rt":9110,"andten":9111,"ftiges":9112,"ĠGewitter":9113,"ĠKranke":9114,"ĠwÃ¼rdest":9115,"Bed":9116,"kap":9117,"Ġka":9118,"ĠBreite":9119,"Ġverfl":9120,"flug":9121,"ĠWirtschaft":9122,"Ġunheimlich":9123,"ĠGall":9124,"ĠGebiet":9125,"Ġseh":9126,"ĠBefehle":9127,"ari":9128,"ĠBlo":9129,"ĠFassung":9130,"ĠKetten":9131,"Ã¤mpft":9132,"Ġwahrhaft":9133,"istenz":9134,"ĠTeppich":9135,"Ġtreibt":9136,"Mag":9137,"lz":9138,"Ġkalte":9139,"gesellschaft":9140,"Ġhalbes":9141,"Ġlanges":9142,"ĠUnternehmen":9143,"ĠArtikel":9144,"ĠkÃ¼mmern":9145,"Ġpflegen":9146,"Gener":9147,"Ġverurs":9148,"ingst":9149,"Ġgewagt":9150,"Inzwischen":9151,"Ġgestehen":9152,"Ġunmittelbar":9153,"enge":9154,"Ġdum":9155,"empor":9156,"ĠBilde":9157,"ĠEntdeckung":9158,"ĠglÃ¤nzend":9159,"frÃ¼her":9160,"Des":9161,"Fort":9162,"ittel":9163,"ĠVolke":9164,"ĠbestÃ¤ndig":9165,"ĠberÃ¼hmte":9166,"ordert":9167,"selber":9168,"Ġnebeneinander":9169,"ĠZigarre":9170,"ĠGebirge":9171,"ĠnervÃ¶s":9172,"Ã¼berhaupt":9173,"ĠstÃ¶hnte":9174,"Ġklingt":9175,"ĠgeschÃ¤ft":9176,"ĠEuren":9177,"ĠJoe":9178,"ĠGepÃ¤ck":9179,"Ende":9180,"Gold":9181,"himmel":9182,"ehrter":9183,"tlicher":9184,"ĠMouret":9185,"Ġandrer":9186,"ĠMaschine":9187,"ĠvernÃ¼nftig":9188,"ĠSab":9189,"ĠAle":9190,"Ġkenn":9191,"Ġunbesch":9192,"ĠVerfÃ¼gung":9193,"ĠpaÃŁt":9194,"ĠAusnahme":9195,"Ġdenkst":9196,"Ġkniete":9197,"Kein":9198,"ĠSem":9199,"ĠBor":9200,"redigt":9201,"stecken":9202,"Ġergreifen":9203,"ĠSchÃ¼ler":9204,"mmt":9205,"ĠSchlange":9206,"Ġernste":9207,"ĠgrÃ¶ÃŁ":9208,"Ġschweig":9209,"ĠunglÃ¼ckliche":9210,"bemerkt":9211,"ĠVorteil":9212,"For":9213,"Guten":9214,"ĠblÃ¼":9215,"ĠIsa":9216,"versicht":9217,"Schn":9218,"iplo":9219,"Tisch":9220,"asten":9221,"gan":9222,"ĠSack":9223,"ĠKart":9224,"ĠKennt":9225,"ielen":9226,"wartete":9227,"ĠElisabeth":9228,"fÃ¼llung":9229,"ĠHoffnungen":9230,"ĠSilv":9231,"ĠfÃ¶rmlich":9232,"ffte":9233,"ĠVerz":9234,"Ġregte":9235,"Ġschwebte":9236,"blÃ¼":9237,"tisch":9238,"schel":9239,"ĠKru":9240,"igend":9241,"Ġgehei":9242,"glas":9243,"Ã¤len":9244,"Ġlebten":9245,"fÃ¼rst":9246,"Ġunersch":9247,"liefert":9248,"Ġledig":9249,"Ã¼rk":9250,"trieb":9251,"ĠAuskunft":9252,"ĠerhÃ¶":9253,"wood":9254,"Arbeit":9255,"bliothek":9256,"nÃ¤her":9257,"ĠglÃ¼":9258,"ĠGunst":9259,"ĠGroÃŁen":9260,"ĠDeutsche":9261,"Ġtraurigen":9262,"ĠInnere":9263,"ĠVersprechen":9264,"ĠMittags":9265,"ĠEreignis":9266,"ĠSchnurrbart":9267,"ĠTÃ¶ne":9268,"utze":9269,"Ã¤nz":9270,"Ġdran":9271,"ĠLocken":9272,"ĠvÃ¤ter":9273,"ĠBos":9274,"ĠStill":9275,"kasten":9276,"Hm":9277,"Ġeingerichtet":9278,"ĠAnker":9279,"Ġreizend":9280,"Hans":9281,"Ġnord":9282,"pfern":9283,"entfern":9284,"Ġklapp":9285,"ĠKosten":9286,"ĠMari":9287,"ds":9288,"ĠgedrÃ¼ckt":9289,"seh":9290,"Ġnachts":9291,"izei":9292,"ĠbeschÃ¤ftigte":9293,"ĠHeiterkeit":9294,"ĠTatsache":9295,"obe":9296,"Ġumarm":9297,"Ġbewaff":9298,"Ġ19":9299,"ĠLotte":9300,"ĠFrancs":9301,"Cl":9302,"Jul":9303,"lager":9304,"ĠBauch":9305,"ĠWacht":9306,"ĠVert":9307,"selten":9308,"ĠVerwunderung":9309,"jung":9310,"Ã¶de":9311,"ĠGentlem":9312,"Ġmitgebracht":9313,"ĠAnteil":9314,"ĠPara":9315,"Ġlebend":9316,"Ġwartet":9317,"ĠTir":9318,"lebte":9319,"Ġspringen":9320,"Ã¤higkeit":9321,"eigne":9322,"ĠRittmeister":9323,"Wagen":9324,"volk":9325,"Ġfreut":9326,"ĠFÃ¼nf":9327,"Ġgewartet":9328,"Ġpracht":9329,"Ġgelangt":9330,"ĠIrr":9331,"Niemand":9332,"olge":9333,"ĠPfeil":9334,"ĠKampfe":9335,"ĠRaub":9336,"ĠKamerad":9337,"aal":9338,"aux":9339,"Ġaufgef":9340,"Ġohnehin":9341,"ĠÃ¼pp":9342,"ĠstrÃ¶m":9343,"zeugt":9344,"Ġlegt":9345,"Ġallgemein":9346,"ĠErwartung":9347,"Ġabscheu":9348,"ĠSekretÃ¤r":9349,"zeichneten":9350,"ĠHamburg":9351,"gehe":9352,"ĠSituation":9353,"ĠGasse":9354,"Ġunruh":9355,"abzu":9356,"Ã¶hnt":9357,"Ġschlepp":9358,"ĠSteuermann":9359,"Ġbehielt":9360,"ĠErleb":9361,"ĠrÃ¶m":9362,"Ġdarfst":9363,"Ġseg":9364,"ĠBob":9365,"ĠlÃ¤u":9366,"ĠTeile":9367,"ĠdrÃ¤ngten":9368,"Ġriesigen":9369,"Ġdoppelt":9370,"ĠRund":9371,"Ġnacht":9372,"phan":9373,"ĠEntz":9374,"ĠFranzose":9375,"Ġwunderte":9376,"Ġmenschliche":9377,"nimmt":9378,"ĠKÃ¶":9379,"troffen":9380,"ĠNarren":9381,"ĠPolitik":9382,"Ġvernommen":9383,"Wider":9384,"astete":9385,"Ġbauen":9386,"dernd":9387,"beck":9388,"ĠtrÃ¶sten":9389,"Ġzweihundert":9390,"gendes":9391,"ahnt":9392,"Ġachtzehn":9393,"ĠTeilnahme":9394,"Ġdankte":9395,"Ġbehandelt":9396,"ĠbemÃ¼hte":9397,"Ġheben":9398,"ree":9399,"Ġunsicher":9400,"Ġnunmehr":9401,"Stelle":9402,"llos":9403,"Ġwieviel":9404,"Ġbeten":9405,"Ġspreche":9406,"ĠQuelle":9407,"Ġherrlich":9408,"Dir":9409,"ns":9410,"auten":9411,"Ġbekommt":9412,"zeigte":9413,"ĠPrÃ¤sident":9414,"ĠEifersucht":9415,"out":9416,"Ġerlauben":9417,"ĠGuten":9418,"ĠSieh":9419,"ĠVerlust":9420,"geord":9421,"Ġerleben":9422,"ĠSchÃ¶pf":9423,"ĠZe":9424,"ĠmÃ¶cht":9425,"ĠLux":9426,"izin":9427,"ĠrÃ¼hren":9428,"Wann":9429,"gegend":9430,"uchzen":9431,"Einige":9432,"Ġernsthaft":9433,"Ġberuhigte":9434,"Ġgrade":9435,"hler":9436,"ĠCour":9437,"laucht":9438,"ĠBeziehung":9439,"Ġreicher":9440,"asses":9441,"ĠProz":9442,"folgen":9443,"Ġfreue":9444,"ilian":9445,"ĠWaldes":9446,"ĠOberflÃ¤che":9447,"Ġreichlich":9448,"ĠBeim":9449,"ĠTestament":9450,"Ġbessere":9451,"ĠMartha":9452,"ĠFrÃ¼hlings":9453,"Ġunschuldig":9454,"Volk":9455,"sÃ¤tze":9456,"ĠdÃ¤m":9457,"ĠGitter":9458,"Ġsieb":9459,"Ġmitge":9460,"herzig":9461,"lÃ¼sse":9462,"ĠBesuche":9463,"Ġeinfache":9464,"mÃ¤ÃŁige":9465,"ĠNotiz":9466,"ĠMillion":9467,"anchol":9468,"Dein":9469,"hÃ¤tten":9470,"Ġmitgenommen":9471,"ĠRath":9472,"icks":9473,"ĠMÃ¼ller":9474,"Ġschmale":9475,"ĠgenÃ¼gt":9476,"Hil":9477,"ÃŁlichen":9478,"anntw":9479,"Oder":9480,"erhalten":9481,"trotz":9482,"Ġmehreren":9483,"ĠBoten":9484,"ĠPferden":9485,"ĠWesens":9486,"Ġberuhigt":9487,"passen":9488,"ĠKenntnis":9489,"spitze":9490,"Ġneulich":9491,"ndenken":9492,"renzen":9493,"'t":9494,"ĠSarg":9495,"ĠstÃ¼tzte":9496,"ĠZustande":9497,"Ġeinfachen":9498,"ĠSau":9499,"ĠUnschuld":9500,"ĠverhÃ¼":9501,"inderte":9502,"nikow":9503,"rÃ¼ck":9504,"Ġscho":9505,"ĠScho":9506,"echseln":9507,"Ġird":9508,"ĠEva":9509,"unglÃ¼ck":9510,"bigen":9511,"Ġgegessen":9512,"Ġschade":9513,"stellt":9514,"ilien":9515,"ĠWiese":9516,"ĠHabe":9517,"Vesta":9518,"einanders":9519,"ĠFrucht":9520,"ĠLaz":9521,"Ġrieb":9522,"gerte":9523,"ĠThiere":9524,"Ġstehenden":9525,"ĠGrenzen":9526,"ĠAuÃŁerdem":9527,"Doktor":9528,"itische":9529,"ĠEg":9530,"lieÃŁt":9531,"Ġabgew":9532,"ĠGesp":9533,"ĠKindheit":9534,"muth":9535,"ĠGegenstÃ¤nde":9536,"ĠglÃ¼ckliche":9537,"Ġsuche":9538,"Ġzarte":9539,"ĠFast":9540,"Ġaneinander":9541,"reift":9542,"ĠReligion":9543,"Ġschlank":9544,"Ġerfreut":9545,"Ġgeschlossenen":9546,"ĠGesell":9547,"Ġspazieren":9548,"ĠSpannung":9549,"ĠBildung":9550,"Ġherrlichen":9551,"Ġstolzen":9552,"ĠCyrus":9553,"edition":9554,"ĠHandbewegung":9555,"ĠdÃ¤mmer":9556,"ĠPeit":9557,"absicht":9558,"ĠentzÃ¼ckt":9559,"besonders":9560,"Ġnamentlich":9561,"Ġreinen":9562,"ĠschÃ¶nste":9563,"Ã¤gliche":9564,"Ġgepackt":9565,"ĠbestÃ¤tigte":9566,"Ch":9567,"wander":9568,"ĠEcken":9569,"Ġjust":9570,"Ġseht":9571,"hÃ¶ch":9572,"ĠBlÃ¼ten":9573,"kow":9574,"ĠErziehung":9575,"Ġrannte":9576,"ĠHerde":9577,"Ġlegten":9578,"langsam":9579,"dinand":9580,"RÃ¼ck":9581,"terten":9582,"ĠWitz":9583,"Ġanzunehmen":9584,"Ġgerissen":9585,"ĠGrabe":9586,"Ġbestanden":9587,"Ã¶ffnete":9588,"ĠBeifall":9589,"gestellten":9590,"ĠRechts":9591,"ĠMaschinen":9592,"ympath":9593,"Hal":9594,"ĠeuropÃ¤":9595,"solche":9596,"Ġ8":9597,"schreck":9598,"Ġrat":9599,"Ġeure":9600,"pap":9601,"gent":9602,"euern":9603,"reitet":9604,"Ġleere":9605,"harp":9606,"fertigen":9607,"Ġoberen":9608,"igungen":9609,"ĠZwie":9610,"uther":9611,"Ġvorigen":9612,"ĠZuflucht":9613,"Ġentschuldigen":9614,"ĠBeschÃ¤ft":9615,"Sol":9616,"greifen":9617,"Ġhimml":9618,"ĠMangel":9619,"owna":9620,"Ġheftiger":9621,"Ġschreien":9622,"lern":9623,"ĠzÃ¼":9624,"ĠJahrh":9625,"Ġinnerlich":9626,"ĠChinesen":9627,"ĠNapoleon":9628,"dy":9629,"ĠWach":9630,"ebenso":9631,"ĠEinladung":9632,"Ġblicken":9633,"jew":9634,"ĠzÃ¶gernd":9635,"Mo":9636,"ĠAra":9637,"ĠDicht":9638,"Ġverzweifel":9639,"ĠHerrlichkeit":9640,"ĠAllem":9641,"Ġbedeutend":9642,"Ġschritten":9643,"wÃ¤rtigen":9644,"ĠKaisers":9645,"ieÃŁt":9646,"Ã¼ÃŁen":9647,"ĠDurst":9648,"ĠBir":9649,"ĠBacken":9650,"ĠLag":9651,"ĠOct":9652,"ĠSchlangen":9653,"ĠSchlucht":9654,"ĠKnechte":9655,"Sir":9656,"gute":9657,"Ġfeiner":9658,"Ġgewei":9659,"ĠRÃ¤ume":9660,"Ġvermeiden":9661,"ĠTrag":9662,"ĠFÃ¼lle":9663,"welches":9664,"Ġschreckliche":9665,"Ġschreibt":9666,"Leiden":9667,"Sache":9668,"fassen":9669,"ĠSorg":9670,"arme":9671,"schicken":9672,"ĠHug":9673,"ĠWen":9674,"ĠAngesicht":9675,"Ġwahrlich":9676,"ĠZweige":9677,"ĠstÃ¼rzten":9678,"ĠKeraban":9679,"ĠBedÃ¼rfnis":9680,"zuhalten":9681,"Ġgeschlafen":9682,"Ġfreundlichen":9683,"Ġverfolgte":9684,"ĠGlocke":9685,"Ġermordet":9686,"ĠverÃ¤chtlich":9687,"zir":9688,"Ġitalien":9689,"ĠSei":9690,"Ã¤ÃŁe":9691,"ĠSteinen":9692,"ĠÃ¼beraus":9693,"egal":9694,"vertrauen":9695,"Ġgenauer":9696,"Ġernster":9697,"GeschÃ¤ft":9698,"ĠAmerikaner":9699,"kes":9700,"ĠTreiben":9701,"ĠSchimmer":9702,"ĠtrÃ¤um":9703,"mÃ¶chte":9704,"Ġerinnert":9705,"ĠClaude":9706,"Ġmittler":9707,"On":9708,"erie":9709,"ĠhÃ¶lz":9710,"ĠFrauenzimmer":9711,"zehntes":9712,"Ġentfernen":9713,"begann":9714,"Ġerinnere":9715,"ĠKlavier":9716,"ĠStuben":9717,"kÃ¼nd":9718,"ĠFlÃ¼cht":9719,"mosphÃ¤re":9720,"kar":9721,"mond":9722,"sofort":9723,"ĠKapelle":9724,"ĠBÃ¼hne":9725,"stedt":9726,"adurch":9727,"ĠVorhang":9728,"ĠAlpen":9729,"ĠKurz":9730,"ĠBrown":9731,"eug":9732,"Ġbekannten":9733,"wendigkeit":9734,"ĠPetersen":9735,"Bruder":9736,"Ġangefangen":9737,"ĠlieÃŁe":9738,"wartet":9739,"istischen":9740,"Ã¤lde":9741,"phon":9742,"ĠglÃ¼cklicher":9743,"ĠRespekt":9744,"ĠLiebling":9745,"ĠunaufhÃ¶r":9746,"yd":9747,"Ġerkl":9748,"ĠKreu":9749,"malen":9750,"Verb":9751,"sogar":9752,"ki":9753,"kenntnis":9754,"Ġhar":9755,"Ġgeladen":9756,"Ġungeheuer":9757,"rossen":9758,"ĠStatt":9759,"Ġvollends":9760,"Ãľ":9761,"ansp":9762,"ĠMÃ¼tter":9763,"Ġauftau":9764,"Ġabsol":9765,"glÃ¼cklich":9766,"ĠFirma":9767,"Kaum":9768,"dan":9769,"gewicht":9770,"Ġgebildet":9771,"ĠBarbar":9772,"vÃ¶lkerung":9773,"ĠLorenz":9774,"indem":9775,"astro":9776,"ĠVorschein":9777,"Ġerschreckt":9778,"ĠHauptstadt":9779,"ĠBuchstaben":9780,"ull":9781,"ĠBalk":9782,"Ġgebr":9783,"ĠFuhr":9784,"Ġganzer":9785,"Ġbestr":9786,"ĠgenÃ¼gen":9787,"Ġschwimmen":9788,"Ġlautete":9789,"Ġ10":9790,"Grund":9791,"rÃ¼cken":9792,"Ġbos":9793,"ĠEier":9794,"Ġsozusagen":9795,"behr":9796,"Ã¼tt":9797,"ĠGelehrten":9798,"Ġkeinerlei":9799,"ĠClar":9800,"ĠRasum":9801,"Ã¤fer":9802,"ĠKuh":9803,"schieÃŁen":9804,"esselt":9805,"ĠGebÃ¤rde":9806,"Ellen":9807,"bÃ¤ume":9808,"urpur":9809,"igst":9810,"Ġbekannte":9811,"Ġkannten":9812,"ĠZeitlang":9813,"ogoff":9814,"ĠTrink":9815,"Ġgutem":9816,"ĠPalast":9817,"ĠMuster":9818,"Kommen":9819,"ĠHÃ¼tten":9820,"ĠHerrschaften":9821,"gelÃ¶st":9822,"ĠGrade":9823,"ĠWassers":9824,"ĠSchrank":9825,"ĠGlÃ¼cks":9826,"ĠgetÃ¶tet":9827,"Ġzeich":9828,"afÃ©":9829,"Ġforderte":9830,"Ġbewegten":9831,"Ġbehaglich":9832,"ĠHÃ¤uptling":9833,"SÃ¼":9834,"Ã¤ht":9835,"ĠHus":9836,"Ġungew":9837,"Ã¶rn":9838,"pper":9839,"ada":9840,"Ġgeneigt":9841,"Arm":9842,"ĠNahrung":9843,"anntwein":9844,"schne":9845,"Ġangst":9846,"Ġklat":9847,"ĠArthur":9848,"ĠUns":9849,"Ir":9850,"uno":9851,"ĠPall":9852,"Ġwirft":9853,"Ġzerstreut":9854,"Ġkriegen":9855,"schimmer":9856,"ĠPech":9857,"ĠPension":9858,"ĠfÃ¼hlten":9859,"Ġverfolgen":9860,"ĠEuropÃ¤":9861,"ĠGeschenk":9862,"ĠPaganel":9863,"Ġbesuchte":9864,"ĠBedenken":9865,"ĠgefÃ¼hlt":9866,"ĠgestÃ¶rt":9867,"icol":9868,"ĠauÃŁerhalb":9869,"Ġgrausam":9870,"nehme":9871,"Ġgepf":9872,"gerecht":9873,"ĠZucht":9874,"Ġstreich":9875,"ĠFreie":9876,"dahin":9877,"reht":9878,"Ġmehrmals":9879,"edoch":9880,"ĠJud":9881,"ĠHeld":9882,"zza":9883,"jan":9884,"odie":9885,"Ġwa":9886,"ĠermÃ¼":9887,"ĠFische":9888,"ĠRoland":9889,"Ġentgehen":9890,"ĠreiÃŁen":9891,"verneur":9892,"Ġunterscheiden":9893,"Ġsprangen":9894,"niemand":9895,"Ġinnere":9896,"ĠMahlzeit":9897,"aunte":9898,"bereits":9899,"ĠlÃ¼":9900,"Ġbetrifft":9901,"udel":9902,"gnÃ¼":9903,"ĠdÃ¼nnen":9904,"sprÃ¼che":9905,"kaum":9906,"tage":9907,"Ġahnen":9908,"ĠÃ¼bers":9909,"Erinner":9910,"ĠgefÃ¼llt":9911,"ĠVorwÃ¼rfe":9912,"Ġbunt":9913,"Ġverabschie":9914,"ĠflÃ¼chtig":9915,"ĠErlaubnis":9916,"Sicher":9917,"fla":9918,"Ġ/":9919,"erfahren":9920,"unver":9921,"alal":9922,"Ġtreff":9923,"Ã¶ffel":9924,"Ġempfinden":9925,"Ġdunkler":9926,"ĠÃĸff":9927,"ĠLinien":9928,"ĠBrÃ¤utigam":9929,"Ġschickt":9930,"unterbrochen":9931,"Ġhalblaut":9932,"ĠÃ¼berwÃ¤lt":9933,"ĠFrancis":9934,"ĠÃ¼berraschen":9935,"Natur":9936,"itterung":9937,"gegriffen":9938,"Ġeisernen":9939,"ĠHirsch":9940,"sigen":9941,"Ġhaupt":9942,"ĠBern":9943,"ĠLab":9944,"Ġstunden":9945,"ĠÃ¼bersch":9946,"ĠOhn":9947,"ĠEhrgeiz":9948,"solchen":9949,"ĠeinigermaÃŁen":9950,"ĠSÃ¤bel":9951,"Ġdiente":9952,"Ġmachst":9953,"jah":9954,"ĠSobald":9955,"ĠHahn":9956,"ĠZelle":9957,"leidete":9958,"Ġumschl":9959,"ĠÃ¼berkam":9960,"ĠVerst":9961,"ĠVerbeug":9962,"Ġgelitten":9963,"ĠBegum":9964,"ĠRechtsanwalt":9965,"ĠmerkwÃ¼rdige":9966,"FuÃŁ":9967,"nÃ¤chsten":9968,"Ġnet":9969,"terung":9970,"ĠLog":9971,"hlt":9972,"Ġtrost":9973,"ĠBecher":9974,"ĠEitel":9975,"ĠÃ¤ltere":9976,"Haar":9977,"ĠSeide":9978,"ĠGÃ¤sten":9979,"indlich":9980,"Ġbereiten":9981,"kehrten":9982,"Ġwichtig":9983,"ĠGalgen":9984,"ĠStÃ¤dt":9985,"ĠHobson":9986,"stÃ¤d":9987,"Ġrang":9988,"ĠVerm":9989,"Ġtrock":9990,"ĠAnlaÃŁ":9991,"ĠUnheil":9992,"ĠSees":9993,"ĠGerade":9994,"ĠCharlotte":9995,"ĠStaaten":9996,"Ġwichtige":9997,"Hen":9998,"fÃ¼gen":9999,"Ġertr":10000,"ĠLind":10001,"ĠVom":10002,"ĠDoppel":10003,"mantel":10004,"lebens":10005,"ĠBesitzer":10006,"nem":10007,"ritten":10008,"Ġsamt":10009,"Ã¼hls":10010,"stab":10011,"Ġaufgeb":10012,"eutlich":10013,"Ġangezogen":10014,"ĠLehre":10015,"treter":10016,"erbiet":10017,"kolnikow":10018,"ĠLudwig":10019,"iebe":10020,"Ġsatt":10021,"ĠAndern":10022,"ĠHon":10023,"antischen":10024,"ĠFelde":10025,"icane":10026,"Ġheutigen":10027,"ampag":10028,"getrieben":10029,"ĠglÃ¼henden":10030,"ga":10031,"ĠDsch":10032,"Ġgearbeitet":10033,"Ġleuchteten":10034,"etsch":10035,"ĠLeinwand":10036,"ĠZettel":10037,"ĠKorb":10038,"ĠBemÃ¼":10039,"ĠStÃ¤dte":10040,"Ġon":10041,"gesprungen":10042,"Ã¤chern":10043,"zieher":10044,"ĠKatze":10045,"vort":10046,"auscht":10047,"urteil":10048,"ĠTele":10049,"reicht":10050,"ausge":10051,"ĠInstr":10052,"uldigte":10053,"ĠhÃ¶heren":10054,"ĠSekunden":10055,"Ġhel":10056,"ight":10057,"strahlen":10058,"ĠKugeln":10059,"ĠMitteilung":10060,"Glauben":10061,"Har":10062,"Neben":10063,"ĠKre":10064,"ĠTannen":10065,"Ġunent":10066,"ots":10067,"ĠkÃ¼mmerte":10068,"Arme":10069,"ĠÃ¤uÃŁersten":10070,"zÃ¼ndet":10071,"ĠBegegnung":10072,"Ġeinverstanden":10073,"aterial":10074,"Ġtiefsten":10075,"ĠGroÃŁmutter":10076,"ĠRevolution":10077,"ĠX":10078,"anien":10079,"ĠSchauer":10080,"Ġgewahrte":10081,"meter":10082,"Ġglaubten":10083,"ĠgestÃ¼tzt":10084,"ĠKÃ¶nige":10085,"Empf":10086,"ĠKenn":10087,"otland":10088,"ĠCr":10089,"Ġlebhafte":10090,"Ehe":10091,"Ġkreu":10092,"ĠSchottland":10093,"ĠStil":10094,"ĠHandwerk":10095,"Ã¶lz":10096,"ĠBeistand":10097,"ĠKorridor":10098,"ĠJuni":10099,"Ġbefreit":10100,"hund":10101,"Ġdachten":10102,"Ġtrifft":10103,"ĠMarstrand":10104,"Ġfreier":10105,"ĠTeufels":10106,"ĠGeheimnisse":10107,"ĠEreignisse":10108,"Meister":10109,"wache":10110,"erwider":10111,"Ġbo":10112,"tere":10113,"raus":10114,"Ġentstanden":10115,"Ġzweiter":10116,"ĠDiamanten":10117,"lu":10118,"ubel":10119,"ĠSage":10120,"otograph":10121,"Ġwodurch":10122,"owitsch":10123,"ĠAnderen":10124,"belte":10125,"ĠTore":10126,"Ġstehn":10127,"ĠStreifen":10128,"ĠFluch":10129,"WeiÃŁt":10130,"Ġvertraut":10131,"MÃ¼":10132,"ĠAdern":10133,"Ġschenken":10134,"ĠunzÃ¤hl":10135,"verley":10136,"ĠCla":10137,"ĠSchwe":10138,"mutig":10139,"Ġunbekannten":10140,"ĠMaÃŁe":10141,"ĠBÃ¼chern":10142,"Ġyou":10143,"zÃ¼gen":10144,"ĠBut":10145,"ĠWegen":10146,"Ġstellt":10147,"ĠPfeifen":10148,"Ġpfl":10149,"erschien":10150,"jÃ¤hrige":10151,"ĠTrotzdem":10152,"Willst":10153,"Gottes":10154,"Ġeinger":10155,"lla":10156,"ĠDis":10157,"ĠRang":10158,"Ġbesucht":10159,"Ġaufgehoben":10160,"ĠKleidern":10161,"ĠKirchhof":10162,"ptem":10163,"zeits":10164,"ĠWÃ¶l":10165,"ĠSieger":10166,"Ġtaum":10167,"entin":10168,"Ġwovon":10169,"ĠtrÃ¤umte":10170,"Ġmelden":10171,"ĠÃ¤lteren":10172,"Sal":10173,"bist":10174,"Ġeingef":10175,"Ġbesp":10176,"Ġstarker":10177,"ĠSacc":10178,"Ġpflegt":10179,"ournal":10180,"ĠBuben":10181,"hÃ¼b":10182,"stift":10183,"ĠDauer":10184,"ĠKe":10185,"geschehen":10186,"sieben":10187,"ĠbestÃ¼rzt":10188,"ĠJude":10189,"ĠIndian":10190,"ĠMuse":10191,"ĠUntersuchung":10192,"ĠRudolf":10193,"anst":10194,"ĠWÃ¤re":10195,"Ġwirken":10196,"lieber":10197,"ĠgewÃ¤hlt":10198,"kler":10199,"ĠgefÃ¼r":10200,"ĠĠĠĠĠ":10201,"ĠGewicht":10202,"gehend":10203,"ĠgetÃ¤uscht":10204,"damals":10205,"enke":10206,"nergie":10207,"weh":10208,"Ġallemal":10209,"Ġunverm":10210,"ĠTrÃ¤umen":10211,"fisch":10212,"fleisch":10213,"stig":10214,"ĠLassen":10215,"ĠLiter":10216,"Ġanscheinend":10217,"aps":10218,"ĠbegnÃ¼":10219,"ĠBock":10220,"ĠChor":10221,"wendung":10222,"hÃ¶he":10223,"ĠYard":10224,"ĠGruppen":10225,"jas":10226,"tÃ¤t":10227,"Ġwest":10228,"ĠMassen":10229,"ĠEff":10230,"ĠfÃ¼rs":10231,"Ġherange":10232,"ĠweiÃŁes":10233,"ĠKÃ¼sten":10234,"Ġversammelt":10235,"Ġmusterte":10236,"ĠTelegramm":10237,"rand":10238,"ĠBucht":10239,"verh":10240,"Ġvollem":10241,"ĠflÃ¼ster":10242,"Ġdrohend":10243,"ble":10244,"oz":10245,"Ġletztes":10246,"ĠNest":10247,"geschoben":10248,"Ġgeboten":10249,"ĠBeginn":10250,"offeln":10251,"Ġschwiegen":10252,"Ġgesteckt":10253,"ĠÃĸl":10254,"ball":10255,"swert":10256,"upp":10257,"ĠkÃ¼r":10258,"ĠKont":10259,"ĠZehn":10260,"Ġklagen":10261,"ĠschlÃ¤ft":10262,"ĠUniform":10263,"ĠertÃ¶nte":10264,"Ġnett":10265,"Ġferne":10266,"seher":10267,"Ġenthalten":10268,"freundlich":10269,"ĠOtho":10270,"orsam":10271,"Ġgrad":10272,"Ġlinke":10273,"regeln":10274,"ĠgehÃ¼llt":10275,"schaftlich":10276,"Stein":10277,"enkten":10278,"Ġedler":10279,"windigkeit":10280,"Per":10281,"ĠWester":10282,"Ġpo":10283,"ĠEinfall":10284,"ĠStrogoff":10285,"ĠNeffen":10286,"ĠAdvok":10287,"ĠAngelegenheiten":10288,"ĠzurÃ¼ckzukehren":10289,".)":10290,"Dabei":10291,"John":10292,"alteten":10293,"malt":10294,"Ġgehoben":10295,"ĠVorwand":10296,"ĠVorbereitungen":10297,"ĠWeiÃŁt":10298,"ĠSchwager":10299,"Ġschwier":10300,"Ġeifers":10301,"Ġbedeutete":10302,"Ġunglaub":10303,"Ġmatt":10304,"schweigen":10305,"ĠVorwurf":10306,"ĠHermann":10307,"macher":10308,"Ã¶ll":10309,"ĠGÃ¶tt":10310,"Ġdaselbst":10311,"Ġsteigt":10312,"ĠzurÃ¼ckkehrte":10313,"vollkommen":10314,"ĠStud":10315,"ĠFuÃŁboden":10316,"fÃ¤llt":10317,"Ġgebraucht":10318,"Ġmi":10319,"Ġharte":10320,"benteuer":10321,"ĠÃ¼berdies":10322,"adeln":10323,"Schnell":10324,"geschossen":10325,"arrten":10326,"ĠmÃ¶glichen":10327,"Ġniedrigen":10328,"ĠUnsere":10329,"Platz":10330,"schuh":10331,"alis":10332,"ĠFuchs":10333,"ĠspÃ¼rte":10334,"ĠSalz":10335,"Brief":10336,"ĠSitten":10337,"ĠErbe":10338,"Ġumzu":10339,"Ã¶nnt":10340,"itzten":10341,"fÃ¼rcht":10342,"ĠhauptsÃ¤chlich":10343,"bereiten":10344,"ĠFell":10345,"Ġaufgestanden":10346,"Ġraschen":10347,"ĠVersammlung":10348,"ĠKÃ¼chen":10349,"ĠSÃ¼nden":10350,"Ã¼chtigen":10351,"Ġerkundigte":10352,"Ġgegenseitig":10353,"kunst":10354,"Ġgeliebten":10355,"hlte":10356,"ĠSergeant":10357,"ĠGun":10358,"denkt":10359,"ĠKrei":10360,"ĠCann":10361,"ĠpaÃŁte":10362,"ĠHerd":10363,"ĠManchmal":10364,"ĠFlug":10365,"konnten":10366,"Ġfalschen":10367,"Ġentsetzlich":10368,"Heim":10369,"ĠzÃ¤r":10370,"ĠbÃ¶s":10371,"ĠBay":10372,"Ġunwider":10373,"ickel":10374,"Ġwehte":10375,"traft":10376,"ĠIrrtum":10377,"schÃ¶ne":10378,"ĠMienen":10379,"ĠDonn":10380,"Ġunbes":10381,"zufÃ¼hren":10382,"erkannt":10383,"ĠgemÃ¤ÃŁ":10384,"ĠHelene":10385,"Ġbetrunken":10386,"Waldemar":10387,"Ġzart":10388,"ĠWeinen":10389,"Ġanvertrau":10390,"verz":10391,"telier":10392,"VerhÃ¤lt":10393,"Ġbesseren":10394,"Ġbestellt":10395,"ĠnÃ¤mlichen":10396,"Bild":10397,"KÃ¼":10398,"wall":10399,"ĠWange":10400,"Ġwarte":10401,"Ġwarteten":10402,"leitet":10403,"llenden":10404,"Bewegung":10405,"Ã¼lfe":10406,"ĠgehÃ¶rten":10407,"BÃ¼rger":10408,"Ġgelbe":10409,"ĠSchlimm":10410,"Ġirre":10411,"zahlt":10412,"See":10413,"ĠThron":10414,"Ġgebrauchen":10415,"ĠPulver":10416,"Ul":10417,"iken":10418,"jÃ¤ger":10419,"Ã¼cher":10420,"ĠSagen":10421,"ĠAkten":10422,"zumachen":10423,"ĠtÃ¤uschen":10424,"illes":10425,"ĠHohen":10426,"Ġirgendeine":10427,"ĠGrÃ¼nden":10428,"ĠEntscheidung":10429,"ĠSankt":10430,"gewei":10431,"ÃŁend":10432,"ĠGur":10433,"ĠWÃ¤chter":10434,"Ġlud":10435,"ĠKilo":10436,"ison":10437,"Ġper":10438,"obte":10439,"hinunter":10440,"Ġblenden":10441,"Ġbedurfte":10442,"wohnen":10443,"ĠBaronin":10444,"schwarz":10445,"kadem":10446,"Kon":10447,"ecken":10448,"sollen":10449,"erfÃ¼":10450,"Ġzugrunde":10451,"Ġstre":10452,"verhÃ¤lt":10453,"ĠfrÃ¼hen":10454,"Ġrauchen":10455,"Ã¤sar":10456,"Ġmus":10457,"Ġles":10458,"Ġbeider":10459,"ahll":10460,"barten":10461,"ĠMarg":10462,"ĠStudenten":10463,"ĠFreiherr":10464,"Ġfind":10465,"ĠlÃ¶":10466,"Ġversen":10467,"ĠAnschein":10468,"ĠCan":10469,"Ġangelegt":10470,"organ":10471,"Ġdroben":10472,"ĠEigentum":10473,"ĠfranzÃ¶sische":10474,"ĠSchlosses":10475,"vard":10476,"viele":10477,"testen":10478,"urften":10479,"Ġverrie":10480,"ĠGerv":10481,"Ġgewaltige":10482,"Gu":10483,"ior":10484,"Ġsau":10485,"ĠBist":10486,"Ġverletzt":10487,"ĠAlters":10488,"ĠEvel":10489,"Ġmancherlei":10490,"arben":10491,"Ġgreifen":10492,"rechte":10493,"halts":10494,"blÃ¤tter":10495,"Ġbewahren":10496,"Ġirgendein":10497,"ĠFÃ¤lle":10498,"ĠTrÃ¼mmer":10499,"ĠSaccard":10500,"ĠSÃ©":10501,"beob":10502,"Ġbestimmen":10503,"ĠProzeÃŁ":10504,"ĠBettler":10505,"ĠSÃ¤ulen":10506,"Tro":10507,"ĠAndenken":10508,"Ġanger":10509,"hinzu":10510,"Ġdringend":10511,"Ġvermut":10512,"unsere":10513,"Ġletztere":10514,"ĠStÃ¤rke":10515,"Hol":10516,"Not":10517,"hmet":10518,"Ġbeendet":10519,"liefer":10520,"ĠSchlage":10521,"Ġinteressiert":10522,"ĠApothe":10523,"Bur":10524,"Gro":10525,"zo":10526,"zigtausend":10527,"Ġhung":10528,"ĠDra":10529,"ĠDeinem":10530,"Ġmitunter":10531,"eugnen":10532,"Ġrede":10533,"Ġerstaun":10534,"Ġlautlos":10535,"Ġtraurige":10536,"Ġexist":10537,"ĠReue":10538,"pra":10539,"Ġmischte":10540,"Ġeingeb":10541,"Ġderart":10542,"Ġverhalten":10543,"Ġwolltest":10544,"Ġbereitet":10545,"gemach":10546,"Ġfolgt":10547,"ĠEnkel":10548,"ĠÃ¤uÃŁerte":10549,"Seele":10550,"ĠPflanzen":10551,"anie":10552,"ĠSeiner":10553,"etzung":10554,"Ġstat":10555,"Ġliegenden":10556,"Schlaf":10557,"ĠdrÃ¼cken":10558,"ĠKlar":10559,"gestad":10560,"ĠStudien":10561,"ĠWillst":10562,"unzelte":10563,"ĠLampen":10564,"GrÃ¼":10565,"Hin":10566,"mach":10567,"agn":10568,"Ġstimmt":10569,"adac":10570,"ĠZuerst":10571,"ĠLeichn":10572,"ausenden":10573,"leudert":10574,"ĠPersÃ¶nlichkeit":10575,"Richt":10576,"uder":10577,"rechten":10578,"ĠstoÃŁen":10579,"kannter":10580,"Ġlauten":10581,"ĠMonte":10582,"Ġspielten":10583,"Ġelend":10584,"ĠDankbarkeit":10585,"ĠKerzen":10586,"Ton":10587,"kennen":10588,"andal":10589,"ĠJap":10590,"rike":10591,"ĠLuke":10592,"ĠFriedens":10593,"turm":10594,"ĠApr":10595,"Ġkopf":10596,"ĠButter":10597,"ĠWann":10598,"ĠTop":10599,"ehrung":10600,"Ġklin":10601,"hauer":10602,"ĠPerlen":10603,"ĠGrauen":10604,"ĠbemÃ¼ht":10605,"ĠWahn":10606,"umher":10607,"Ġbesorgen":10608,"Ġhierauf":10609,"Ġbrauchst":10610,"euchter":10611,"ymn":10612,"busch":10613,"ĠEitelkeit":10614,"Bett":10615,"Jeden":10616,"kÃ¶rper":10617,"llend":10618,"ĠDegen":10619,"ĠWim":10620,"ĠWendung":10621,"ĠLeucht":10622,"ĠJen":10623,"Ġgehst":10624,"ĠBefriedigung":10625,"gewand":10626,"Ġbraune":10627,"zieh":10628,"Ã¶pfchen":10629,"Ġerwarte":10630,"gesteckt":10631,"ex":10632,"ucken":10633,"Ã¦":10634,"ĠKeiner":10635,"ĠViele":10636,"Ã¶nen":10637,"ĠVerg":10638,"Ġberichten":10639,"ĠHope":10640,"ĠZucker":10641,"Ġfrommen":10642,"ĠSuppe":10643,"Blut":10644,"ĠMÃ¤rz":10645,"ĠTerrasse":10646,"ĠKommissar":10647,"ptember":10648,"saÃŁ":10649,"Ġgal":10650,"ĠScheiben":10651,"ĠGraben":10652,"Ġbetrogen":10653,"flichen":10654,"hag":10655,"ordnet":10656,"ĠWohnzimmer":10657,"bi":10658,"Ġsa":10659,"Ġlernte":10660,"Ã¤ler":10661,"sichtigen":10662,"ĠHÃ¶flichkeit":10663,"ĠChaus":10664,"Ã¤hern":10665,"ĠGefangene":10666,"Ġlenkte":10667,"ĠschÃ¤r":10668,"ĠBerÃ¼hrung":10669,"Ġerwidern":10670,"ĠsÃ¼ÃŁe":10671,"ĠerrÃ¶tete":10672,"Blei":10673,"Offiz":10674,"Ġhindern":10675,"Ġgott":10676,"ĠStrande":10677,"ĠKapitÃ¤ns":10678,"Ġgeheiratet":10679,"Gar":10680,"Mel":10681,"ĠmÃ¤ÃŁ":10682,"ĠMort":10683,"ĠBour":10684,"orenen":10685,"glÃ¼ckt":10686,"ĠgrÃ¼ndlich":10687,"ĠTote":10688,"ĠNoth":10689,"Ġgemeinsam":10690,"Ġbrennenden":10691,"ĠNeugierde":10692,"Brust":10693,"Ġsogenannten":10694,"Klo":10695,"ĠWern":10696,"ĠKul":10697,"ĠSprung":10698,"Ġchines":10699,"Ġblonde":10700,"Ġbehauptet":10701,"Ġgehorchen":10702,"ĠPistole":10703,"Holz":10704,"ban":10705,"eiche":10706,"ĠGriechen":10707,"ĠHÃ¤":10708,"eux":10709,"Ġvorbereitet":10710,"locke":10711,"ady":10712,"Ster":10713,"Ġwid":10714,"ĠTiger":10715,"Ġtre":10716,"ĠVerf":10717,"ĠVorhaben":10718,"niemals":10719,"Frem":10720,"ĠTakt":10721,"versitÃ¤t":10722,"Ġbrav":10723,"atri":10724,"Schatten":10725,"Ġbereitete":10726,"ĠSchulmeister":10727,"ĠAdler":10728,"schrank":10729,"ĠTrompe":10730,"lÃ¶sen":10731,"terin":10732,"ĠrÃ¤chen":10733,"bringt":10734,"Schwei":10735,"ĠLieder":10736,"ĠEigenschaften":10737,"ĠRosa":10738,"ĠfleiÃŁig":10739,"ĠSahib":10740,"ĠEntzÃ¼cken":10741,"Ġblies":10742,"ĠBack":10743,"Ġredet":10744,"menden":10745,"ĠGewinn":10746,"Ġerfreu":10747,"herren":10748,"freilich":10749,"ĠÃ¼brige":10750,"ĠMatrose":10751,"sachen":10752,"ÃŁliche":10753,"ĠbÃ¼rger":10754,"ĠKragen":10755,"sehe":10756,"steller":10757,"schafter":10758,"ogg":10759,"ĠGesichtern":10760,"itterten":10761,"Sei":10762,"ec":10763,"eisten":10764,"âĢĶ":10765,"Ġgewollt":10766,"Ġtrau":10767,"ĠgerÃ¤usch":10768,"ĠPfad":10769,"fallend":10770,"Ġecht":10771,"ĠFlaschen":10772,"ĠGemÃ¼":10773,"mitteln":10774,"schule":10775,"ĠnÃ¼tzlich":10776,"einzu":10777,"schirm":10778,"steher":10779,"ĠArz":10780,"Schne":10781,"ĠPflaster":10782,"echs":10783,"ĠNachts":10784,"ĠerfaÃŁt":10785,"ĠLieblings":10786,"Beim":10787,"namen":10788,"Ġ9":10789,"Ġschim":10790,"leg":10791,"Ġtrag":10792,"Ġzweier":10793,"Ã¶lbe":10794,"Ġtreuen":10795,"ĠKerle":10796,"Ġehemaligen":10797,"Fest":10798,"Mart":10799,"gasse":10800,"Ġkosten":10801,"ĠVerhalten":10802,"riÃŁ":10803,"Ġunbekannt":10804,"wiederte":10805,"Ġherrliche":10806,"Ġleuchtenden":10807,"Seiten":10808,"glaube":10809,"rang":10810,"ĠsÃ¤he":10811,"stlichen":10812,"arre":10813,"ĠMargar":10814,"ĠFlag":10815,"Ġgestand":10816,"Ġstarren":10817,"ĠZeuge":10818,"ĠtrÃ¼ben":10819,"ĠSeligkeit":10820,"ĠGebÃ¼sch":10821,"Zusammen":10822,"ringen":10823,"inc":10824,"Ġdam":10825,"traten":10826,"ĠComm":10827,"gelesen":10828,"ĠPflege":10829,"ĠvÃ¶ll":10830,"ĠTirol":10831,"Ġerbe":10832,"Ġerwiesen":10833,"Ġalledem":10834,"Ġentlassen":10835,"ĠIns":10836,"Ġsolltest":10837,"ĠProbe":10838,"niedr":10839,"handeln":10840,"porter":10841,"itÃ¤ten":10842,"Ġfarb":10843,"ĠFeste":10844,"Ġaufnehmen":10845,"ĠSche":10846,"Ġjagen":10847,"beim":10848,"ĠReeder":10849,"fÃ¼rsten":10850,"Ġruhige":10851,"ĠJacqu":10852,"Gelegenheit":10853,"ĠplÃ¶tzlichen":10854,"ĠRÃ¤der":10855,"Ġatemlos":10856,"orderung":10857,"ĠAer":10858,"Ġverhe":10859,"ruhr":10860,"Ġklagte":10861,"Ġselig":10862,"ĠFlÃ¤che":10863,"euchtung":10864,"Ġschnellen":10865,"mÃ¤chtigen":10866,"xan":10867,"ĠSchmutz":10868,"brett":10869,"Ġabgesehen":10870,"interess":10871,"langte":10872,"ĠQuartier":10873,"ĠRauschen":10874,"Ġscharfe":10875,"rowitsch":10876,"tÃ¼mlich":10877,"Ġgeholt":10878,"ĠspÃ¶ttisch":10879,"sf":10880,"Ã¯":10881,"Ġmann":10882,"Ã¤mm":10883,"ĠStab":10884,"achtel":10885,"Ġschweben":10886,"zeichnung":10887,"ĠTalent":10888,"Ġanfing":10889,"ĠDamals":10890,"upf":10891,"Ġdehn":10892,"arzt":10893,"gesellen":10894,"Ġgenossen":10895,"ĠDoug":10896,"Ġ16":10897,"Ġernstlich":10898,"Ġworan":10899,"Ġwirklichen":10900,"leppt":10901,"ĠGesprÃ¤che":10902,",âĢ¹":10903,"Ġzugeben":10904,"Ġkund":10905,"ĠEingeborenen":10906,"hauffe":10907,"ĠfÃ¼hre":10908,"krank":10909,"Ġbenutzen":10910,"ĠBriant":10911,"Sohn":10912,"verstand":10913,"Ġbesinnen":10914,"ĠFelix":10915,"ĠUrlaub":10916,"ĠTaschentuch":10917,"Tages":10918,"ĠErkenntnis":10919,"ĠSimon":10920,"Ġbefriedigt":10921,"ĠLuxus":10922,"And":10923,"ox":10924,"estes":10925,"ĠEnergie":10926,"ĠgewÃ¤hren":10927,"gelernt":10928,"ĠRechen":10929,"ĠDeutsch":10930,"Zwischen":10931,"ĠSturz":10932,"Ġjedermann":10933,"stÃ¼rzen":10934,"grÃ¶ÃŁer":10935,"brecht":10936,"yen":10937,"ĠSehr":10938,"Ġverderben":10939,"Ġteilen":10940,"ĠKlugheit":10941,"itzenden":10942,"Ġschwarzer":10943,"Ã¼ttelt":10944,"Wohin":10945,"Ġzitternden":10946,"ĠMagister":10947,"ĠArbeitszimmer":10948,"ĠMunro":10949,"Lang":10950,"Ġdauern":10951,"Ġmechan":10952,"ĠMam":10953,"ĠVerse":10954,"ĠVerzeihung":10955,"Ġglaubst":10956,"ungskraft":10957,"akte":10958,"umente":10959,"echselt":10960,"Ġprakt":10961,"Freunde":10962,"Lieb":10963,"Ġwort":10964,"Ġfalls":10965,"ĠKlage":10966,"ĠKultur":10967,"dieu":10968,"ĠSprechen":10969,"eigenen":10970,"ions":10971,"ĠBlume":10972,"Ġirren":10973,"ĠThema":10974,"zehnten":10975,"gnes":10976,"ĠBerliner":10977,"ĠerschÃ¼ttert":10978,"ĠTartarin":10979,"Bel":10980,"cl":10981,"ĠSumpf":10982,"ĠAth":10983,"ĠHeiden":10984,"Ġspiegel":10985,"blumen":10986,"Ġnebst":10987,"Ġempfunden":10988,"Ġunbew":10989,"ĠGrube":10990,"ĠVerloc":10991,"ĠgewissermaÃŁen":10992,"stÃ¤tte":10993,"ĠHy":10994,"ĠLÃ¤nder":10995,"Ġentsprechen":10996,"vorher":10997,"lÃ¼nder":10998,"Ġblassen":10999,"ĠBure":11000,"Ġsonderbare":11001,"Lippen":11002,"osa":11003,"Still":11004,"ĠbrÃ¼llte":11005,"ĠzÃ¤hlen":11006,"Keine":11007,"ĠAk":11008,"Ġfrucht":11009,"Ġsieg":11010,"gestr":11011,"izz":11012,"perte":11013,"nachdem":11014,"ĠsÃ¼ÃŁen":11015,"Ġtreue":11016,"ĠEntschuldigung":11017,"Allerdings":11018,"Ġanstatt":11019,"ĠPad":11020,"verstehen":11021,"Ġbrachen":11022,"ammelt":11023,"ĠZwang":11024,"ĠExistenz":11025,"ĠPartie":11026,"Ġstreifte":11027,"Car":11028,"wal":11029,"amte":11030,"Ġjahr":11031,"angst":11032,"Ã¶rten":11033,"Ġgehandelt":11034,"rÃ¤umen":11035,"ĠReis":11036,"Ġsanften":11037,"ĠAgathe":11038,"!!Â«":11039,"Acht":11040,"dun":11041,"ĠCafÃ©":11042,"ĠkÃ¼hnen":11043,"Ġverschwanden":11044,"ĠGesetze":11045,"ĠBibliothek":11046,"guten":11047,"ĠTim":11048,"ĠkÃ¼mmer":11049,"Ġbeinah":11050,"fielen":11051,"Ġstrengen":11052,"lingen":11053,"engl":11054,"schar":11055,"Ġaufrichtig":11056,"ĠTasse":11057,"ĠRenn":11058,"brÃ¼ch":11059,"seligkeit":11060,"Ġabger":11061,"falle":11062,"Ġbeleidigt":11063,"ĠFreien":11064,"rediger":11065,"getroffen":11066,"Ġphantast":11067,"Ġwirkliche":11068,"Ġschluchzte":11069,"Person":11070,"jestÃ¤t":11071,"well":11072,"ĠSchub":11073,"Ġjagte":11074,"ilett":11075,"Ġgeschossen":11076,"vorbei":11077,"ĠUnternehm":11078,"ĠLebe":11079,"ĠkÃ¤mpfte":11080,"ĠServadac":11081,"ĠBÃ¼ndel":11082,"ĠBeschÃ¤ftigung":11083,"Ras":11084,"iol":11085,"endete":11086,"ĠkÃ¼hlen":11087,"leise":11088,"Ġweiche":11089,"Ġentflo":11090,"gebÃ¤ude":11091,"Ġhinterher":11092,"idt":11093,"ĠZigarette":11094,"Teufel":11095,"kos":11096,"strom":11097,"ĠSharp":11098,"ĠTausend":11099,"ĠTÃ¤nzer":11100,"rate":11101,"apel":11102,"ĠPforte":11103,"Allein":11104,"ĠLisei":11105,"ĠArnold":11106,"Ad":11107,"wolken":11108,"ĠRufe":11109,"Verd":11110,"ĠÃ¤rgerte":11111,"sil":11112,"iege":11113,"ĠGÃ¤rten":11114,"ĠEp":11115,"ĠNutzen":11116,"Ġklangen":11117,"ĠGespenst":11118,"Ġanderem":11119,"Ġschauten":11120,"Weise":11121,"ĠBesucher":11122,"ĠÃ¶ffentlichen":11123,"Lord":11124,"ĠmÃ¼r":11125,"Ġnamen":11126,"unn":11127,"ĠDunst":11128,"Ã¤chs":11129,"Ġfrag":11130,"Ġeilten":11131,"ĠNachbarschaft":11132,"ĠgenÃ¼gte":11133,"Ġverwandelt":11134,"port":11135,"Ġerzogen":11136,"onisten":11137,"bers":11138,"ĠMur":11139,"ĠKie":11140,"indlichen":11141,"neter":11142,"menge":11143,"Ã¤chtiges":11144,"ĠsÃ¼d":11145,"Ġstolze":11146,"ĠVerbeugung":11147,"ĠMus":11148,"ierter":11149,"ierde":11150,"ĠÃ¼bergeben":11151,"Ġhinan":11152,"ĠHoffmann":11153,"ĠOffenbar":11154,"Ġwinz":11155,"ĠfloÃŁ":11156,"Ġkathol":11157,"ĠKÃ¤m":11158,"Ġmitzut":11159,"ĠPack":11160,"Ġstot":11161,"Ġgewandt":11162,"ĠEinrichtung":11163,"ĠKlub":11164,"Ġherauszu":11165,"langt":11166,"Ġverhindern":11167,"grÃ¼nen":11168,"Ġwuch":11169,"aste":11170,"ĠHirn":11171,"sens":11172,"ĠStÃ¼hle":11173,"ĠgehÃ¶re":11174,"inna":11175,"gebunden":11176,"Ã¤mlich":11177,"ĠSchulden":11178,"ĠÃ¤uÃŁeren":11179,"Woher":11180,"Graf":11181,"ĠSchicksals":11182,"Jung":11183,"bÃ¼ch":11184,"herbei":11185,"ĠOce":11186,"ĠwÃ¤hlen":11187,"ĠWeite":11188,"ĠLuise":11189,"ĠBesinnung":11190,"ĠgestÃ¼rzt":11191,"ĠGeheimrat":11192,"Ġangesichts":11193,"Ġhernieder":11194,"mend":11195,"ĠWunden":11196,"andid":11197,"Ġweisen":11198,"liefen":11199,"werben":11200,"Einer":11201,"Ġsammeln":11202,"ĠAspasia":11203,"ĠgrÃ¶ÃŁter":11204,"Ã¼sse":11205,"Ġpaarmal":11206,"Ġwiederholen":11207,"ĠBitten":11208,"ĠEid":11209,"ĠFau":11210,"reÃŁ":11211,"ĠVersteck":11212,"ĠGegenden":11213,"ĠLeon":11214,"ĠStÃ¼ckchen":11215,"ĠScott":11216,"ĠAndreas":11217,"ĠKommando":11218,"ĠKollegen":11219,"karte":11220,"orne":11221,"ĠfÃ¤ngt":11222,"ĠkÃ¼nst":11223,"ernst":11224,"etwillen":11225,"Ã¼hrte":11226,"ĠSchluchzen":11227,"ardin":11228,"zurichten":11229,"ĠGegensatz":11230,"sinnigen":11231,"viertel":11232,"ĠHintergrund":11233,"Ġ\"":11234,"Ġwes":11235,"genau":11236,"orr":11237,"erkannte":11238,"anta":11239,"oldaten":11240,"amme":11241,"stehende":11242,"ĠRome":11243,"ymb":11244,"WeiÃŁ":11245,"manden":11246,"ĠBade":11247,"lichte":11248,"irg":11249,"ĠschrÃ¤":11250,"ĠHandlung":11251,"weniger":11252,"zahlen":11253,"ĠgefÃ¤hrlichen":11254,"Ġarmes":11255,"ĠSignor":11256,"ĠArnheim":11257,"wor":11258,"stin":11259,"Ġgib":11260,"Ġwarme":11261,"leiche":11262,"ĠWeiÃŁen":11263,"felder":11264,"spricht":11265,"ĠverhÃ¤lt":11266,"ĠFriede":11267,"ĠBarbicane":11268,"akt":11269,"ereien":11270,"steig":11271,"ĠSult":11272,"ĠGange":11273,"ĠGulden":11274,"Ġverbeugte":11275,"ĠkÃ¶nntest":11276,"tags":11277,"abrik":11278,"Ġbunte":11279,"Ã¶stete":11280,"Garten":11281,"Trau":11282,"Ġachtete":11283,"ĠGol":11284,"ĠBab":11285,"Ġbesessen":11286,"ĠSpion":11287,"spÃ¤ter":11288,"ĠZuschauer":11289,"ĠtrÃ¼be":11290,"kleidung":11291,"kenn":11292,"ĠzÃ¼r":11293,"inett":11294,"eldet":11295,"ĠGlied":11296,"Ġanst":11297,"ĠErfÃ¼llung":11298,"ĠSaale":11299,"ĠDecken":11300,"ĠentschloÃŁ":11301,"heiÃŁ":11302,"Ġschreit":11303,"ĠAnnemar":11304,"ĠnatÃ¼rlichen":11305,"Familie":11306,"tschaft":11307,"Ãł":11308,"Ã¤ÃŁt":11309,"Ġbildet":11310,"achter":11311,"ĠAss":11312,"Ġschenkte":11313,"leider":11314,"ĠtÃ¼chtig":11315,"Ġ12":11316,"ĠbloÃŁen":11317,"ĠTaler":11318,"ĠWildnis":11319,"ĠMilitÃ¤r":11320,"Ġsichtlich":11321,"eigneur":11322,"Ot":11323,"einfach":11324,"igin":11325,"ĠZo":11326,"ĠCa":11327,"warum":11328,"ĠBefrei":11329,"imon":11330,"Ġgelingen":11331,"ĠVerrÃ¤ter":11332,"Ġvornehme":11333,"bilder":11334,"Ġnannten":11335,"ĠHilde":11336,"ĠRiv":11337,"ĠPaÃŁ":11338,"Ġwiedersehen":11339,"Ã¤rmer":11340,"gesunken":11341,"undete":11342,"ĠPflichten":11343,"ĠAbsichten":11344,"ĠAugenblicken":11345,"forschungen":11346,"Ġrascher":11347,"Gestalt":11348,"Ruhe":11349,"Kunst":11350,"jagen":11351,"Ġerwiederte":11352,"Ġaufsteigen":11353,"Ġstirbt":11354,"ĠzurÃ¼ckgezogen":11355,"ĠVormittag":11356,"ĠFront":11357,"naben":11358,"aschine":11359,"Ġebensowenig":11360,"jenige":11361,"ĠScotland":11362,"ĠWelche":11363,"ĠBalken":11364,"Gast":11365,"ĠEichen":11366,"ĠRollen":11367,"ĠtÃ¼rk":11368,"Ġgefr":11369,"imir":11370,"tworten":11371,"gemÃ¤ÃŁ":11372,"ĠBegrÃ¼":11373,"wÃ¼rdigkeit":11374,"iums":11375,"ĠhartnÃ¤ck":11376,"herzigkeit":11377,"Ġblutigen":11378,"ĠFerdinand":11379,"We":11380,"stÃ¼cken":11381,"glanz":11382,"geschÃ¤ft":11383,"ĠTritt":11384,"ĠgewÃ¶hnliche":11385,"Ġkomisch":11386,"schÃ¼ttelnd":11387,"Deine":11388,"feu":11389,"sagt":11390,"Ġdichter":11391,"Ġwundern":11392,"Ã¶ÃŁt":11393,"ĠGlaube":11394,"ĠZiele":11395,"ĠVersicher":11396,"ĠFreundinnen":11397,"ĠprÃ¤chtigen":11398,"gewÃ¶hnlich":11399,"ĠgenÃ¼gend":11400,"ĠOhnmacht":11401,"bro":11402,"mag":11403,"Ġfeuchten":11404,"ĠRast":11405,"Ġklingen":11406,"Ġstellten":11407,"ĠzurÃ¼ckhalten":11408,"meer":11409,"Ġbeteil":11410,"Ġsechzig":11411,"ĠEmp":11412,"marck":11413,"Ġinnerhalb":11414,"ĠAtmosphÃ¤re":11415,"Ġbreitete":11416,"farbe":11417,"ĠVerstÃ¤ndnis":11418,"ĠSophie":11419,"General":11420,"bat":11421,"wÃ¤nde":11422,"ĠAcker":11423,"ĠSchaf":11424,"Ġmeinetwegen":11425,"barm":11426,"ĠDafÃ¼r":11427,"hauen":11428,"Ġenge":11429,"Antwort":11430,"ĠGroÃŁe":11431,"Ġstiller":11432,"Ġdeutlicher":11433,"Ġgewaltig":11434,"Ġsanfte":11435,"ĠzerstÃ¶rt":11436,"telligen":11437,"ĠToilette":11438,"steine":11439,"ĠSus":11440,"schlÃ¼":11441,"ĠMer":11442,"ĠMÃ¼hle":11443,"ĠÃ¼berflÃ¼":11444,"ĠBranntwein":11445,"ĠGebieter":11446,"Ã¼bchen":11447,"darin":11448,"Ġaufgegeben":11449,"ĠRedner":11450,"ĠplÃ¶tzliche":11451,"aucht":11452,"ĠHom":11453,"Ġmittel":11454,"Ġbedenken":11455,"Ġschwachen":11456,"iffe":11457,"gemessen":11458,"ĠlÃ¤ngere":11459,"fahrer":11460,"ĠregelmÃ¤ÃŁig":11461,"ĠThomas":11462,"wolle":11463,"ĠbÃ¼ckte":11464,"ischten":11465,"ĠGefolge":11466,"ĠbetrÃ¤cht":11467,"ĠStudent":11468,"Ġbedarf":11469,"ĠPhilosoph":11470,"mÃ¼tige":11471,"Ã¨re":11472,"Ġpeinlich":11473,"ĠSpaziergang":11474,"Ġkaiser":11475,"emmt":11476,"Ġgriech":11477,"Ġverwundet":11478,"Ġzerschm":11479,"Ġbenutzt":11480,"ĠUnglÃ¼cks":11481,"Ġsitz":11482,"ĠBeu":11483,"Ġlu":11484,"ĠFunken":11485,"Ã¼rfen":11486,"beu":11487,"mmerzien":11488,"ĠAusfÃ¼hrung":11489,"Ġdrangen":11490,"gard":11491,"rechung":11492,"rrt":11493,"Ġerweisen":11494,"ĠAffen":11495,"alische":11496,"olzen":11497,"ĠJemand":11498,"otima":11499,"Ġtrage":11500,"ĠDieb":11501,"klagte":11502,"Ġeigentliche":11503,"atzung":11504,"Ġzerbrochen":11505,"Ġschneiden":11506,"Ġ20":11507,"Ġverpflichtet":11508,"ostet":11509,"Ġaufgew":11510,"ĠLÃ¶sung":11511,"Ġbeabsicht":11512,"zender":11513,"Ã¼nste":11514,"Ġgelb":11515,"Ġschlanke":11516,"ĠAdam":11517,"ĠAbente":11518,"Ġgeholfen":11519,"jor":11520,"mÃ¤nner":11521,"rem":11522,"Ġunber":11523,"ĠÃ¼berlieÃŁ":11524,"ĠklÃ¼":11525,"hinÃ¼ber":11526,"scheint":11527,"astrophe":11528,"lernen":11529,"Ġeilen":11530,"ndem":11531,"dell":11532,"ĠCam":11533,"hinab":11534,"ĠWeiden":11535,"ĠSeptember":11536,"Ġtiefes":11537,"Ġfreundliche":11538,"ĠMiÃŁtrauen":11539,"kette":11540,"Ġfix":11541,"ĠBom":11542,"ĠEkel":11543,"ĠKÃ¶pfen":11544,"reÃŁt":11545,"olten":11546,"ĠJens":11547,"ĠUngeheuer":11548,"ĠRegel":11549,"ĠKlippen":11550,"ardon":11551,"Ġfreud":11552,"ĠnÃ¶tigen":11553,"gebirge":11554,"ylle":11555,"angel":11556,"pfeln":11557,"Sta":11558,"Ġschwerlich":11559,"Ġunbeg":11560,"ĠNotar":11561,"ĠhÃ¼bsches":11562,"tienne":11563,"Ġtodt":11564,"Ġbezw":11565,"Ġentt":11566,"Ġseinerseits":11567,"Ġbraven":11568,"bÃ¤umen":11569,"drauÃŁen":11570,"utsam":11571,"etwa":11572,"Ġmalen":11573,"Ġzerf":11574,"ĠEdward":11575,"ĠÃ¶fters":11576,"bilden":11577,"sÃ¼":11578,"sin":11579,"Ġeingenommen":11580,"Ġzerk":11581,"ichtigen":11582,"ĠScht":11583,"ĠSchÃ¤tze":11584,"weist":11585,"Ã¤ndigen":11586,"Ġgerecht":11587,"quart":11588,"Ange":11589,"folger":11590,"ĠstieÃŁen":11591,"ĠWozu":11592,"Ġaufzusuchen":11593,"Ġzitterten":11594,"ĠFlecken":11595,"eligi":11596,"ĠKÃ¶rpers":11597,"ĠApril":11598,"Ã¤sse":11599,"Ġkehrten":11600,"ĠNasen":11601,"Ġausgef":11602,"ĠCib":11603,"Ġtapf":11604,"biÃŁ":11605,"feind":11606,"jÃ¼n":11607,"ĠmÃ¤chtiger":11608,"ĠKrug":11609,"ĠZwer":11610,"ĠAnstand":11611,"ĠSport":11612,"ĠNeffe":11613,"ĠFranzÃ¶s":11614,"Ġgelegentlich":11615,"ĠMosk":11616,"Freude":11617,"miÃŁ":11618,"ĠhÃ¤us":11619,"inste":11620,"icklung":11621,"geschrei":11622,"Ġerscholl":11623,"ĠBlute":11624,"ĠGenugt":11625,"ĠTrennung":11626,"ĠZwecke":11627,"Ġsilbernen":11628,"iver":11629,"tÃ¤uschung":11630,"ago":11631,"weite":11632,"Ġbefestigt":11633,"Dank":11634,"hÃ¤lter":11635,"idr":11636,"Ġsangen":11637,"Ġgi":11638,"ĠWitt":11639,"chezza":11640,"herunter":11641,"spiele":11642,"ession":11643,"wohnern":11644,"ĠberÃ¼hren":11645,"ĠgÃ¼nstig":11646,"erwiderte":11647,"iat":11648,"masse":11649,"ĠschÃ¤mte":11650,"Ã¤rte":11651,"ĠSpiele":11652,"Ġgestatten":11653,"Ġgeduldig":11654,"ĠgetrÃ¤umt":11655,"Ġunerme":11656,"Ausdruck":11657,"atteras":11658,"skiy":11659,"Fle":11660,"kut":11661,"Ġeuer":11662,"ĠSicht":11663,"Ġeingeladen":11664,"ĠNim":11665,"laubst":11666,"ĠgeflÃ¼":11667,"Ġeigentlichen":11668,"Ġfeiern":11669,"ĠKabine":11670,"Ġerloschen":11671,"Ġaufgestellt":11672,"bekannt":11673,"klein":11674,"fteten":11675,"Ġerreichten":11676,"ĠdÃ¼steren":11677,"minal":11678,"ĠGemahlin":11679,"hauffeur":11680,"Reise":11681,"iant":11682,"ziger":11683,"ĠNichte":11684,"ĠVergleich":11685,"seltsam":11686,"ĠpreuÃŁ":11687,"haten":11688,"flut":11689,"ĠLeere":11690,"Ġverstehst":11691,"ĠPortier":11692,"ilson":11693,"ĠDummheit":11694,"ĠKerker":11695,"ĠHaupte":11696,"ĠExpedition":11697,"ĠAfrika":11698,"han":11699,"pal":11700,"Ġwischte":11701,"ston":11702,"arbeiter":11703,"ĠTrei":11704,"Ġbewir":11705,"Ġzweites":11706,"ĠgefÃ¼":11707,"Ġbrennt":11708,"ĠHausfrau":11709,"Ã¶ffnet":11710,"ĠEntr":11711,"Ġhebt":11712,"Ġbedacht":11713,"ĠFrÃ¼chte":11714,"graben":11715,"ĠVictor":11716,"York":11717,"lasse":11718,"stille":11719,"ĠSich":11720,"ĠKiste":11721,"ands":11722,"ĠNana":11723,"ĠZwar":11724,"ĠCorn":11725,"zeih":11726,"Ġrom":11727,"aket":11728,"brauen":11729,"ĠBÃ¶rse":11730,"glaubte":11731,"lÃ¤u":11732,"stiegen":11733,"ĠnÃ¤hern":11734,"ĠHundert":11735,"Ġlog":11736,"ĠLumpen":11737,"ĠRiegel":11738,"ischung":11739,"Ġritter":11740,"ilus":11741,"ĠCra":11742,"fekt":11743,"gling":11744,"sack":11745,"groÃŁer":11746,"platte":11747,"sechs":11748,"Ġstundenlang":11749,"Weshalb":11750,"ufe":11751,"zerst":11752,"Ġvorgestellt":11753,"ometer":11754,"Ġkroch":11755,"ĠKriege":11756,"ildert":11757,"schnitten":11758,"ĠEhepaar":11759,"kugel":11760,"vÃ¶":11761,"ĠGend":11762,"errte":11763,"ĠVerÃ¤nderung":11764,"Ġklugen":11765,"Ġzumute":11766,"lade":11767,"Ġheftige":11768,"Bew":11769,"Ã¤ug":11770,"ĠDau":11771,"ĠKessel":11772,"Ġschief":11773,"ĠRennen":11774,"brennen":11775,"Ġpreis":11776,"holfen":11777,"ĠSchuhm":11778,"fachen":11779,"hern":11780,"Ã¤hnen":11781,"empl":11782,"ĠStat":11783,"ĠtrÃ¼b":11784,"ĠFreit":11785,"Ġverstummte":11786,"Ġschwarzes":11787,"Mehr":11788,"WÃ¼r":11789,"belt":11790,"zwar":11791,"Ġweckte":11792,"Ġbeizu":11793,"Ġunternehmen":11794,"ĠStrahl":11795,"ĠBlÃ¤ttern":11796,"spielte":11797,"Ġrauchte":11798,"ĠFremd":11799,"ĠWiderspruch":11800,"ĠkrÃ¤ftige":11801,"ĠReichs":11802,"erzÃ¤hlen":11803,"ĠEuropÃ¤er":11804,"lachte":11805,"nend":11806,"nommen":11807,"pos":11808,"Ã¤sch":11809,"Ġkraft":11810,"Ġerwacht":11811,"ĠBrille":11812,"zutage":11813,"Ġjetzigen":11814,"AuÃŁer":11815,"ĠSeinen":11816,"ĠBie":11817,"ĠPan":11818,"ĠAuÃŁen":11819,"beide":11820,"ĠAbscheu":11821,"zurufen":11822,"Mittel":11823,"Ġgekostet":11824,"Ġwecken":11825,"ĠHolm":11826,"ĠGervaise":11827,"Sobald":11828,"hall":11829,"hart":11830,"lungs":11831,"persÃ¶n":11832,"ua":11833,"inker":11834,"ĠSchilder":11835,"ish":11836,"entz":11837,"ĠSech":11838,"drang":11839,"Ġbewundern":11840,"ĠJulie":11841,"ĠergÃ¤n":11842,"ĠSchlafe":11843,"ĠFranzis":11844,"gramm":11845,"ĠMuth":11846,"ĠJuli":11847,"Ġfalsche":11848,"ĠWaverley":11849,"ĠBÃ¼chse":11850,"ĠZuhÃ¶rer":11851,"Macht":11852,"rigen":11853,"uz":11854,"zert":11855,"stigen":11856,"ĠSag":11857,"Ġbez":11858,"Ġfreiwillig":11859,"nehmend":11860,"ĠHÃ¼hner":11861,"ĠChristine":11862,"Ġwanderte":11863,"HÃ¤nden":11864,"Ġhub":11865,"Ġfahre":11866,"ĠausgefÃ¼hrt":11867,"liefern":11868,"Ġgere":11869,"Ġgemerkt":11870,"besten":11871,"ĠRausch":11872,"ĠFahne":11873,"elei":11874,"ĠGÃ¼ter":11875,"ĠFlie":11876,"ausdruck":11877,"allem":11878,"Ġunterm":11879,"Ã¤uer":11880,"kÃ¶nne":11881,"grÃ¼nde":11882,"Ġstrenge":11883,"ĠLucas":11884,"ĠRÃ¶mer":11885,"freude":11886,"Ġdat":11887,"Ġfragend":11888,"Ġmitnehmen":11889,"ĠLom":11890,"olo":11891,"leger":11892,"ĠCle":11893,"ĠSpei":11894,"ĠStrau":11895,"Ġgestiegen":11896,"Ġnebenan":11897,"Ġbeliebt":11898,"welchem":11899,"Ġausgezeichnet":11900,"deutschen":11901,"neuen":11902,"wollten":11903,"Eind":11904,"Ġ000":11905,"redet":11906,"ĠtrÃ¤umen":11907,"ĠBevÃ¶lkerung":11908,"ĠgelÃ¶st":11909,"ĠLeibes":11910,"Ġhinterlassen":11911,"ĠfÃ¼nfhundert":11912,"Ġinnig":11913,"ĠDollar":11914,"faÃŁ":11915,"iqu":11916,"onisch":11917,"Ã¶p":11918,"ĠGis":11919,"ĠHind":11920,"eilchen":11921,"Ġgeredet":11922,"Ġ14":11923,"Ġvernichtet":11924,"Ġgeheime":11925,"buben":11926,"sollten":11927,"At":11928,"gehoben":11929,"isation":11930,"ĠNetz":11931,"ĠrÃ¤tsel":11932,"Ã¤tzt":11933,"ĠObst":11934,"ndeÃŁ":11935,"ĠvollstÃ¤nd":11936,"ĠBoule":11937,"ĠÃĦuÃŁer":11938,"ĠUnglÃ¼cklichen":11939,"ĠSummen":11940,"ĠtÃ¶nte":11941,"Ġdo":11942,"ĠdÃ¤n":11943,"Ã¤ss":11944,"anna":11945,"ĠVerderben":11946,"halben":11947,"ĠAuftr":11948,"gehende":11949,"Ġbrauch":11950,"Ġstehend":11951,"Weib":11952,"ĠKomÃ¶die":11953,"ĠNachmittags":11954,"ĠKlarheit":11955,"ĠAtelier":11956,"ĠWarten":11957,"hlig":11958,"eilungen":11959,"gler":11960,"ĠRepu":11961,"Ġvierundzwanzig":11962,"Ġvernichten":11963,"ĠVerlauf":11964,"Dienst":11965,"ĠWirtshaus":11966,"Kraft":11967,"rain":11968,"etti":11969,"gestehen":11970,"ĠglÃ¤nzende":11971,"ĠJungfer":11972,"Luc":11973,"Ġverbreitete":11974,"Ġtrennte":11975,"ĠWeihnacht":11976,"Dan":11977,"Ġmager":11978,"Ġeingeschlossen":11979,"zugeben":11980,"ĠAufruhr":11981,"Ġschwankte":11982,"ĠGarde":11983,"ĠJeanie":11984,"ĠFeuers":11985,"pha":11986,"Ġers":11987,"ĠFrack":11988,"Ġaufer":11989,"ĠRuth":11990,"Ġbester":11991,"ĠgerÃ¤um":11992,"druÃŁ":11993,"dafÃ¼r":11994,"franzÃ¶s":11995,"ĠNiemals":11996,"Ġentfernten":11997,"jener":11998,"ĠJulius":11999,"Ġverwirr":12000,"Ġstrahlte":12001,"Ġlediglich":12002,"Ġbeur":12003,"ĠCre":12004,"chteten":12005,"ĠDirne":12006,"fÃ¤llen":12007,"Ġfinsteren":12008,"ĠSchwarzen":12009,"ĠMission":12010,"minister":12011,"enigstens":12012,"haftet":12013,"ĠAllerdings":12014,"Sonne":12015,"bige":12016,"oil":12017,"athen":12018,"Ġknurr":12019,"bellen":12020,"Ã¼hren":12021,"ĠRohr":12022,"ĠnÃ¤chtlichen":12023,"ĠDouglas":12024,"LÃ¤cheln":12025,"Wunder":12026,"wild":12027,"Ġblos":12028,"redete":12029,"ĠStÃ¤tte":12030,"ĠrÃ¶t":12031,"Ġspitz":12032,"ĠzurÃ¼ckkam":12033,"geschick":12034,"ĠResiden":12035,"ĠGranit":12036,"ĠÃĦhnlichkeit":12037,"ansport":12038,"Hall":12039,"Zug":12040,"loch":12041,"any":12042,"Ġkru":12043,"ĠFaden":12044,"ĠTrÃ¶":12045,"Ġverwei":12046,"ĠSchrau":12047,"ĠNicol":12048,"Ã¼ckend":12049,"here":12050,"Ġentle":12051,"ĠamÃ¼s":12052,"gebens":12053,"Ġhoben":12054,"Verw":12055,"Ġbraun":12056,"handlungen":12057,"ĠKatzen":12058,"Ġamerikanischen":12059,"Ed":12060,"Ġzahll":12061,"Ġineinander":12062,"ĠBad":12063,"ĠLen":12064,"annes":12065,"Ġbeklagen":12066,"raf":12067,"Ġgewohnten":12068,"ĠAnschau":12069,"Ġdumme":12070,"Ġbespr":12071,"last":12072,"ĠKranz":12073,"autilus":12074,"Jeder":12075,"Ritter":12076,"gez":12077,"riefe":12078,"rub":12079,"Erde":12080,"Ġbefohlen":12081,"ĠBrett":12082,"ĠBretter":12083,"ĠThÃ¼re":12084,"Ã©s":12085,"opel":12086,"handelt":12087,"Ġeig":12088,"ĠWohin":12089,"Ġmenschen":12090,"ĠPallas":12091,"anische":12092,"unke":12093,"ĠGod":12094,"ĠNÃ¤her":12095,"leun":12096,"barmen":12097,"ĠgefÃ¤llig":12098,"ĠSou":12099,"Ġbewahrt":12100,"ĠfÃ¼nfundzwanzig":12101,"mÃ¼tze":12102,"ĠSchuppen":12103,"ĠnÃ¶thig":12104,"Ġknir":12105,"vogt":12106,"ĠBedingungen":12107,"Ġerleichtert":12108,"ente":12109,"Ġerwies":12110,"atischen":12111,"Ã¶te":12112,"Ġbewiesen":12113,"entschlossen":12114,"sterben":12115,"ĠReporter":12116,"besitzer":12117,"bour":12118,"ĠwÃ¼rdigen":12119,"ĠApoll":12120,"ĠSignal":12121,"ĠkÃ¶niglichen":12122,"ĠunaufhÃ¶rlich":12123,"Geist":12124,"svoll":12125,"ĠFalk":12126,"amin":12127,"ĠZuversicht":12128,"ĠProphe":12129,"traut":12130,"ĠfrÃ¼here":12131,"ĠDec":12132,"ĠHochzeits":12133,"ĠÃ¶ffentlich":12134,"Ġfolgende":12135,"ĠEdelmann":12136,"ĠsÃ¤mtliche":12137,"ĠFÃ¤uste":12138,"Ãľbrigens":12139,"Ander":12140,"higen":12141,"Ãĸ":12142,"Ġkunst":12143,"ĠFogg":12144,"Ġschott":12145,"ĠausfÃ¼hr":12146,"Ġvierten":12147,"Ġdeutscher":12148,"Ġgewaltsam":12149,"ĠHinsicht":12150,"ĠstÃ¤rk":12151,"Ġenergisch":12152,"HÃ¶r":12153,"Ġkal":12154,"tram":12155,"Ã¼hrten":12156,"Ġbricht":12157,"hohen":12158,"ĠSchlummer":12159,"ĠBedingung":12160,"ĠBoulevard":12161,"HÃ¤u":12162,"elnde":12163,"ĠDÃ¤m":12164,"ĠaufgehÃ¶rt":12165,"ĠTausende":12166,"Ġverscha":12167,"ĠIll":12168,"ĠCamp":12169,"Ġ...?Â«":12170,"Ã¶tig":12171,"Ġerworben":12172,"ĠUmgang":12173,"twortung":12174,"nÃ¼pft":12175,"drÃ¼cklich":12176,"ĠNovember":12177,"ĠLeichnam":12178,"gi":12179,"Ã¼mer":12180,"Ġeinsame":12181,"Ġerraten":12182,"ĠgekrÃ¤n":12183,"undfÃ¼nfzig":12184,"Ġsteil":12185,"Ġgewendet":12186,"ogn":12187,"ĠĠĠĠĠĠ":12188,"Ġbetreffen":12189,"Ã¶pfte":12190,"fÃ¼gte":12191,"Wahrheit":12192,"ĠHirten":12193,"Ġunerwartet":12194,"Ġwahnsinnig":12195,"ĠMarianne":12196,"Frie":12197,"bock":12198,"pass":12199,"streich":12200,"orren":12201,"Ġaushalten":12202,"leidenschaft":12203,"ĠBlu":12204,"ĠProje":12205,"Ġunbefangen":12206,"ĠGroll":12207,"ĠprÃ¤":12208,"ĠBedauern":12209,"Ġcho":12210,"Ġgeistigen":12211,"Ġregungslos":12212,"ĠVersuche":12213,"beamten":12214,"ĠGentleman":12215,"ader":12216,"bÃ¼r":12217,"uung":12218,"gehn":12219,"ĠSten":12220,"ĠGri":12221,"ĠKoch":12222,"rou":12223,"ents":12224,"Ġweiblichen":12225,"Ġliege":12226,"Ġrichtiger":12227,"Ġsorgsam":12228,"ĠAnstrengungen":12229,"Bra":12230,"eiert":12231,"Ġsitze":12232,"Ġad":12233,"ĠPyr":12234,"Ġgesehn":12235,"reuten":12236,"uteten":12237,"ĠHelgestad":12238,"ĠDrosch":12239,"ĠAufforderung":12240,"gÃ¼ltigkeit":12241,"ĠohnmÃ¤chtig":12242,"Ġorient":12243,"blicher":12244,"kÃ¶mm":12245,"Ġsandte":12246,"Ġzuver":12247,"derselben":12248,"ĠList":12249,"Ġungemein":12250,"blickten":12251,"ĠStrÃ¼m":12252,"ĠAbfahrt":12253,"ĠNachdenken":12254,"ĠunverstÃ¤nd":12255,"welchen":12256,"ĠWahrscheinlich":12257,"Sagen":12258,"Ġnor":12259,"ĠStarke":12260,"gering":12261,"ĠVorÃ¼ber":12262,"ĠVoraus":12263,"ĠMÃ¤nn":12264,"riedigen":12265,"Ġletzteren":12266,"erzÃ¤hlte":12267,"ĠBibel":12268,"Ġschleuderte":12269,"Jo":12270,"Ġsann":12271,"ĠObr":12272,"ĠArmut":12273,"Ġgesell":12274,"voraus":12275,"Ġmalte":12276,"ĠIndessen":12277,"ĠSuper":12278,"ĠjÃ¼ngeren":12279,"Ġschmutzigen":12280,"Wen":12281,"frey":12282,"ĠSeil":12283,"ĠSieben":12284,"sters":12285,"Ġgesunden":12286,"SchlieÃŁlich":12287,"ĠMarc":12288,"ustrie":12289,"kÃ¼ste":12290,"Ġlebhaften":12291,"ĠHenker":12292,"ĠSolche":12293,"drehen":12294,"ĠerwÃ¤hnt":12295,"Ġleidenschaftlich":12296,"ĠempÃ¶rt":12297,"lÃ¤ndischen":12298,"FlÃ¼":12299,"aktion":12300,"iams":12301,"ory":12302,"ĠWilden":12303,"Ġsichern":12304,"ĠschÃ¼chtern":12305,"Ġumgab":12306,"ĠOchsen":12307,"ellan":12308,"Ġechte":12309,"ĠBesten":12310,"Nachbar":12311,"Beide":12312,"ĠgnÃ¤dig":12313,"Eisen":12314,"ĠBesonderes":12315,"Winter":12316,"ĠSog":12317,"etisch":12318,"Ġschlaf":12319,"ĠVas":12320,"schende":12321,"ĠSprecher":12322,"Ġschlanken":12323,"sprachen":12324,"Ġdreihundert":12325,"Ġbehandeln":12326,"Ġgeheimnisvollen":12327,"Ġfriedlich":12328,"ĠmilitÃ¤r":12329,"ĠzÃ¼ndete":12330,"ftes":12331,"kraut":12332,"ĠhÃ¤uf":12333,"ĠGÃ¤n":12334,"ĠBundes":12335,"Ġauffallend":12336,"ĠunÃ¼ber":12337,"ĠJournal":12338,"Ġweibliche":12339,"ĠCÃ¤sar":12340,"SchloÃŁ":12341,"Ã¼hlte":12342,"Ġlautes":12343,"Ġeingefallen":12344,"ĠNebenzimmer":12345,"Ġgereizt":12346,"iplomat":12347,"ee":12348,"iber":12349,"Ġkahl":12350,"ĠTaten":12351,"leÃŁ":12352,"Ġweise":12353,"Ġabgeschlossen":12354,"ammern":12355,"Ġbleichen":12356,"ĠverstÃ¶rt":12357,"ĠunertrÃ¤glich":12358,"ĠStockwerk":12359,"Liebes":12360,"Ġgleiten":12361,"ĠWÃ¤ldern":12362,"Pfl":12363,"ous":12364,"inchen":12365,"ĠSchuh":12366,"ĠSchnur":12367,"ĠStÃ¼r":12368,"lob":12369,"ĠSonder":12370,"Ġerschossen":12371,"ĠSchlafen":12372,"Ġsonderbaren":12373,"Ġpolitischen":12374,"Hoffnung":12375,"ĠZigeuner":12376,"ĠHeftigkeit":12377,"Wesen":12378,"Ġausgesetzt":12379,"rice":12380,"Ã¼ttet":12381,"ĠgenoÃŁ":12382,"gewandt":12383,"Insel":12384,"yrton":12385,"Ġerregen":12386,"Mund":12387,"ĠgoÃŁ":12388,"Ġschaden":12389,"reibung":12390,"ĠStasi":12391,"zenen":12392,"ĠVorliebe":12393,"Ġbinnen":12394,"gefangen":12395,"ĠStufe":12396,"ĠGemÃ¤lde":12397,"poral":12398,"ĠObersten":12399,"ĠZusammenhang":12400,"ĠbegrÃ¼ÃŁen":12401,"Ġzweifellos":12402,"ĠRomeo":12403,"Voll":12404,"ĠAsche":12405,"ierer":12406,"steuer":12407,"Ġtrauen":12408,"Ġplat":12409,"ĠweiÃŁem":12410,"Ã¼tzung":12411,"ĠhÃ¼ten":12412,"ĠGould":12413,"ĠhÃ¶hnisch":12414,"Frage":12415,"lÃ¤ufer":12416,"Ġbedeckten":12417,"Ġtrieben":12418,"ĠunterdrÃ¼cken":12419,"scheinungen":12420,"ĠKÃ¼hn":12421,"Ġwichtigen":12422,"ĠhÃ¤ÃŁlich":12423,"ĠHollÃ¤nder":12424,"ebe":12425,"iebel":12426,"esie":12427,"Ġgelaufen":12428,"ĠLong":12429,"Ġbetete":12430,"ĠVorrat":12431,"ĠVorstellungen":12432,"ĠDuchezza":12433,"echnung":12434,"ornsen":12435,"ĠGerÃ¼cht":12436,"Ġvergingen":12437,"ĠZweigen":12438,"ĠgegrÃ¼":12439,"forder":12440,"Ġqual":12441,"vogel":12442,"Ġbegeistert":12443,"Ġmechanisch":12444,"ĠKern":12445,"ennig":12446,"ĠStarr":12447,"icksal":12448,"ffic":12449,"ĠOze":12450,"klen":12451,"ĠBote":12452,"gestÃ¼rzt":12453,"ĠMojan":12454,"ĠÃ¶de":12455,"Spiel":12456,"Ġfaltete":12457,"ĠGetrÃ¤n":12458,"Ġbegreife":12459,"kirche":12460,"Åĵ":12461,"Ġeinher":12462,"Ġeiniges":12463,"ĠBeiden":12464,"ĠKro":12465,"ĠLÃ¼gen":12466,"ĠSchal":12467,"reuer":12468,"ĠbemÃ¤cht":12469,"ations":12470,"Ġrauhen":12471,"ĠTraur":12472,"ĠBismarck":12473,"worth":12474,"Ġlangweilig":12475,"Ġmitgeteilt":12476,"brei":12477,"leuten":12478,"ati":12479,"Ġkaufte":12480,"ĠBin":12481,"ethe":12482,"Ġunteren":12483,"Ġred":12484,"rÃ¤bnis":12485,"ĠStrÃ¶m":12486,"ĠAusruf":12487,"Ġversank":12488,"Ġbeschwer":12489,"Ġschaut":12490,"Ġdienst":12491,"Hof":12492,"ĠMess":12493,"ĠHurra":12494,"ĠFach":12495,"ĠunglÃ¤ub":12496,"ĠVar":12497,"eger":12498,"Ġleiten":12499,"drÃ¤ngte":12500,"Ġhoffentlich":12501,"Ġtiefem":12502,"ĠGenie":12503,"ĠGlaubens":12504,"Ã¶chin":12505,"irdischen":12506,"Ġvortrefflich":12507,"Ġsitt":12508,"Ġzar":12509,"ĠWilde":12510,"Ġvorging":12511,"ĠArist":12512,"ordentliche":12513,"Ġreicht":12514,"ilderte":12515,"Ġgeschworen":12516,"ĠJesu":12517,"kom":12518,"wÃ¤chter":12519,"Ġas":12520,"ĠMand":12521,"teren":12522,"igarren":12523,"ĠAustr":12524,"ĠDaseins":12525,"ĠUnterricht":12526,"ĠseitwÃ¤rts":12527,"schieben":12528,"willigen":12529,"kranz":12530,"ĠÃĦuÃŁ":12531,"ĠTour":12532,"Ġmeistens":12533,"ĠkrÃ¤ftiger":12534,"Ġtanzte":12535,"Bank":12536,"Regen":12537,"musik":12538,"west":12539,"ĠWeshalb":12540,"ĠgeÃ¤ndert":12541,"ĠEnd":12542,"ĠJedes":12543,"Ġgeseg":12544,"telte":12545,"ĠzurÃ¼ckgelassen":12546,"ĠAusweg":12547,"Anna":12548,"ĠFedern":12549,"ĠpersÃ¶nlichen":12550,"ĠMitglieder":12551,"ĠSorgfalt":12552,"mon":12553,"uckte":12554,"worte":12555,"Ã¶cke":12556,"ierungs":12557,"anzer":12558,"Ã¤rr":12559,"ĠBeweise":12560,"Schau":12561,"Ġbrauchten":12562,"ĠAbendessen":12563,"aurant":12564,"ĠEdith":12565,"Mannes":12566,"Ġkostete":12567,"ĠGeschwister":12568,"ĠBesseres":12569,"ĠBesorgnis":12570,"Dame":12571,"LaÃŁt":12572,"krei":12573,"neigung":12574,"sag":12575,"archen":12576,"Ġbietet":12577,"ĠEmma":12578,"beten":12579,"ĠZiegen":12580,"lommen":12581,"Ġliebst":12582,"ĠZeitungs":12583,"Ġkriegt":12584,"Glas":12585,"ĠSchwarze":12586,"Ġrussische":12587,"brecher":12588,"cle":12589,"machten":12590,"riel":12591,"sinken":12592,"Ġnutz":12593,"astes":12594,"orff":12595,"ĠApfel":12596,"ĠPau":12597,"ĠgewÃ¼nscht":12598,"ĠOft":12599,"ruhen":12600,"ĠBruch":12601,"folgte":12602,"landes":12603,"iftet":12604,"Ġgeleistet":12605,"ĠnatÃ¼rliche":12606,"Ġdulden":12607,"bloÃŁ":12608,"oul":12609,"onischen":12610,"ĠDre":12611,"ĠFutter":12612,"senden":12613,"Ġgrob":12614,"quet":12615,"Ġirgendeinem":12616,"ĠKnopf":12617,"Ġeinstweilen":12618,"Frank":12619,"ĠmerkwÃ¼rdigen":12620,"heiligen":12621,"ĠKerze":12622,"ĠMahdi":12623,"Ã¼rzung":12624,"offizier":12625,"Pl":12626,"keln":12627,"erisch":12628,"sturm":12629,"ckend":12630,"Ġscheiden":12631,"ĠConn":12632,"ĠAchsel":12633,"zial":12634,"ĠAbende":12635,"ĠMÃ¼nchen":12636,"Ġunwidersteh":12637,"bitt":12638,"schrieb":12639,"ĠCom":12640,"ĠChauffeur":12641,"ĠInn":12642,"ibald":12643,"wurfs":12644,"ĠHerzogs":12645,"Ġriesige":12646,"Ġrespekt":12647,"ĠJasper":12648,"ĠeifersÃ¼chtig":12649,"'.":12650,"jon":12651,"ĠBÃ¶se":12652,"ratete":12653,"ĠwomÃ¶glich":12654,"ĠFlusses":12655,"Ġhohem":12656,"ĠSalons":12657,"ĠStuhle":12658,"vernÃ¼n":12659,"ĠFÃ¤llen":12660,"Pal":12661,"Ġmer":12662,"Ġerd":12663,"ĠRahmen":12664,"ĠZeich":12665,"Ġaussprechen":12666,"Ġvorgekommen":12667,"ĠGehÃ¶r":12668,"Ã¤hlen":12669,"rotte":12670,"Ġangewiesen":12671,"ĠDennoch":12672,"Ġheilig":12673,"Ġfordern":12674,"Ã¤cker":12675,"Ġbrave":12676,"ĠStreet":12677,"Aug":12678,"ĠMist":12679,"ĠZittern":12680,"Ġunterhielt":12681,"schaftliche":12682,"vorsichtig":12683,"Ġvollendet":12684,"ĠAndeut":12685,"gespielt":12686,"ĠStandes":12687,"ĠursprÃ¼n":12688,"fliegen":12689,"iphan":12690,"ĠdÃ¤":12691,"ĠEck":12692,"ĠFat":12693,"oline":12694,"Ġbesann":12695,"geschafft":12696,"ĠRaubt":12697,"bauen":12698,"Ġsprichst":12699,"bÃ¤rt":12700,"ĠgÃ¼tig":12701,"ĠTap":12702,"Ġverbrachte":12703,"ĠPont":12704,"ĠÂ»...":12705,"Ġ13":12706,"ĠGestÃ¤ndnis":12707,"graph":12708,"ĠErscheinen":12709,"ĠEbba":12710,"ĠverblÃ¼fft":12711,"ĠGÃ¶ttin":12712,"Danke":12713,"ain":12714,"ci":12715,"engte":12716,"Ġwehm":12717,"ĠMÃ¤g":12718,"ĠBuche":12719,"isiert":12720,"ĠNeid":12721,"Ġstumpf":12722,"ahls":12723,"fecht":12724,"ĠHaust":12725,"Ġfurchtbarer":12726,"ĠwÃ¼nscht":12727,"ĠHintergrunde":12728,"ĠPalmen":12729,"Ġerhebt":12730,"ĠJanuar":12731,"noten":12732,"Ġverbl":12733,"illt":12734,"richtigen":12735,"ĠBemerkungen":12736,"ĠCoupe":12737,"ĠCibula":12738,"Lange":12739,"posten":12740,"sweise":12741,"Ġnackt":12742,"Ġlass":12743,"Ġaufgesch":12744,"bedeuten":12745,"Ã¼tige":12746,"sky":12747,"linie":12748,"ylinder":12749,"ĠIrgend":12750,"geschlagenen":12751,"ĠGeschÃ¤ften":12752,"Ġtrennten":12753,"Kurz":12754,"dauer":12755,"kost":12756,"ronen":12757,"erre":12758,"sell":12759,"male":12760,"ĠAnsichten":12761,"StÃ¼ck":12762,"Ġgewordenen":12763,"ĠWagens":12764,"Ġsechzehn":12765,"ĠWohlt":12766,"Ġpassieren":12767,"Madame":12768,"?...":12769,"Mal":12770,"kaufen":12771,"rein":12772,"xen":12773,"Ġgelehnt":12774,"Ġaufstehen":12775,"ordentlichen":12776,"drÃ¤ngen":12777,"ĠDoz":12778,"verstÃ¤ndnis":12779,"Ġgelegenen":12780,"gÃ¤ngen":12781,"tz":12782,"ĠRÃ¼hrung":12783,"eum":12784,"ĠNat":12785,"ĠZivil":12786,"ĠVerdeck":12787,"ĠhÃ¶rbar":12788,"ĠTracht":12789,"Ġverdopp":12790,"ĠÃ¶sterreich":12791,"ĠMathieu":12792,"Ġbenachbarten":12793,"ĠGliedern":12794,"ĠWh":12795,"Ġschlossen":12796,"Ġgesungen":12797,"ĠTÃ¼rken":12798,"klÃ¤rt":12799,"Ġbenutzte":12800,"Ġfremder":12801,"Ġfloh":12802,"ĠHerzogin":12803,"ladimir":12804,"sogut":12805,"Reihen":12806,"ĠStÃ¤dtchen":12807,"ates":12808,"bchen":12809,"erweise":12810,"Ġzucken":12811,"ĠKund":12812,"Ġmitteilen":12813,"zustand":12814,"ĠtrÃ¶stete":12815,"ĠCab":12816,"Ġentbe":12817,"Ġbelust":12818,"formen":12819,"ĠFÃ¼hrung":12820,"ĠRaskolnikow":12821,"ĠBallon":12822,"Welche":12823,"ĠPassagiere":12824,"ĠBarbara":12825,"DrauÃŁen":12826,"Vom":12827,"golden":12828,"Ġegal":12829,"Ġbi":12830,"Ġerblicken":12831,"Ġgrenzen":12832,"Ġungeh":12833,"Ġunbemerkt":12834,"ĠRach":12835,"euert":12836,"aha":12837,"Ġverlange":12838,"Ġzweitausend":12839,"ĠGefÃ¤hrt":12840,"gehÃ¶ren":12841,"Ġverneigte":12842,"ĠHÃ¼ften":12843,"Ã¤ckchen":12844,"weisung":12845,"flogen":12846,"ĠLehnstuhl":12847,"Pferde":12848,"Ġtrotzig":12849,"ĠParadies":12850,"don":12851,"fuÃŁ":12852,"uckt":12853,"ĠGymn":12854,"ĠDrauÃŁen":12855,"andes":12856,"ĠLena":12857,"roffen":12858,"ĠUfern":12859,"Ã¼ttern":12860,"gewinnen":12861,"ĠAppetit":12862,"mittage":12863,"Ġkrampfhaft":12864,"kop":12865,"uht":12866,"ĠSyl":12867,"ĠWurz":12868,"Ġgeantwortet":12869,"ĠLy":12870,"ĠTreu":12871,"Ġankam":12872,"ffel":12873,"Ġbesitze":12874,"holm":12875,"Ġangetan":12876,"Ġgedanken":12877,"Ġlustigen":12878,"ĠGalerie":12879,"ĠGemÃ¼ts":12880,"Ġkostet":12881,"ĠbefÃ¼rchten":12882,"bra":12883,"kennt":12884,"punkte":12885,"Ã«":12886,"Ġkahlen":12887,"urr":12888,"Ã¼berw":12889,"ĠAntworten":12890,"ErzÃ¤hl":12891,"Ġleichtes":12892,"ommern":12893,"haut":12894,"Ġverstrich":12895,"ĠJede":12896,"Weiter":12897,"braunen":12898,"ĠGehorsam":12899,"fuhren":12900,"ologie":12901,"ĠmiÃŁtrauisch":12902,"Ġstreichelte":12903,"Werk":12904,"fache":12905,"weder":12906,"berÃ¼hm":12907,"ĠHerk":12908,"eulen":12909,"Ersch":12910,"Ġspitzen":12911,"ĠGefÃ¼hls":12912,"ĠOrgan":12913,"mod":12914,"Ġerschlagen":12915,"ĠMul":12916,"trunken":12917,"ĠNed":12918,"zugleich":12919,"Ġobschon":12920,"Ġgebot":12921,"ĠHÃ¶hlen":12922,"ĠMÃ¼digkeit":12923,"Ġschmie":12924,"duard":12925,"Ġinteressant":12926,"ĠWappen":12927,"ĠApparat":12928,"Kirche":12929,"ĠJudith":12930,"Buch":12931,"bad":12932,"Ġzers":12933,"ĠKin":12934,"ĠKant":12935,"ĠSchlei":12936,"rober":12937,"ĠAuft":12938,"egten":12939,"Ġbrannten":12940,"iana":12941,"Ġsicherer":12942,"Ġbedienen":12943,"ĠBrauen":12944,"unkelte":12945,"brauch":12946,"ĠDeckel":12947,"keiner":12948,"Â°":12949,"erischen":12950,"ĠGib":12951,"ĠGÃ¤nge":12952,"Ġfe":12953,"ĠHyp":12954,"Ġgekl":12955,"ĠOkt":12956,"bricht":12957,"Ġgeringer":12958,"drÃ¼ckten":12959,"ĠschwÃ¶re":12960,"Ġwandten":12961,"Ġklare":12962,"Ġlebhafter":12963,"Marie":12964,"ĠHarbert":12965,"ĠPatri":12966,"Ġkostbaren":12967,"Ġvergangenen":12968,"Ġbeherrschte":12969,"Ġstockte":12970,"meines":12971,"ĠGreg":12972,"Ã¼berall":12973,"ĠhaÃŁte":12974,"adier":12975,"eidiger":12976,"ĠGuts":12977,"ĠHexe":12978,"ĠbegnÃ¼gte":12979,"ĠCanning":12980,"Fo":12981,"kÃ¶pf":12982,"Ġerlaubte":12983,"ethei":12984,"obil":12985,"ĠerfaÃŁte":12986,"ĠTraume":12987,"theilt":12988,"ĠJahrhunderts":12989,"ĠDepesche":12990,"nett":12991,"teau":12992,"Ã¼ten":12993,"ĠAven":12994,"mmed":12995,"ĠKÃ¤t":12996,"ĠKarren":12997,"Ġgesunken":12998,"ĠBehÃ¶r":12999,"ĠKaval":13000,"Ġaufsuchen":13001,"ĠTex":13002,"bestimmt":13003,"ĠVerwalter":13004,"hierher":13005,"lechtes":13006,"Ã¤tzchen":13007,"ĠrÃ¼cksichts":13008,"ĠHarms":13009,"Wor":13010,"Zehn":13011,"ĠmÃ¼tter":13012,"Ġmuss":13013,"erren":13014,"Ġuntersuchen":13015,"Ġabges":13016,"ĠWird":13017,"ĠErdboden":13018,"Ġwildes":13019,"Ġzweifeln":13020,"Felsen":13021,"Ġbeunruhigt":13022,"ĠMotor":13023,"Wind":13024,"hÃ¼tte":13025,"scheiben":13026,"Ġtranken":13027,"odor":13028,"drÃ¤nge":13029,"ĠAllan":13030,"Ġehrlichen":13031,"ĠSchreib":13032,"ĠBrauch":13033,"Ġverzichten":13034,"stÃ¼rzte":13035,"ĠUniversitÃ¤t":13036,"ĠbetÃ¤ubt":13037,"ĠPeitsche":13038,"ampagner":13039,"Kor":13040,"Sollte":13041,"hus":13042,"erinner":13043,"Ġdonn":13044,"deutet":13045,"Ġhad":13046,"lehnen":13047,"Ġdummen":13048,"Ġerschrecken":13049,"ĠNotwendigkeit":13050,"zÃ¼nden":13051,"flÃ¼gel":13052,"ĠSonntags":13053,"Ġdicker":13054,"ĠSak":13055,"schwÃ¤r":13056,"ĠLar":13057,"ĠLesen":13058,"rosen":13059,"ĠStur":13060,"geruch":13061,"Ġentziehen":13062,"Ġklirr":13063,"hammed":13064,"ĠKlagen":13065,"Ġgedient":13066,"ĠSchmach":13067,"ĠGartens":13068,"ĠMoral":13069,"ĠVerfolgung":13070,"kurz":13071,"ĠGard":13072,"ĠNautilus":13073,"Ġbewunder":13074,"ĠgedÃ¤m":13075,"Ġergab":13076,"Ulrich":13077,"Best":13078,"kinder":13079,"Ġwachte":13080,"Ġhag":13081,"Ġfeucht":13082,"ĠWette":13083,"eta":13084,"etscher":13085,"ĠPest":13086,"ĠErm":13087,"Ġblinz":13088,"ĠElemen":13089,"ĠCarlo":13090,"Ġversichert":13091,"Ġblitzte":13092,"geheimnis":13093,"Ġdumpfen":13094,"lament":13095,"rien":13096,"ero":13097,"schlage":13098,"steten":13099,"riele":13100,"omot":13101,"Ġimmerfort":13102,"ĠBehaupt":13103,"ĠGlÃ¼ckes":13104,"Ġverdrie":13105,"ĠSchiffer":13106,"ĠverstÃ¤r":13107,"ĠgrÃ¶ÃŁerer":13108,"Ġnotwend":13109,"ĠMedizin":13110,"ĠBureau":13111,"kleidet":13112,"ĠHÃ¼lfe":13113,"ĠBissen":13114,"Ġsicheren":13115,"ĠTiefen":13116,"ĠPier":13117,"reiflich":13118,"ĠAufnahme":13119,"Ã¶hnung":13120,"ĠEigentlich":13121,"ĠWilliam":13122,"Ã¶stel":13123,"Ġgehorchte":13124,"Jugend":13125,"ĠfÃ¤r":13126,"ĠBuck":13127,"Ġlicht":13128,"ĠSchimpf":13129,"befehl":13130,"ĠNadel":13131,"Ġtade":13132,"Ġgeweckt":13133,"verste":13134,"Ġwelt":13135,"Ġbegaben":13136,"ĠSchlÃ¤ge":13137,"ĠgestoÃŁen":13138,"mittelt":13139,"ĠFlexan":13140,"Ġaufgerissen":13141,"Ġbegegneten":13142,"Gerade":13143,"elter":13144,"ĠHas":13145,"Ġgeeignet":13146,"Ġbeschrieben":13147,"Ġblasse":13148,"ĠQualen":13149,"ĠHelena":13150,"markt":13151,"ĠbegrÃ¼ÃŁt":13152,"Ġklopfen":13153,"Ġzahlreichen":13154,"Ġgeheimnisvoll":13155,"Ġgeheimnisvolle":13156,"Ġumarmte":13157,"ĠRasumoff":13158,"Aha":13159,"vÃ¶gel":13160,"Ġdurften":13161,"Ġabenteuer":13162,"auschen":13163,"Ġentschied":13164,"ĠStrenge":13165,"ĠAlfred":13166,"blem":13167,"ĠKapital":13168,"ĠRÃ¶te":13169,"streben":13170,"ĠBlÃ¼te":13171,"ĠFrÃ¼hjahr":13172,"wich":13173,"sches":13174,"rates":13175,"ĠAnwesenden":13176,"Ġkluge":13177,"Ġgeringen":13178,"sprech":13179,"ĠWeibern":13180,"schlÃ¤gen":13181,"flur":13182,"ĠRuinen":13183,"ĠLaute":13184,"Ġgebeugt":13185,"Ġetliche":13186,"Ġgeleitet":13187,"ĠSchweizer":13188,"ĠBerta":13189,").":13190,"lÃ¤ngst":13191,"Ġdiejenigen":13192,"Ġero":13193,"ĠWell":13194,"Ġraffte":13195,"oth":13196,"brachten":13197,"Schwar":13198,"Ġbegn":13199,"ĠGeschwindigkeit":13200,"hofer":13201,"Ġangebracht":13202,"Ġeiserne":13203,"kleiden":13204,"ĠErbschaft":13205,"Ġwechselte":13206,"ĠBeobachtung":13207,"Ġgrimmig":13208,"ĠTemperatur":13209,"Frieden":13210,"Rom":13211,"bal":13212,"brief":13213,"jedoch":13214,"anzug":13215,"ĠHage":13216,"ĠKlau":13217,"ĠTyr":13218,"Ġvoneinander":13219,"isses":13220,"ĠAnmut":13221,"verein":13222,"rufe":13223,"ĠzurÃ¼ckgeblieben":13224,"Ġberecht":13225,"Ġdrum":13226,"wandten":13227,"skraft":13228,"Ġunbedeuten":13229,"ĠKamp":13230,"Ġfromm":13231,"eidigte":13232,"ĠJahreszeit":13233,"klopfen":13234,"Gehen":13235,"mchen":13236,"Ġmilde":13237,"ĠnÃ¤":13238,"Ġhohl":13239,"ĠÃ¼berlegt":13240,"omen":13241,"Ġuntersuchte":13242,"Ġstelle":13243,"blickend":13244,"ĠDok":13245,"ĠLoge":13246,"ĠSchnaps":13247,"Ġmodernen":13248,"onia":13249,"itor":13250,"Ġabgenommen":13251,"gemeinen":13252,"Ġseyn":13253,"finster":13254,"ĠÃĸsterreich":13255,"ĠIdeal":13256,"Schritte":13257,"Julian":13258,"ĠLiteratur":13259,"breiten":13260,"cester":13261,"mont":13262,"Ġsetze":13263,"schul":13264,"Ġgepl":13265,"Ġaufw":13266,"ĠTy":13267,"Ġverp":13268,"lechter":13269,"Ġsteilen":13270,"Ġtust":13271,"sames":13272,"Ġreiste":13273,"hoff":13274,"Ġwahrer":13275,"Wieso":13276,"ĠprÃ¤chtig":13277,"ĠPetersburg":13278,"StraÃŁen":13279,"ekul":13280,"Ġbillig":13281,"Ġverlobt":13282,"ĠGÃ¤rtner":13283,"Su":13284,"dampf":13285,"hum":13286,"izen":13287,"irs":13288,"ĠLider":13289,"tracht":13290,"Ġjeg":13291,"ĠAugenbrauen":13292,"ĠVorzimmer":13293,"ĠhÃ¶rst":13294,"Einmal":13295,"Ġrechtzeitig":13296,"ĠstrÃ¤u":13297,"ĠWera":13298,"ĠWerden":13299,"Baum":13300,"no":13301,"ĠSchaum":13302,"ĠPaket":13303,"ĠZahn":13304,"Ġbeides":13305,"Schweigen":13306,"anderes":13307,"ĠNachforschungen":13308,"Ġniederzu":13309,"ophen":13310,"Ġmagst":13311,"ips":13312,"schuhen":13313,"ĠChinese":13314,"ĠMathilde":13315,"Ġerledigt":13316,"ĠZuneigung":13317,"Ġmitzuteilen":13318,"Euer":13319,"sorge":13320,"Ġeinsch":13321,"ĠzugehÃ¶rt":13322,"ĠBildern":13323,"Ġverweil":13324,"ĠIhn":13325,"beherr":13326,"samt":13327,"ĠgenÃ¶t":13328,"geschoÃŁ":13329,"Ġgelacht":13330,"ĠWiege":13331,"Ġschwamm":13332,"GefÃ¼hl":13333,"ĠGering":13334,"ĠSchrittes":13335,"ĠMÃ¼ndung":13336,"sbur":13337,"gespannt":13338,"ĠSchreckens":13339,"ĠÃľbel":13340,"ĠĠĠĠĠĠĠĠĠĠĠĠĠĠĠĠĠĠĠĠĠĠĠĠ":13341,"iÃ¨re":13342,"Ġverurteilt":13343,"HÃ¶ren":13344,"pert":13345,"Ġbarg":13346,"Ġgesellschaft":13347,"ĠSpÃ¤ter":13348,"ĠgleichgÃ¼lt":13349,"ĠDaher":13350,"Ġschwache":13351,"Ġbesonderer":13352,"ĠPlÃ¤tze":13353,"ĠSÃ¼nder":13354,"unserer":13355,"Ġschrien":13356,"ĠÃ¼berwunden":13357,"schwarze":13358,"ĠWesterly":13359,"Bauern":13360,"affe":13361,"ĠwÃ¤chst":13362,"Ġanziehen":13363,"ĠRate":13364,"ĠSto":13365,"Ġvorgenommen":13366,"Ġartig":13367,"Gefangen":13368,"hÃ¤usern":13369,"ores":13370,"ĠSchÃ¼rze":13371,"Ġjauch":13372,"Ġbeeilte":13373,"ftausend":13374,"ĠZir":13375,"Ġreligi":13376,"ĠOs":13377,"Ġgefesselt":13378,"Ġgestattet":13379,"GesprÃ¤ch":13380,"ĠnÃ¤herten":13381,"ĠjÃ¼ngere":13382,"ĠSchurken":13383,"ĠSibylle":13384,"ĠClarisse":13385,"Ġ,":13386,"erf":13387,"ichert":13388,"onik":13389,"Ã¶tete":13390,"ĠKonsul":13391,"Ġaufhalten":13392,"Ġaufgeben":13393,"ĠSchirm":13394,"ĠÃ¼bernehmen":13395,"ungenen":13396,"ĠAlko":13397,"Ġschwed":13398,"ĠPiraten":13399,"Darf":13400,"ez":13401,"has":13402,"letzte":13403,"Ġbange":13404,"inor":13405,"schrie":13406,"ettes":13407,"Ġwohnten":13408,"ndeten":13409,"ĠSchwein":13410,"teilung":13411,"ĠÃĦl":13412,"ĠWanderer":13413,"ĠGenugtuung":13414,"ube":13415,"ĠAeu":13416,"Ġknapp":13417,"ĠLÃ¶ffel":13418,"ĠÃ¼bertrieben":13419,"ĠUnt":13420,"ĠVorhÃ¤nge":13421,"ĠSchluck":13422,"ummt":13423,"endeten":13424,"Zuerst":13425,"freien":13426,"Ġerlangen":13427,"ĠZeugnis":13428,"kÃ¤me":13429,"Ġsal":13430,"stieÃŁ":13431,"Ã¶den":13432,"Ġfau":13433,"Ã¼rgen":13434,"âĢ¯":13435,"eckten":13436,"ĠKahn":13437,"ĠEhrfurcht":13438,"lotilde":13439,"Ġaufgerichtet":13440,"ĠTrÃ¤um":13441,"ĠFrankf":13442,"ĠStÃ¤dten":13443,"Ġ--":13444,"Kamer":13445,"ew":13446,"arius":13447,"ĠWachs":13448,"rote":13449,"ickter":13450,"ĠBehagen":13451,"ĠVorfall":13452,"ĠgrÃ¼ÃŁen":13453,"opfer":13454,"ĠHarald":13455,"ĠGalopp":13456,"ĠUebrigens":13457,"frucht":13458,"lar":13459,"eschen":13460,"Ġaufeinander":13461,"Ġritten":13462,"Ġhinreichen":13463,"ĠCal":13464,"Schritt":13465,"twald":13466,"etta":13467,"holung":13468,"Auge":13469,"grimm":13470,"Ġrauh":13471,"ĠTorheit":13472,"bewuÃŁt":13473,"ĠKatastrophe":13474,"verschwand":13475,"schÃ¼tteln":13476,"geholt":13477,"Ġzittern":13478,"emp":13479,"ĠLinden":13480,"ĠRod":13481,"ĠAnh":13482,"immy":13483,"elli":13484,"ĠGedicht":13485,"wirk":13486,"Ġvermocht":13487,"ĠBega":13488,"ĠDiotima":13489,"Ġmelanchol":13490,"ĠWelch":13491,"Diener":13492,"pÃ©":13493,"vett":13494,"Ġahn":13495,"Ã¤hmt":13496,"Ġzugegen":13497,"ĠZÃ¶gern":13498,"Ġumgekehrt":13499,"weiÃŁe":13500,"Ġbeladen":13501,"ĠSprich":13502,"ĠGefÃ¼hlen":13503,"Ġflachen":13504,"Ġgrinste":13505,"Ġverteidigen":13506,"antinopel":13507,"Clau":13508,"ĠMy":13509,"ĠMesse":13510,"stellten":13511,"rÃ¤te":13512,"innern":13513,"hauch":13514,"ĠheiÃŁer":13515,"Ġseel":13516,"ĠMÃ¶glich":13517,"ĠDorfes":13518,"ĠVerlobung":13519,"Karl":13520,"Nu":13521,"jedes":13522,"ĠMeile":13523,"Ġunterrichtet":13524,"ĠGelde":13525,"Angst":13526,"ĠHÃ¤up":13527,"ĠglÃ¤nzten":13528,"ĠKanal":13529,"ĠMelodie":13530,"ĠInteressen":13531,"Feld":13532,"betrachtete":13533,"ĠFackel":13534,"ĠKilometer":13535,"nein":13536,"enen":13537,"ĠAfra":13538,"ĠDah":13539,"agnie":13540,"euen":13541,"ĠZul":13542,"neun":13543,"ĠJacht":13544,"onnte":13545,"Ġjammer":13546,"Ġschweres":13547,"klÃ¤ren":13548,"ĠWeh":13549,"Ġlustige":13550,"ĠBemÃ¼hungen":13551,"Ġklingelte":13552,"Jedenfalls":13553,"beutel":13554,"ĠSchuhmeier":13555,"can":13556,"hase":13557,"itus":13558,"ĠHod":13559,"ĠDunkeln":13560,"Ġlat":13561,"ĠKreisen":13562,"Ġangestellt":13563,"Ġunwillig":13564,"ĠPos":13565,"hellen":13566,"ĠVerdienst":13567,"Ġabseits":13568,"Ġerfr":13569,"Ġantwortet":13570,"Ġschleun":13571,"Ġfreundlicher":13572,"ĠglÃ¤nzte":13573,"Damen":13574,"ĠÃ¤ch":13575,"ĠgÃ¶n":13576,"ĠHÃ¶ren":13577,"ĠknÃ¼":13578,"ĠWilson":13579,"Ġgequ":13580,"Ġabsichtlich":13581,"Ġfrischer":13582,"gewonnen":13583,"ĠZustimmung":13584,"ĠBesatzung":13585,"Ġenger":13586,"ĠMondes":13587,"schreiber":13588,"schweren":13589,"ĠSchÃ¼sse":13590,"ĠSkandal":13591,"sechzig":13592,"ĠWichtigkeit":13593,"Lou":13594,"Merk":13595,"Ã»":13596,"Ġdel":13597,"eihen":13598,"ieÃŁe":13599,"Ġderartige":13600,"ĠCÃ©":13601,"gesprÃ¤ch":13602,"ĠAusbruch":13603,"Ġverstohlen":13604,"aco":13605,"ĠAndacht":13606,"ĠTrupp":13607,"Ġausgestreckt":13608,"ĠPagel":13609,"GrÃ¤":13610,"iede":13611,"onika":13612,"terie":13613,"Ġaufgeh":13614,"ĠZus":13615,"leide":13616,"ĠGestern":13617,"ĠBerges":13618,"theilen":13619,"Ġindischen":13620,"ĠJawohl":13621,"Ġ11":13622,"ristan":13623,"ĠSchwiegersohn":13624,"Ġschliefen":13625,"ĠViktor":13626,"Ġheulte":13627,"ĠVenedig":13628,"Kan":13629,"ĠWonne":13630,"kens":13631,"rÃ¤ume":13632,"Ġberichtet":13633,"rathen":13634,"ĠPlane":13635,"neue":13636,"wirtschaft":13637,"ĠgemÃ¼tlich":13638,"Ġabsolut":13639,"Mat":13640,"Wein":13641,"darf":13642,"Ġmild":13643,"streckte":13644,"itÃ©":13645,"ando":13646,"Ġaufzunehmen":13647,"Ġbezeichnet":13648,"Ġrechter":13649,"Siehst":13650,"Ġbrut":13651,"ĠHotels":13652,"Ġbeleidigen":13653,"meisters":13654,"Ġpfeifen":13655,"ĠhÃ¼bscher":13656,"Fritz":13657,"bleibt":13658,"Ġnoth":13659,"Indessen":13660,"Prinz":13661,"ĠVermutung":13662,"Ġvermutlich":13663,"Ben":13664,"BrÃ¼":13665,"Mond":13666,"Ġwagt":13667,"ĠGabe":13668,"ĠLornsen":13669,"sey":13670,"Ġjub":13671,"ftasche":13672,"ĠUhlig":13673,"ĠVerlassen":13674,"Ġkla":13675,"Ã¤use":13676,"flasche":13677,"Ġbeschreiben":13678,"ĠOberl":13679,"ĠSpruch":13680,"Ġraus":13681,"Ġangestr":13682,"Ã¼nktlich":13683,"tropfen":13684,"Dich":13685,"RÃ¼cken":13686,"kreu":13687,"Ġdonner":13688,"anbruch":13689,"ĠfÃ¼gen":13690,"ĠHatteras":13691,"ĠBetten":13692,"ĠschÃ¤tzen":13693,"Ġdemnach":13694,"ĠRunde":13695,"Ġunterdessen":13696,"twa":13697,"Ġberufen":13698,"Ġschlummer":13699,"ziemlich":13700,"ĠPferdes":13701,"Ġdrehen":13702,"ĠFlagge":13703,"bleich":13704,"ĠEwald":13705,"ĠFetzen":13706,"ĠLeg":13707,"annehm":13708,"ickeln":13709,"urchdring":13710,"kommenden":13711,"frÃ¤u":13712,"ĠÃ¶ffneten":13713,"ĠAllee":13714,"Ġeingetroffen":13715,"Ġprob":13716,"Ġdumpfe":13717,"Ġflammen":13718,"Ġeindring":13719,"ĠveranlaÃŁt":13720,"mmerzienrat":13721,"Donner":13722,"Kampf":13723,"ĠKÃ¶chin":13724,"Ġvertragen":13725,"brand":13726,"Ġklu":13727,"Ġerfunden":13728,"Ġlaute":13729,"gestorben":13730,"renz":13731,"Ġzehntausend":13732,"Amor":13733,"ĠFremder":13734,"ĠOnnen":13735,"ĠLappen":13736,"Gewalt":13737,"meinte":13738,"ĠÃ¤hnliche":13739,"verschwunden":13740,"Ġeinig":13741,"ĠMach":13742,"ĠSchlau":13743,"Ã¶rter":13744,"gers":13745,"Ã¼tzten":13746,"klam":13747,"zÃ¤hlt":13748,"sessel":13749,"ĠerzÃ¤hle":13750,"utzten":13751,"ĠSchuft":13752,"Ġdrohen":13753,"ĠSchauspieler":13754,"ĠWÃ¼nschen":13755,"ĠHelmstedt":13756,"kins":13757,"pat":13758,"geber":13759,"stÃ¼tzung":13760,"Ã¶scht":13761,"ĠHuld":13762,"Ġunges":13763,"Ġentgangen":13764,"Ġersticken":13765,"merkt":13766,"ĠBrÃ¼cken":13767,"ĠerzÃ¤hlten":13768,"Entsch":13769,"ĠFebr":13770,"Hein":13771,"Les":13772,"ufer":13773,"wolke":13774,"Ã¤fl":13775,"ÃŁigen":13776,"ĠMik":13777,"Ġvertreten":13778,"Ġverfiel":13779,"ĠRum":13780,"ĠErben":13781,"Ã¼ttete":13782,"ĠVorgang":13783,"ĠSous":13784,"Ġschwanken":13785,"ĠKaj":13786,"ĠGenau":13787,"ummern":13788,"Ġerwarteten":13789,"aurer":13790,"Ġschreibe":13791,"Ġversichern":13792,"Ġbehandelte":13793,"Sa":13794,"Uhr":13795,"ms":13796,"Ġwith":13797,"ĠMusk":13798,"Ġbey":13799,"Ġentkommen":13800,"ĠentblÃ¶":13801,"ĠStrÃ¶":13802,"ierende":13803,"freundschaft":13804,"Ġverabschiedete":13805,"Nieder":13806,"Ġwechseln":13807,"ĠAhmet":13808,"ĠGaul":13809,"ĠBata":13810,"Ġaussieht":13811,"Schwer":13812,"Ġechten":13813,"ĠMarches":13814,"ĠGerÃ¼":13815,"binoff":13816,"bury":13817,"ĠKleinigkeit":13818,"ĠungewÃ¶hnlich":13819,"ĠJacques":13820,"Berg":13821,"lÃ¤nger":13822,"asso":13823,"adrat":13824,"ammt":13825,"ĠToni":13826,"udi":13827,"hÃ¼llte":13828,"Ġschwarzem":13829,"ĠKÃ¶nnen":13830,"yenburg":13831,"Jose":13832,"frÃ¶":13833,"jelt":13834,"jagd":13835,"sige":13836,"eigef":13837,"steinen":13838,"ĠSl":13839,"ito":13840,"Ġgemalt":13841,"Ġwarnen":13842,"pressen":13843,"Ġliefer":13844,"ĠJuwel":13845,"Ġwiderstehen":13846,"Ġbehag":13847,"Ġerlitten":13848,"ĠbeschÃ¤ftigen":13849,"ĠDorth":13850,"gesperrt":13851,"blieben":13852,"Ġdis":13853,"einiger":13854,"scheibe":13855,"ĠAyrton":13856,"ĠGanzen":13857,"ĠschÃ¤nd":13858,"Ġangegriffen":13859,"ĠZit":13860,"ĠGesinnung":13861,"Ġfragten":13862,"ĠSpieÃŁ":13863,"ĠSpeisen":13864,"kleiner":13865,"mende":13866,"ĠReiche":13867,"heimlich":13868,"ĠRoug":13869,"Ġjemanden":13870,"ĠfÃ¼llen":13871,"ĠWiener":13872,"ĠfÃ¼rchterlich":13873,"Polizei":13874,"ĠDollars":13875,"Ġsogenannte":13876,"ĠBrigg":13877,"ĠJustiz":13878,"Langsam":13879,"Ġstotterte":13880,"Verk":13881,"Zeichen":13882,"cul":13883,"onius":13884,"Ġsteiger":13885,"ĠJacke":13886,"liebens":13887,"ĠLeop":13888,"ĠKnoten":13889,"ĠBurbank":13890,"ĠdÃ¼nne":13891,"geborene":13892,"Ġrechnete":13893,"SchÃ¶nheit":13894,"ĠBalkon":13895,"lampe":13896,"vie":13897,"vÃ¤ter":13898,"Ġwachen":13899,"anat":13900,"Ġmilder":13901,"ĠAhn":13902,"Ġgekr":13903,"raÃŁe":13904,"ilch":13905,"Ġkommand":13906,"ĠKlara":13907,"gnÃ¤d":13908,"schmied":13909,"ĠSchÃ¼ssel":13910,"drehte":13911,"hÃ¤ngig":13912,"Ġgeschnitten":13913,"siedler":13914,"Etwas":13915,"Habe":13916,"glocke":13917,"jahre":13918,"ĠSeigneur":13919,"aube":13920,"mmten":13921,"ĠRingen":13922,"isca":13923,"Ġdurchdringen":13924,"omme":13925,"Ġlege":13926,"acker":13927,"Gefahr":13928,"handel":13929,"ĠÃ¶den":13930,"ĠWiderwillen":13931,"ĠTemp":13932,"ĠAggie":13933,"deine":13934,"jut":13935,"pa":13936,"ĠÃ¤nderte":13937,"ornen":13938,"Ġgha":13939,"Ġfahl":13940,"ĠEich":13941,"ettete":13942,"ĠSieges":13943,"ĠVorgesetzten":13944,"zweig":13945,"Ã¤ubchen":13946,"Ġbreiter":13947,"ĠReisende":13948,"ĠgeschmÃ¼ckt":13949,"Ġzweifelte":13950,"Ġsammelte":13951,"ĠMitglied":13952,"Ġplaudern":13953,"Ġharmlos":13954,"ĠMetall":13955,"ĠGouverneur":13956,"Minuten":13957,"ĠVeranda":13958,"Ġdurchzu":13959,"Ġduften":13960,"Ġgesorgt":13961,"Ġwillig":13962,"Ġschlen":13963,"etterten":13964,"volution":13965,"ĠRedens":13966,"ĠBegriffe":13967,"Gute":13968,"dÃ¼n":13969,"nÃ¤mlich":13970,"Ġhassen":13971,"amten":13972,"ĠVeit":13973,"Ġbewies":13974,"Ġwiederkommen":13975,"edder":13976,"astanien":13977,"geschichten":13978,"ĠGlÃ¤ub":13979,"ĠUmr":13980,"eidel":13981,"Ġwunderlich":13982,"ĠfÃ¼llten":13983,"eignete":13984,"gehÃ¶rte":13985,"ĠBeutel":13986,"Soldaten":13987,"Ã¤fte":13988,"ĠAhnen":13989,"ĠHung":13990,"Ġkol":13991,"ĠToll":13992,"ĠDiesen":13993,"Ġbisweilen":13994,"Ġgestattete":13995,"folg":13996,"Ġunbekannte":13997,"sinnige":13998,"achsenen":13999,"ĠÃ¤uÃŁern":14000,"suchung":14001,"ĠFair":14002,"Ġschnee":14003,"Michael":14004,"Ġverdammt":14005,"Hei":14006,"ieft":14007,"ĠnÃ¼chtern":14008,"schienen":14009,"Ġzug":14010,
[...]
