#version: 0.2
e n
e r
c h
Ġ d
e i
i e
Ġ s
n d
t e
i ch
ei n
Ġ w
Ġ a
e s
Ġ i
Ġ u
Ã ¼
g e
a n
Ġ m
s t
Ġ n
Ġ S
Ġ h
Ġu nd
Ġd ie
Ã ¤
a r
g en
Ġ ein
Ġ v
a s
Ã Ł
l l
Ġ z
Ġd er
h r
Ġ b
i n
t en
e m
Ġ er
o r
a u
o n
s ch
Ġz u
Ġa u
i t
u n
e l
Ġ g
ich t
a t
Â »
Â «
a ch
Ġ A
Ã ¶
b er
Ġ G
Ġd en
Ġ M
Ġ f
Ġi n
Ġ H
Ġ k
t er
Ġ D
u r
c k
Ġ B
l ich
a l
Ġ W
Ġ ge
Ġ E
i r
b en
Ġ l
i g
e t
m m
d en
Ġs ie
Ġ F
Ġ K
Ġn icht
Ġd a
d er
h n
Ġs ich
Ġd as
Ġs ch
a nd
Ġw ar
r e
o ch
Ġs ein
Ġs o
d e
Ġau f
Ġm it
s en
Ġ L
Ġ T
an n
Ġ ich
Ġv er
un g
Ã¼ r
a g
Ġa n
ei t
â Ģ
Ġd em
Ġv on
Ġw ie
Ġu n
u nd
Ġh at
Ġ es
Ġi hr
ĠS ch
s e
Ġ I
a m
Ġ R
l s
h m
t r
Ġ P
âĢ ĵ
Ġ j
b e
Ġ V
e u
Ġda ÃŁ
Ġ Â»
h l
i er
i s
Ġ N
h en
Ġi st
ĠS ie
Ġ âĢĵ
Ġd es
. .
ch t
Ã¼ ber
. Â«
en n
er n
Ġa ls
r ei
r o
i sch
o l
Ġb e
i nd
ch en
f t
Ġ Z
e hr
Ġau s
Ġein e
Ġ o
Ġ U
Ġh a
o ll
f en
u t
et z
ĠS t
Ġhat te
ĠE r
Ã¼ ck
l e
Ġa ll
Ġv or
s er
l ei
Ġi hn
Ġw ir
ĠA u
z u
ein e
Ġn och
Ġu m
u ÃŁ
Ġs t
Ġ Ã¼ber
es ch
r au
Ġn ach
an z
n e
Ġ J
l o
Ġa ber
Ġi hm
in g
i gen
Ġau ch
mm en
Ġ r
ie l
s te
Ġ t
p f
mm er
! Â«
i ck
Ġi m
w ei
ĠG e
ag te
r a
h e
u m
Ã¶ n
Ġb ei
i l
a hr
or t
en t
er r
i ll
st en
es t
en d
au s
Ġm ir
Ã¤ n
ur ch
Ġh in
Ġein en
an g
f f
Ġf Ã¼r
? Â«
Ã¶ r
e g
o t
e ben
a b
ach t
Ġw ei
p r
Ġn ur
i en
a ll
n en
a ÃŁ
m al
Ġm an
Ġw o
Ã¤ t
Ġm ein
l ie
â Ķ
a gen
i ge
âĶ ģ
ĠV er
Ġge w
âĶģ âĶģ
Ġm ich
ch e
h er
nd er
Ġwie der
k en
Ġw er
Ġ O
Ġein em
Ġw enn
Ġl ie
Ã¤ r
Ġd och
st er
Ġd urch
Ġ tr
Ġh er
etz t
u ch
ĠA n
o mmen
v er
Ġw as
Ġs agte
r ie
Ġg anz
Ġd u
Ġsein e
un gen
Ġzu r
ei l
ÃŁ en
b r
g er
Ġ C
Ġ ..
au f
ĠD ie
isch en
s el
ach te
z en
u l
ĠI ch
Ġein er
ĠH err
a h
ge l
Ġ p
ein en
r u
Ġ ent
Ġden n
i mm
l ick
lich en
w ar
o m
r Ã¼
Ġha ben
Ġun ter
p p
Ġk l
l au
u s
Ġm ehr
Ġw oll
k eit
on n
as sen
Ġd ar
Ã¤ nd
d ie
Ġsch on
b st
h eit
ĠA r
Ġg es
Ġs el
Ġdie s
g es
k t
h al
Ġun s
te t
Ġd ann
a d
e ll
Ġ.. .
b t
an gen
Ã¤ ch
Ġ Ġ
sch en
h a
Ġha be
b ar
Ġso ll
ĠAu gen
ĠU nd
Ġm uÃŁ
Ġa b
I ch
g t
r i
Ã¼ n
lei ch
ĠE in
Ã¼ t
Ġw ur
Ġb es
et w
te te
Ġa m
ĠU n
Â« ,
hn e
Ġzu m
ĠG es
ĠI hr
, Â«
f fen
ie f
Ġg ro
e d
te l
ach en
ĠM ann
w er
Ġge h
u g
Ġsein er
an k
m it
Ã¼ hr
Ġk Ã¶n
e hen
lich e
Ġo der
Ġs ind
es en
Ġw el
ĠE s
Ġihr e
Ġi mmer
sch a
' s
Ġa nder
z e
Ġw Ã¤
ĠF rau
Ġh ier
b ei
Ġwer den
Ġj a
l a
ĠA ber
ĠD er
Ġ re
Ġ etw
Ã¤ u
s am
Ġj etzt
te s
D ie
ĠB e
E r
Ġk ann
Ġwar en
in gen
er t
D er
er s
S ie
o s
Ġs p
Ġsein en
Ġa l
Ġh Ã¤t
Ġf r
Ġn ie
o b
ig er
Ġk onn
el t
Ġwir d
ĠH and
al d
k ommen
lo s
Ġnicht s
n er
i st
âĶģâĶģ âĶģâĶģ
Ġb is
ĠD as
f e
Ġs ah
Ġg er
ĠI n
Ġdie se
Ġdie ser
Ġs ei
ch te
er k
Ġwur de
Ġn un
Ġk am
or den
hn en
eu te
und e
a p
ĠS p
is sen
a st
S ch
ĠK o
ĠM en
Ġs te
Ġwo hl
Ġs ehr
s p
Ġsel bst
Ġetw as
r Ã¤
an ge
ei gen
Ġw ill
h t
Ġl ei
a ge
ĠZ eit
g l
Ġzur Ã¼ck
Ã¼ hl
h in
k l
Ã¶ t
scha ft
Ġz wei
ei m
Ġsein em
g te
al t
Ġg esch
Ġkonn te
Ġge f
Ġ gen
o hn
i ÃŁ
d em
v or
Ġbe g
w ie
Ġw en
Ġo hne
ÃŁ e
Ã¤ d
Ġall es
Ġall e
ck en
Ġw Ã¼r
ĠF re
s a
it t
und en
ĠV or
ĠW ei
i mmer
ĠH er
b lick
ar t
it z
Ġge gen
l Ã¼
ĠS e
ĠhÃ¤t te
gen d
i on
a hm
Ã¤ l
Ġein mal
ĠD u
ĠS tr
ter n
Ġb r
Ġk ein
m e
Ġv iel
i k
Ġst and
o g
ĠR e
ĠH au
t w
v on
el n
Ġj e
D as
at er
Ġm eine
Ġein es
Ġs pr
ĠP f
Ġm Ã¼
nd ern
U nd
ĠL eben
n is
Ġwoll te
st and
Ġo b
ahr en
ĠW as
Ġb er
g esch
Ġihr en
isch e
Ġb in
m en
or gen
ach e
Ġg ing
a hl
o d
ĠK ind
ig keit
ag t
o mm
ch er
in n
f all
k e
hm en
i der
au m
w eg
s ich
ge w
Ġwei ÃŁ
ll e
sch l
Ġihr er
Ġh al
or d
nd e
t lich
ĠAu s
n icht
ot t
and er
s o
g lich
Ã¤ hr
ĠF r
e gen
n t
Ġv om
Ġ eben
i m
Ġk eine
Ġer st
Ġver l
d r
Ġz w
an ken
E s
iel t
z lich
ei ten
re u
a de
el te
Ġr ief
ĠkÃ¶n nen
Ġg ar
ei cht
Ã¤ hl
Ġf ort
Ġg leich
Ġd ir
Ġ e
Ġun ser
Ġso l
ĠwÃ¤ re
ben d
ll en
ar r
hal ten
ĠG el
ein er
an t
ĠAu f
ĠG l
p t
Ġdies em
Ġn eu
Ġd ich
ĠL ie
ge ben
ĠG esch
s ie
Ġh Ã¶r
ĠS o
E in
a ar
ge f
Ġ Ã
och en
ĠwÃ¼r de
l at
ĠKo pf
ĠW ir
u hr
d ig
ĠH aus
Ġihn en
ÃŁ er
Ġgew esen
Ġd r
Ġm Ã¶
am en
Ġv oll
ĠD a
ĠB o
Ġwei ter
ĠGes icht
il d
Ġg ut
ĠM ar
o hl
ÃŁ t
etz te
Ġhat ten
ge b
Ġge l
Ġfr agte
k ann
h at
sa mmen
ĠM it
ĠA b
ut ter
Ġ eigen
ĠmuÃŁ te
ĠI hnen
un ter
re chen
ie ll
ĠG r
Ġs agen
ch ten
u ten
et t
Ġwel che
Ã¤d chen
ĠGe f
ĠA l
v oll
ĠH o
q u
lo ÃŁ
ĠR ei
Ġsch l
u h
s icht
iell eicht
h au
k el
ĠL u
Ġwen ig
Ġer sch
Ġl assen
ĠT ag
Ġs ehen
l Ã¶t
f te
Ġlie ÃŁ
Ġl ang
Ġer w
ĠMen schen
b te
Ġg lau
A ber
Ġihr em
Ġl e
un ge
f el
lich er
Ġj en
Ġge m
ĠĠ ĠĠ
Ġdie sen
eu t
Ġm achen
ĠV ater
ĠSch w
e ch
it ter
Ġ rei
ind en
Ġh ei
i z
Ġbe f
h o
Ġre cht
ĠS te
d es
âĢ º
ĠB l
s sen
ĠN acht
âĢ ¹
Ġver sch
Ġbei den
enn en
ĠL and
mal s
Ġd ort
al s
ĠZ u
lÃ¶t zlich
a ck
it ten
s pr
Ġb et
ll t
Ã¤nd e
ĠGe w
on st
Ġin s
âĶģâĶģâĶģâĶģ âĶģâĶģâĶģâĶģ
m er
Ġl ange
ĠB er
ĠJ ahr
d as
z Ã¤hl
Ġd rei
ĠN ach
ĠW ie
Ã¤ cht
Ġsch ien
Ġsch w
b es
Ġwer de
ad t
m ann
ge g
Ġsoll te
f l
f er
ĠGe d
o gen
Ġwei l
J a
k lich
ĠM an
ĠM Ã¤dchen
ĠwÃ¤ hr
Ġdies es
ier en
Ã¤ m
Ġer f
Ġn ahm
pp en
Ġa r
ĠR u
f ten
ĠAugen blick
Ġ .
ĠW elt
ĠW or
ĠF l
b el
Ġgro ÃŁen
Ġge b
h ol
ĠB lick
Ġzu sammen
le gen
uÃŁ te
ung s
lie b
ge gen
ĠwÃ¤hr end
Ġ em
ĠSch l
S t
a ten
tw or
und er
w ir
ei ster
t s
r Ã¶
or en
er st
i ff
W as
ĠL ei
imm e
Ġsch Ã¶n
u cht
n a
e ck
Ã¶r t
Ġhin ter
ĠFre und
Ġg ab
Ġwoll en
Ġk omm
b l
ĠM utter
ĠK l
z t
au er
it te
ne te
Ġk ommen
w and
Ġf uhr
sch e
Ġ âĢº
Ġals o
Ġver s
Ġspr ach
Ġall er
ig t
Ġm achte
u st
Ġf rei
Ġg l
I n
ĠB es
sch ein
ĠA ls
ol d
ei te
Ã¤n g
Ġl au
Ġh o
ĠHer z
Ġall ein
Ġal ten
l er
a mm
u te
re ck
g leich
Ġb esch
Ġn e
Ġl ag
ĠUn ter
se hen
f Ã¼r
z w
Ġw ahr
w Ã¼r
ĠT age
t h
h eim
ĠG ott
Ġh Ã¶
z te
Ġal te
Ġzw ischen
Ġj ed
ĠB ru
p h
ge hen
in e
Ġb l
lie ÃŁ
ĠG ra
z ei
ĠD ann
Ġw orden
in nen
Ġf Ã¼hl
ĠW enn
as s
Ġb ald
Ġha st
Ġi r
etz ten
ein em
ĠU m
Ã¤ um
es s
e der
Ġsein es
ĠT Ã¼r
Ġda von
am e
ge m
ĠB r
ach ten
Ġganz e
g est
Ġkl einen
und ert
V er
st Ã¤nd
i hr
ĠW ort
nd en
S o
er e
Ġsch wer
n te
ĠK ap
Ġander en
ch es
Ã¤l t
Ġh ielt
A ls
ĠK a
Ġso ndern
Ġ.. .Â«
imm el
Ġall en
ich te
A u
eit s
Ġein z
Ġ ro
g ar
ur m
D a
Ġh eute
ĠHau se
Ġdes sen
Ġw eit
Ġw uÃŁte
Ġb rau
Ġw issen
ha ft
at t
Ġander e
i a
los sen
Ġp lÃ¶tzlich
or n
Ã¶ hn
ĠSt imme
ĠR o
Ġf Ã¼hr
ĠmÃ¼ ssen
ĠT h
Ġger ade
Ġer sten
Ġ Ã¼
ll te
and en
ier t
Ġb est
ĠM a
Ġdar auf
e hn
ig es
Ġs tr
u chen
Ã ©
Ġan twor
en den
Ġda mit
k ehr
ĠA bend
n ung
Ġt ief
re ten
ul d
ĠHerr n
in ge
z ie
Ġs eit
ĠZ immer
ÃŁ te
ĠL eute
Ġmein en
Ġv ielleicht
f ort
Ġk ur
ĠWas ser
pp e
a k
ĠA ll
G e
a hn
Ġge hen
Ã¼n f
Ġb lei
ĠE uch
eu er
W ie
ne ll
el e
Ġg est
Ġf ast
Ġgro ÃŁe
i d
ĠSt adt
Ġmein er
p er
ĠE nt
te m
g ung
ĠW eg
lich keit
ĠP ro
Ã¼ck en
as se
ru ck
ein ander
Ġs aÃŁ
.. .
Ġgew orden
Ġda bei
as ch
ing s
r at
kt or
de ck
Ã¶ ff
ei st
f Ã¼hr
Ġs onst
Ġf rÃ¼
Ã¤ ter
s es
Ġ en
U n
Ġf ol
Ġkl eine
tr au
ĠM e
en ster
Ġerw ider
f ern
Ġda zu
et ter
ar d
Ġer zÃ¤hl
sel ben
Ġa ndern
Ġb lieb
Ġb em
au ch
at Ã¼r
au sen
i v
ĠG er
Ġtr at
ĠO r
Ġr uh
ĠSt u
D u
n et
Ġv ier
ľ ber
Ã¤ nder
Ã¶n ig
end lich
ĠGe b
gl Ã¼ck
Ġste hen
k er
Ġi nd
kl Ã¤r
et te
A n
ĠF el
i an
d urch
p fen
w ohl
ĠE n
Ġt un
uch te
Ġwur den
ĠD o
ei den
Ġk einen
Ġhin aus
ĠhÃ¶r te
Ã¤ ft
ĠG en
Ġn eben
Ġver m
d aÃŁ
ĠS on
etz en
Ġj unge
hal b
es sen
o ck
ri ff
f ol
a den
de te
ĠMen sch
ĠSch r
z eit
Ġnie der
ĠAr t
eu ch
ĠH Ã¶
Ġf est
Ġd achte
Ġwir klich
ĠM orgen
z eu
t eil
ĠGel d
w Ã¤r
am pf
hat te
ĠT r
ĠM al
ĠD ien
ge h
Ġerwider te
ĠM o
n ach
ĠWor te
Ġl Ã¤ch
Ġden en
ste hen
it zen
at ten
ill e
o ten
Ġantwor tete
z ig
r ich
k te
s s
ie le
Ġein ige
ĠA m
ein es
u er
Ġb ist
es ter
ĠB rie
br acht
sten s
Ġkomm t
ĠH Ã¤nde
z ur
ar ten
all en
ĠGl Ã¼ck
n ahm
Ġbe w
ĠK r
ĠC h
der n
r en
Ġher aus
Ġir gend
ĠN amen
lich es
ĠH immel
at ion
ĠGed anken
ĠLie be
z ogen
Ã¶ l
ĠS eite
z er
Ġj ungen
Ã¤ ÃŁ
ne hmen
ĠJ a
Ġbeg ann
l en
sch ie
Ġder en
Ġst ie
p e
Ġver g
lat z
Ġmein em
o nder
in ter
N un
m Ã¶
Ġk aum
Ġganz en
Ġge kommen
o u
ill en
W ir
Ġo ffen
ĠF enster
ur cht
Ġer h
ra gen
ern e
ĠE nde
enn t
isch er
Ġgeh t
Ġdar an
Ġf and
ĠG em
re und
Ġge ben
ĠkÃ¶n nte
Ġgem acht
ĠStr aÃŁ
z wei
ĠB ar
n ie
ĠB ei
Ġges ehen
Ġgen ug
sch te
Ã¤ h
Ġsch war
ĠM Ã¤n
ank e
an s
Ġver b
ĠJahr e
Ġges agt
ĠL icht
a ber
ell en
m ut
Ġf iel
ol z
N ein
i bt
ei d
ĠM on
l assen
m and
Ġd un
ĠSt unde
Ġ endlich
l and
o w
ier e
Ġver d
Ġh och
ĠP ar
ro t
Ã¼ gen
atÃ¼r lich
Ġge t
re cht
s k
Ġje der
Ġz ei
lie ben
Ġp aar
ĠB eg
at ur
Ġbes ser
Ġgro ÃŁ
e hl
Ġl etzten
ĠM in
d a
o p
ausen d
ur g
Ġihr es
ĠE l
s se
ĠIhr e
ĠH a
lei d
Ġz og
i c
ĠBo den
ĠfÃ¼hl te
ĠK Ã¶nig
ĠLu ft
Ġ 1
Ġs etzte
f r
ell e
ĠSch iff
Ġf Ã¼nf
hal t
Ġbei m
ĠF uÃŁ
Ġs e
Ġo ft
ĠÃ ľber
Ġan ge
Ġhal b
br igen
ĠD ir
b eit
Ġem pf
ig te
ĠS ache
Ġz ie
ing t
h and
it Ã¤n
h err
Ġsch nell
Ġun be
u mm
ch ter
il de
ĠU hr
sch w
ĠT isch
ff e
Ġver w
Ġl eg
fall s
or g
m an
ĠJ u
sch t
ĠT od
Ġer n
al ten
t ag
ĠGe gen
Ġha b
Ġ ei
ĠT on
in ner
W enn
a f
k am
imm t
Ã¤ her
ĠPf er
ĠW ald
in ken
ab t
ĠW ar
Ġge d
Ġst ar
r icht
Ġw and
eil en
H err
Ġge tr
Ġn Ã¤ch
fall en
Ġb lick
ra ft
ĠHer zen
Ġher vor
Ġsp rechen
h te
ol k
ĠAr m
ĠG est
ĠM r
Ġg rÃ¶
au ern
aÃŁ t
Ġhin ein
ĠKind er
Ġdar Ã¼ber
er en
o h
Ġlie ber
hau pt
ein t
kann t
ĠK ir
ier te
ck e
ĠN un
ra ge
ĠL e
ĠSch ul
ĠHau pt
Ã¤nd en
a he
ĠS ohn
ell schaft
Ġje den
h Ã¶r
un st
Ġgeh Ã¶rt
Ġh e
ĠHerr en
ĠL i
wie der
hr en
ĠF Ã¼r
p or
Ġl eben
ll ig
m ehr
Ġ Ã¤
w ill
u d
Ġg ibt
och ter
l ang
Ã¤n ger
Ġk Ã¼
Ã¼ b
Ġer g
Ġm al
ĠJ ahren
Ġgl Ã¼ck
un ft
âĶģâĶģâĶģâĶģâĶģâĶģâĶģâĶģ âĶģâĶģâĶģâĶģâĶģâĶģâĶģâĶģ
Ġf inden
and e
Ã¶ s
Ã¼t tel
Ġne hmen
o ÃŁ
Ġso fort
Ã¼hr t
ĠE i
s inn
g st
ĠE ur
le gt
Ġg rÃ¼
tw ort
Ġo ben
Ġlei cht
ĠFrau en
Ġind em
o st
ĠW agen
v iel
a ffen
ĠBru der
I hr
Ġb el
s ein
g ten
Ġein f
at z
ck te
n och
ich ten
h aus
Q u
ĠG ro
Ġso gar
ze hn
k r
Ã¶ pf
ha ben
ot z
Ġver h
i b
och te
ĠZ wei
oll en
Ġsch au
Ġsch rie
Ġsich er
ĠH aar
ĠK Ã¼
ie b
Ġlang sam
a ben
rie den
Ġd e
ĠD enn
am il
o pf
Ġwar f
ĠM ein
it ze
Ġw Ã¤r
all e
Ġ (
Ġ Ċ
n ur
Ã¼ck te
ĠKap itÃ¤n
ĠmÃ¶ glich
Ġau ÃŁer
Ġetw a
es ten
Ġbes onder
Ġhal ten
ir n
Ġer klÃ¤r
ĠP ol
ĠMÃ¤n ner
ĠO ber
Ġsch le
ĠLeben s
N ach
gen ommen
ĠSe ele
Ã¼ck e
Ġwel cher
Ġk r
Ġersch ien
Ġbr ingen
ll ung
au l
e ter
ick te
ĠEin e
ĠmÃ¶ chte
in k
Ġruh ig
Ġlei se
Ġsel ber
ag er
ges sen
w en
ĠP r
ĠFre u
z immer
Ġeigen tlich
ĠAu ch
g ang
D ann
as che
ĠBrie f
Ġbe d
ge t
Ġl achte
ĠSte lle
pr ochen
at h
lieÃŁ lich
Au f
Ġleg te
ahr t
Ġs ech
B e
Ã¤hr end
rei ch
al e
zu g
os sen
ĠEr de
Ã¼ck t
Ġsp Ã¤ter
ĠB Ã¼
ĠAr beit
te ten
ĠhÃ¶r en
ĠF Ã¼
Ġander s
et ten
ĠWei se
m eister
Ġverl assen
ĠÃ Ħ
ch em
ing er
Ġst ill
ann te
M it
w o
ĠfrÃ¼ her
Ġda hin
rÃ¤ ul
rÃ¤ul ein
G es
Ġbei de
Ã¤ng st
Ã¶ ne
k eiten
ĠF rei
Ġ pr
ĠU r
ut z
ĠD och
Ġste ht
ĠB ett
Ġg ute
j a
Ġl os
Ġd Ã¼r
Ġge g
g n
icht s
ber t
ĠB ild
on t
ĠH e
Ġher um
fe hl
Ġsol che
weg ung
Ġer ste
o ff
at s
is s
Ġw eg
erk te
sel be
Ġer war
on nen
w e
l agen
anz ig
Ġden ken
ul dig
Ã¼n st
ĠSt unden
u b
ĠP ap
ges te
Ġg ern
V or
ĠĠĠĠ ĠĠĠĠ
ĠS a
Ġz war
wÃ¤r ts
Ġv iele
ĠN e
Ġjen er
f or
Ġf lÃ¼
Ġ Ã¶ff
ĠF euer
Ġblei ben
Ġtr otz
ĠhÃ¤t ten
ĠW e
Ġneu e
p en
un ken
ĠAu ge
o k
ĠT ochter
Ġent gegen
ĠF ei
ar m
Ġg rau
ft ig
ra ten
rei ben
sch er
Ġa nd
ĠW er
ĠAll es
ann t
Ġkur z
Ġm orgen
bar en
k a
ĠD ame
ĠStraÃŁ e
ĠK rie
Ġ Qu
od y
ĠSon ne
ĠP latz
Ġeben so
Ġgen au
ĠW ind
Ġer k
ĠS pr
ĠAr me
Ġm ag
ĠP l
Ġkam en
rau ÃŁen
ĠD e
as chen
in z
ern en
rei s
ĠWei b
Ġl Ã¤
ob ody
au t
Ġn Ã¤her
b o
Ġh eim
Ġgeh abt
Ġall em
um en
br ingen
ers on
ĠSch la
lei chen
Ġtr ug
Ġunser e
ĠN ur
Ġm acht
zw ischen
Ġt h
ĠP h
er l
h undert
ei ch
Ġda mals
ĠnÃ¤ch sten
ĠBl ut
Ġz ehn
k unft
ĠM Ã¼
Ġge k
f Ã¼
oll te
Ġs agt
d ruck
h st
gen den
a z
ĠH el
u fen
Ġdar in
Ġwel ches
gel n
ich tet
l icht
Ġj ung
w enn
ĠK ar
Ġwand te
ĠRu he
f Ã¤
ĠI m
ĠK n
wei se
sp iel
ĠGr und
Ġhin zu
ind er
ĠN eu
zei ch
ck t
Ġbr achte
w as
st ra
on s
ĠGef Ã¼hl
pf er
ĠLi ppen
z ahl
Ġlie b
Ġbet r
ot tes
ĠZ w
Ġun ver
Ġb loÃŁ
ĠRe cht
Ġn atÃ¼rlich
m lich
ĠAn twort
i mmen
ĠMe er
ĠE m
Ġg uten
ĠTag es
Ġber eits
Ã¼ l
ĠM und
ĠI nd
Ġj em
Ġglau be
or f
ĠDo ktor
is er
ĠS Ã¼
ĠBru st
Ġnie mand
w el
Ġsol chen
Ġ pf
Ġz er
Ġw egen
Ġgegen Ã¼ber
ĠT o
Ġwenig stens
Ġneu en
zie hen
ĠF rage
enn e
geg nete
Ġver st
Ġzei gte
ĠF amil
Ġver ste
Ġblick te
Ġmein te
Ã¼ ge
Ġh err
w ur
as e
Ġent sch
ĠF rÃ¼
il der
i hm
nis se
Ġhin auf
Ġstand en
icht er
Ġkl ar
Ġa cht
hn te
v en
tr agen
Ã¤ he
k omm
Ġl angen
Ġg u
r itt
Ġst Ã¼r
Ġlie ben
g r
ĠhÃ¶ ch
ar f
ĠH och
Ġschl ug
ĠfÃ¼hr te
wer k
Ġ rau
sel n
en e
br ochen
ĠT rau
st ern
i sten
ĠVer b
d et
ĠFr anz
A m
ĠL o
lie ÃŁen
ĠD en
ĠV olk
Ġsoll en
au fen
Ġer rei
is se
Ġw under
ĠGes ellschaft
kann te
Ġda fÃ¼r
el bst
ĠEn gl
A r
Ġr icht
Ã¤n en
Ġd eu
h Ã¤lt
Ã¼r ger
sam keit
ĠFre unde
Ġgew Ã¶hn
ĠE hr
Ġwieder hol
ĠFreu de
ach sen
ĠC hr
ĠB ur
m erk
b urg
ho f
ge kommen
stand en
Ġnie mals
ĠF rÃ¤ulein
a hen
ĠJ etzt
Ġun ten
M an
ĠÃ¼ber haupt
m Ã¼t
Ġbes te
ĠÃ¼ brigen
g ing
A ch
achte te
Ã¶r per
an te
s etzen
wÃ¼r d
Ġem por
a te
Ġlau t
ĠN ie
o ffen
ĠW ohn
ĠwÃ¼r den
ick t
Ġ euch
Ġlie gt
Ġ eil
Ġd eine
ĠN atur
ne hm
Ġlie be
ĠW ahr
la fen
ick en
ĠA ch
Ġsp iel
aÃŁ te
un kel
Ã¤n ge
c e
geg angen
ri ft
au r
Ġan zu
ĠS eine
Ġt at
i ster
ĠSchw ester
ĠD r
ĠSe e
Ġun er
Ġdar f
ie den
Ã¤ch eln
ĠHo f
Ġn ein
ste llen
i tel
ge d
Ġverl oren
bar e
Ġwar um
Ġnach dem
Ġw ider
ĠB et
ĠH Ã¤nden
Ġwar d
Ġ ehr
Ġher ab
Ġfrei lich
Ã¼ cht
ĠT agen
ĠD ich
Ã¤n gen
Ġge geben
ĠâĢĵ Â«
ĠT ro
ie ben
Ġd ein
m Ã¤ÃŁ
ĠGra f
h eiten
es te
ĠA d
Ġb en
ĠK u
k Ã¼
ĠK am
ĠV on
Ã¤t te
ÃŁ ten
ĠGesch ichte
el nd
mÃ¶ glich
or ben
ag d
e hm
u gen
Ġgew iÃŁ
s al
l ein
ig ung
Ġh ol
Ġ Ã¶
ie ÃŁ
Ġfr em
ĠFr em
f ahren
g ro
ĠT re
ien en
zur Ã¼ck
l ung
ehr te
an ten
ĠN ot
sp rechen
el ten
ĠF or
ĠschÃ¶n en
Ġf ro
rei ten
ĠSch m
ĠWor ten
es se
ĠkÃ¶n ne
l in
Ġsch m
Ġf Ã¼
ĠW esen
d ar
Ġg ingen
nd lich
a v
c t
ĠN ein
er te
Ġs uchte
ei g
ĠD amen
ste s
Ġr asch
Ġgef unden
wer den
rie ben
Ġjed och
eu ten
Ã¶r en
schein lich
Ġf reund
s ah
Ġglau bte
ĠM iÃŁ
f ter
Ein e
il den
ei chen
lau ben
s eine
u f
Ġ '
ĠW o
Ġent fern
Ġvor Ã¼ber
ĠH il
ĠK raft
die s
Ġeinf ach
Ġsch Ã¼ttel
Ġe he
m ir
l Ã¤
eu fel
lo sen
g anz
u ck
Ġkonn ten
en s
W ar
ĠN obody
Ġerh ob
o se
Ġd rauÃŁen
ber g
b et
rei fen
Au gen
ĠSch rei
Ġbe de
Ġf ehl
ĠGest alt
le ben
ie t
h ielt
ĠH ier
ĠP erson
Ġh eil
ĠSt ein
Ġb lau
wei gen
ie gel
ei le
i hn
u che
Ġh ob
Ã¤ che
m Ã¼
A us
Ġhei ÃŁt
ĠG ottes
Ġver gessen
b ten
ind e
Ġw Ã¼
ĠK na
ff iz
Ġn Ã¤m
i o
f in
S p
a i
h ung
Ã¤u f
ĠH eim
ĠZ ug
ĠSt Ã¼ck
Ġre den
Ġglau ben
Ġk ennen
M ein
ĠD inge
sch au
sch n
d u
e ber
ĠT eil
ĠW ol
ĠBe wegung
ĠHo ff
ĠD eut
Ġf urcht
p ft
ĠSch u
d ings
ĠDie se
Ġf reu
re cken
ĠglÃ¼ck lich
ĠF all
w end
pf te
Ġ qu
ĠW erk
ĠAl te
ĠR eg
y r
F rau
ĠMin uten
i um
ert ig
ĠS eiten
al en
rei se
en de
in a
au ber
be g
ĠP eter
Ġ c
ĠE x
ĠDien er
Ġjed em
J etzt
Ġmein es
Ġeigen en
Ġ el
ĠG old
Ġsch Ã¶ne
ĠRei se
ĠG arten
o ur
ĠGen er
ĠÃ¤ uÃŁ
t sam
Ã¼ m
sch on
pr Ã¤ch
o sen
ll ten
o der
Ġsie ht
ĠIn sel
Ġauf ge
h Ã¶
en k
ĠL Ã¤cheln
ĠCh ar
ĠS ein
ges ehen
ĠA lle
Ġaus ge
Ġern st
Ġget an
ĠMann es
Ġhin ab
ĠL au
ĠG eist
Ġauf s
j e
f ang
ĠAn gst
Ġgesch ehen
on e
Ġent gegnete
Ġd eut
schl ag
k Ã¶n
el s
w ohn
ĠJ e
Ġw Ã¼n
Ġge bracht
uÃŁ t
ie fen
Ã¤n gt
Ġst att
ĠH Ã¤u
ĠS ir
Ġst arr
Ġh ell
i p
M en
Ġgen ommen
m ar
ĠlÃ¤ch elte
Ġjed es
a ff
ri ffen
Ġein st
ster te
ĠR Ã¼ck
ĠKrie g
Ġauf zu
ĠGl as
Ġgro ÃŁer
ru h
Ã¤ ger
lie f
ĠlÃ¤ ÃŁt
Ġn ahe
ĠB esch
Ġver n
i us
m ich
ĠUn glÃ¼ck
ich er
at ers
Ġje de
ur en
Ġsch lieÃŁlich
oll e
t ig
Ã¤ glich
Ġges prochen
Ġwen iger
b esch
ĠWe ge
wei len
Ġbesonder s
ĠT eufel
ĠS ter
ie s
schie d
Ġvor bei
ige m
y s
schl agen
Ġstie g
U m
isch es
ĠGe heim
re ffen
a be
ĠB uch
in s
ÃŁ ig
ĠH Ã¼
Ġwei ÃŁen
ĠS al
ĠSp iel
Ã¤ re
ĠB rau
un k
Ġh Ã¼b
oh ann
g ier
mit tag
den ken
Ġh et
Ġd ro
ĠSt irn
h ei
re d
le gte
Ġn Ã¶t
Ġb itte
Ġl etzte
ĠN Ã¤he
um pf
Ġwoll ten
el fen
st r
ag ten
Ġh undert
ĠD ar
ur e
ĠH al
ĠW and
Ġf ei
ĠÃ¶ff nete
W er
z ten
ind et
Ġwel chem
ĠHÃ¶ he
W o
b ald
aÃŁ en
Ġlie gen
d ien
Ġbes ten
Ġv Ã¶
Ġz itter
ĠWei le
Ġwir st
end et
ĠSch n
ech sel
ĠGro ÃŁ
Ġbem erkte
Ġs ahen
Ġaus zu
ĠKir che
hl en
au nt
ch mal
ĠW ein
m achen
wei l
or fen
f rieden
Ġsech s
achte t
Ġsoll ten
e hmen
ĠM ad
ĠM itt
d och
ĠPol iz
Ġb Ã¶
Ġkein er
br ach
an e
ĠR om
Ġwill st
ĠerzÃ¤hl te
ge bracht
ĠH ei
ĠB ed
mit tel
Ġh and
Ġl Ã¤nger
Ġt ot
ĠSch atten
s uch
ho ben
ĠAn t
er g
z Ã¼
voll en
iel ten
Ġn ickte
Ã¼ llt
ste t
Ġspr ang
Ġsel tsam
Ġa bend
ĠFamil ie
scha ften
ĠKo mm
ĠschÃ¼ttel te
s on
ĠGef ahr
ĠPfer de
z og
Un ter
ĠH olz
Ġher ein
ne ten
Ġerf ahren
Ġdar um
d ann
itz t
wÃ¼r dig
un kt
ĠSchla f
Ġein ander
ĠMit tel
Ġjem and
Z u
Ã¤r m
Ġs Ã¼
ĠChr ist
A ll
y m
Ġho hen
Ã¤cht ig
rÃ¼ ben
ĠS old
ĠF ar
Ġgeg angen
Ġschwar zen
Ġvor her
ĠK unst
trau en
Ġ ch
imm ung
i x
ĠSch loÃŁ
lat t
Ã¤u sch
ĠBar on
al ter
rie d
il ber
la ge
ĠR icht
o pp
or e
f ess
w esen
Ġm ochte
i f
ion en
egen heit
war t
Ġversch w
ĠR Ã¼cken
ĠEr st
ĠSch ick
ĠwÃ¤r en
W ei
ĠerklÃ¤r te
F r
Ã¼t zen
ier ten
ĠR at
Ġal ter
ĠSch Ã¶n
us ik
Ġf l
ie ber
ie gen
Ġunser er
u e
den n
Ġal t
b rau
Ġkann te
S tr
ĠO n
b ild
ĠH als
geste llt
ĠmÃ¼ sse
mer z
G esch
ha ften
Ġs tet
ĠG rÃ¤
a mmen
in en
ĠnÃ¤m lich
ĠG ast
f rau
0 0
ĠO ffiz
ich tete
k onn
Ġd re
ĠB ank
Ġander es
Ġs age
s einer
Ã¤um en
ha fte
l ing
ĠK ampf
as en
f ahr
Ġs uchen
Ġwoll e
Ġm erk
Ã¼ re
Ġein ge
H er
ĠR itter
Ġf or
Ġsch loÃŁ
p l
ĠSch ne
Ġeinz ige
ĠK ur
n ern
n Ã¼
Ġlie f
deck t
ĠB u
Ġste llte
Ġr u
Ġbe weg
ĠgrÃ¶ ÃŁer
lo se
g ra
Ġjen e
a cken
au st
st u
n Ã¤d
Ã¤um e
fÃ¼hr en
Ġw or
Ġfol gte
ĠAus druck
Ã¤ mmer
Ã¼t ter
s agen
ĠE d
Ġsch wie
ĠVer l
ĠSchr itt
ĠMo nd
Ġstet s
ĠD eck
ĠM ut
Ġw eder
ĠN icht
Ġstar k
v ier
Ġbeg lei
ĠDien st
ĠG rÃ¼
mm e
sch m
re gung
z end
Ġgel ang
ĠO hr
eu f
Ġsch n
ĠT a
n ten
ĠU fer
ĠL a
Ġver k
ĠD ank
ĠT at
es sel
ĠSon nen
ĠMa j
m a
bei ten
ind ung
Ġab ge
ĠM eister
Ġab zu
Ġschau te
ĠH eil
Ġtr aur
I m
f angen
Ġle b
Ġges tern
den schaft
Ġf lo
S e
ĠK or
A uch
e cht
ges etzt
Ġun ge
ur fte
H ier
M ar
ĠSt a
ĠTre ppe
er v
at te
ei en
er kt
eu chten
ĠT he
s ucht
s etz
Ġsch eint
ĠvÃ¶ llig
ĠBes uch
de ut
Ġbe h
ĠW ohl
Ġges te
Ġversch ieden
ft igen
Ġgeh eim
ĠEm pf
Ġd icht
ĠS elbst
re ch
Ġer halten
e ktor
g ern
ers Ã¶n
Ġsch wei
s einen
Ġw e
Ġhin unter
anz en
ĠWir t
ĠF le
ĠT e
y l
au nen
Ã¼ ch
spr ach
fess or
ĠÃ¼ber all
Ġe w
Ġbe kommen
Ġvers etzte
Ġdeu tlich
Ã¶ st
es ser
s sel
Ġkann st
ĠGener al
ĠB aum
ĠI r
ĠC ar
sel bst
Ġdun kl
ĠK lo
ĠL age
Ġum her
h em
Ã¤cht igen
ĠWahr heit
ĠE igen
ĠGes prÃ¤ch
ĠH inter
ĠZ eichen
Ġ Y
B ei
ien e
es halb
ĠW ider
ĠE ind
Ġbef and
Ġar men
ĠPar is
Ġ ed
ei ben
ĠS inn
ĠWohn ung
Ġm urm
Ġviel en
Ġha bt
ĠRe de
ĠW inter
Ã¤ch st
ĠM Ã¶
ĠfrÃ¼ h
ĠR aum
Ġstie ÃŁ
ĠGew alt
ĠHil fe
ĠF lÃ¼
ĠMen ge
ĠGesch Ã¤ft
Ġs ter
Ġzie mlich
Ġda her
ten d
Ġse he
Ġf ertig
Ġgeh Ã¶r
b est
o ben
i ent
ĠmuÃŁ ten
Ġin ner
ĠB Ã¼rger
s ol
ĠK Ã¶rper
al ien
rei chen
ik a
ĠAr men
ĠG ei
Ġbe ob
em ar
Ġzu erst
Ġh ing
Ġ 2
Ã¼ hm
hn t
Ġl as
ĠJ ohann
ohl en
Ġsei d
f rei
nahm e
it Ã¤t
Ġar me
h eil
ĠW ochen
o ÃŁen
Ġm ei
uch s
arr en
Ġber eit
o sten
Ġzu gleich
g Ã¼l
Ġge be
sam en
ĠU eber
ehr en
war en
Ġbr ach
am a
ste llung
t reten
Ġhin Ã¼ber
ĠGe h
ĠIhr er
p el
ĠK on
Ġb ein
ĠSchr itte
ĠV aters
Ġher an
Ġein zu
or ge
Ġf ern
Ġgeb lieben
t o
ie ten
ĠNach bar
Ġs itzen
ann ten
Ġwiederhol te
ĠD urch
ĠVer w
ĠP al
Ġt ut
ĠGed anke
ahl en
an c
ĠF est
er in
Ġver z
Ġsol cher
der te
st Ã¼r
ĠW illen
ĠMal e
ĠfÃ¼hr en
Ġsch reck
am ent
ĠPf arr
D och
ĠerzÃ¤hl en
t lichen
st ein
ĠGel egenheit
Ġgew alt
Ġges p
te uer
ĠF inger
ĠI st
ol den
ha be
Ġdes halb
ab ri
ĠEhr e
re ut
H and
Ġgl Ã¤n
i se
Ġgef allen
ĠD orf
wer t
h ier
l itz
in ne
us s
ĠFÃ¼ ÃŁen
au se
ĠR au
r t
legen heit
Ġzwei ten
nicht s
ĠZwei fel
Ġ Ã¤r
ĠH ut
der t
I st
un sch
or te
ĠB auern
ul t
f inden
o nd
sa mm
kann ten
Ġmit ten
Ġd rÃ¼ben
ĠRe gen
u mmer
r as
sicht ig
weg s
Ge w
V on
Ġun glÃ¼ck
ĠZ eu
Ġda gegen
Ġall gem
ĠBo ot
ĠStu hl
Ġl agen
Ġrei ch
Ã¤uf ig
ĠM at
Ã¤l te
z el
Ġh elfen
och e
ĠE he
ĠJ unge
Ġs an
Ġz eigen
i den
ie ÃŁen
lÃ¼ hen
er sch
ol e
ri st
Ġbe vor
ĠS and
Ã¤ gt
Als o
ĠEr inner
ĠHaus es
s agte
ĠM acht
ĠK erl
ĠL ord
gesch lagen
zeu g
i pp
ĠL euten
ĠJu gend
b lei
ĠH ans
ĠT ier
voll e
Ġf ragen
a y
ĠPfer d
Ġsei en
ĠweiÃŁ t
j en
f lich
s eit
lie gen
z un
Ã¤ ge
Ġhier her
ĠP aul
w ahr
st adt
konn te
ĠKap itel
ĠLu st
Ã¤ llt
ell er
Ġen gl
ĠflÃ¼ sterte
k la
j etzt
Ġl a
ĠPro fessor
b in
b ung
reu z
f iel
Ġder selben
N a
ver s
ĠMÃ¼ he
ĠEr n
Ġricht ig
zu sammen
Ġden ke
ĠM ich
Ġge halten
etz ter
zw anzig
ĠSt urm
stÃ¤nd ig
b rechen
t liche
Ġi s
Ġer l
Ġt ausend
Die se
Ġgu ter
reck te
War um
Ġschwie g
ĠV ier
ĠV ielleicht
Ġd an
ĠP er
ĠKa iser
ĠmÃ¼ ÃŁte
ĠO b
dig t
ĠK lei
lau b
v e
ge zogen
Ġh eut
ĠDie ser
ig n
Ġt reu
Ġer kannte
ar en
ĠFel sen
Ġb lo
Ġk rÃ¤
ĠTr Ã¤nen
ĠHoff nung
gn Ã¼gen
Ġwar ten
Ã¤ ck
a c
Ġbe kannt
die ser
Ġbesch Ã¤ft
Ġkl einer
Ġfol gen
on en
ĠFel d
Ġth un
w ider
Ġt he
ĠT al
Ġdr Ã¼ckte
lo t
ĠLand e
Ġdurch aus
ĠOr d
ĠF urcht
Ġk n
Ġver stehen
ĠT or
Ġsel ten
al te
tr ag
.. .Â«
a pp
komm t
Ã¤ us
Ġg nÃ¤d
Ġkl ein
Ġblei bt
ĠM ag
kehr en
ĠA nd
le bt
Ġmurm elte
M ann
Ġtr agen
ĠBl umen
ab ei
ĠJ ul
Ġged acht
ĠOn kel
gem acht
ĠB ord
Ġger ing
wei sen
ĠSch uld
Ġb iÃŁ
g rÃ¼
ĠG ang
ĠWar um
al k
Ġb at
Ġein igen
Ġer re
ĠK om
ĠL achen
ĠE cke
L eben
Ġs etzen
ĠPoliz ei
lei sch
f lÃ¼
Ġer inner
ĠFÃ¼r st
ĠHerz og
wen ig
Ġan s
halt ung
ĠBe w
Ġl ust
ĠBer g
A l
er lich
Ġver lieÃŁ
ĠlÃ¤ch elnd
schie den
w in
Ã¤l ter
Ġm en
ĠVer hÃ¤lt
Ġl Ã¤ngst
ĠMein ung
am it
ig ten
Ã¤ ste
ĠBlick e
ver stÃ¤nd
gel assen
bei ter
ĠR ie
Ġerk ennen
w eit
ĠE is
ĠdÃ¼r fen
ĠD i
Ġso nder
rie ster
Ġkl ang
ter ess
ĠEl tern
ĠAl ter
Ã¤ s
Ġf ahren
us ammen
Ã¤hr t
ĠD ort
ĠG u
ick e
ĠA t
ĠBe fehl
ĠB rÃ¼
Ġbis her
N icht
ig keiten
hau p
ar te
ĠSt ock
s b
Ġk enne
Ġstr en
Ġt au
gew esen
Ã¤ g
Ġander er
w Ã¤hrend
pf el
stand e
br uch
Ġso gleich
ĠhÃ¶ her
Ġf allen
o f
Ġda durch
ĠAls o
au ft
Ġsie ben
ĠÃ¼ber zeu
Ġm iÃŁ
ĠW ill
Ã¤ch ter
k ten
Ġher bei
Ġbe k
o te
am p
ĠAn blick
kehr t
Ġman chmal
ĠL ehr
Ã¶pf e
ak ter
ĠB el
ĠEi sen
ĠJ ung
s einem
ach end
ik an
Ġzw anzig
âĶģâĶģâĶģâĶģâĶģâĶģâĶģâĶģâĶģâĶģâĶģâĶģâĶģâĶģâĶģâĶģ âĶģâĶģâĶģâĶģâĶģâĶģâĶģâĶģâĶģâĶģâĶģâĶģâĶģâĶģâĶģâĶģ
un s
ĠAugenblick e
h Ã¼
Ã¼hl e
Ġg r
die se
ĠĠ Ġ
lau fen
ei fen
Ġent w
ĠH ar
r es
ĠG ru
ir e
ĠV o
ĠerzÃ¤hl t
f uhr
anz Ã¶s
ĠK er
wie sen
A b
Ġf in
sch r
ĠJ ohn
ie d
Ġjen em
ĠStraÃŁ en
Ã¤nd ern
Ġsch ritt
Ġdun kel
ĠEind ruck
g ab
ch tete
ĠK rÃ¤
ĠH und
ĠF ol
ĠSchick sal
wei ÃŁ
gef Ã¤hr
ĠD unkel
ĠMann e
ĠMit te
ĠÃ¼brigen s
uch ten
ges p
Ġzie hen
ĠSo mmer
ĠLei b
l es
Ġster ben
Men schen
ind ern
i ft
Ġn ennen
ĠIhr en
ĠBes itz
Ġaller dings
ĠPr inz
ĠE llen
be w
ĠM usik
mÃ¶ gen
Ġschle cht
ĠAl ten
ĠGrÃ¤ fin
z ut
Ġhe ftig
stra ÃŁe
ĠSold aten
G el
Ġwel chen
f ahrt
ĠG ut
gesch lossen
rot z
ĠK at
tr at
ur t
ĠSchne e
ra d
ĠfÃ¼ gte
ehr t
ĠU l
ĠAn st
gew Ã¶hn
le y
ĠÃ ĸ
gef Ã¼hrt
ĠAr zt
Ã¶r der
Ġvor aus
Ġsch lafen
Ġand re
Ġbein ahe
Ġlie ÃŁen
ĠWie der
ĠsaÃŁ en
ihr e
ĠG leich
lie bt
ru g
u gend
ĠM u
ĠM iene
ĠC l
m ein
s ache
Ġge he
Ġber uh
b au
Ġz erst
ĠKlo ster
Ġbetr achtete
an twor
ur z
Ġsch arf
Ġtr af
Ġin teress
Ġbest immt
ĠTh Ã¼r
w ind
Ã¶ sen
Ġver stand
und zwanzig
ĠH alt
o cken
all es
Ġerst aunt
g leichen
Ġob wohl
Ġein s
ann e
Ġwill en
Ġsp Ã¤t
ĠW under
Ġn ot
ĠMitt ag
Ġun mÃ¶glich
Ġdun k
ĠK an
ĠN ame
Ġkl eines
ĠTo de
m Ã¤h
s ind
Ġer he
ĠK nie
Ġauf ger
acht ung
z i
y n
ĠA nder
Ã¤t ze
ĠGra fen
Ġro t
Ġs ag
ĠM art
ie g
sch rift
Ġvoll kommen
Ġkomm e
Ġh Ã¤lt
Ġf al
Ġjung er
k Ã¼r
d rei
ich en
Ġfreund lich
de ten
um e
schl uÃŁ
ĠBer lin
tr itt
f reund
ĠMar k
v ol
ĠZ orn
ĠP riester
ĠPap ier
ĠEr d
Ġa t
rie f
qu em
n iÃŁ
Ã¶ ger
ĠT rÃ¤
Ġwahr scheinlich
ass ung
Ġf ing
Ġsch mal
ro cken
ĠÃ¤ hn
Ã¤ch lich
all er
âĢ¹ ,
s uchen
Ġm achten
Ġein iger
ĠGef angen
Ġd urfte
ĠF rieden
zun ehmen
Ġd einen
ink s
wur de
ĠM ill
ĠI de
ĠW Ã¼r
Ġgesch lossen
Ġ1 8
Ġn it
ĠZu kunft
ĠF Ã¼hr
ĠFei nd
âĢ ¦
ĠKam er
Ġf aÃŁte
zu m
ĠS u
ein mal
hn ung
ĠmuÃŁ t
ar a
wei ter
G ott
Ġr Ã¼hr
Z eit
E nt
st Ã¤nde
ĠgroÃŁ es
ĠH in
ĠW al
ĠSch weigen
ĠA tem
ĠT oten
ĠM or
ĠF ort
Ġd ank
ĠK leid
Ġge p
ir gend
and t
ĠÃ¼ br
Ġge legen
ĠB est
Ã¶ d
ĠS onn
mÃ¤ÃŁ ig
Ġh ieÃŁ
rich ten
etw as
kt iv
h ten
sch u
h Ã¤tte
Ġsoll e
D en
ĠKna ben
l etzt
ĠG ar
ĠGr unde
ĠN a
lau bt
Ġwar tete
ĠO hren
h el
brigen s
ĠB ahn
ĠOrd nung
se hr
Ã¼nst ler
Ġh art
ĠD em
ĠJ Ã¼n
ĠD ampf
ĠLu c
st eigen
Ġunter brach
Ġd Ã¼
Ġt eil
wei s
Ġschwar z
k n
ĠL ad
ĠN och
Ġwo hin
st Ã¼ck
m us
ĠLie b
ĠN ase
ĠVer gnÃ¼gen
Â« .
imm te
b u
Ġsch rei
des sen
b em
gr und
ĠSchÃ¶n heit
sch Ã¶n
ĠF ragen
spr uch
ĠM el
Sch w
Ġr iÃŁ
ĠTrau m
blick te
Ġerf Ã¼
ĠKa mmer
ĠEngl and
Ġt a
n ungen
re cher
er ken
orden tlich
ar e
ber n
anz e
Ġgef Ã¤hr
Ġkr ank
p latz
Ġd einer
ĠkÃ¶n nten
i as
ĠP art
auer te
Ã ¨
ĠW etter
hl e
Ġb itten
. âĢ¹
Ġw icht
Ġversch wand
lie der
Ġverl ang
Ã¼t zt
w egen
ut h
t re
Ġzu frieden
ĠR os
ĠRicht ung
el en
Ġoffen bar
ĠSch merz
S te
ief e
ĠF ahr
Ã¤r tlich
ie bt
lie be
Ġd Ã¼n
Ã¼t ze
ss ig
Ġwei ÃŁe
ĠGe gend
Ġw ann
s eite
ĠE uer
t alien
lich em
Ġhei ter
Ã¼t z
Ġbe haup
Ġp ro
Ġl esen
ĠN eben
f ach
kÃ¶n nen
s atz
hau se
ck er
ol f
Ġbede uten
ĠS icher
mÃ¤h lich
Ã¤u b
ĠAb sicht
Ġher auf
wir d
en kte
ge geben
Ġdre hte
ĠL ager
Ã¤t ter
L ie
Ġk alt
ĠW ild
Ã¤n gte
Ġver fol
R e
ur s
eu chte
w ollte
ĠM il
ĠH en
ĠW affen
k ung
ĠT ru
ĠSchul ter
uÃŁ ten
Ġvers uchte
Ġb rei
Ã¼ te
ann en
Ġk rie
Ġwen igen
Ġher unter
Ã¼t te
ll er
Ġgesch rieben
end es
am pe
ern t
s l
Ġschwer en
Ġg olden
ĠJ agd
sch ten
Ġver trau
ĠOffiz ier
ĠT asche
ĠW in
st unde
sch rei
ĠFr ank
Ã¤r en
Ġmei sten
Ġm el
lei ter
Ġlau ter
Ġg eist
rei sen
Ġentfern t
br achte
h ang
ĠHeim at
j Ã¤hr
Ġl achen
ĠZ Ã¤
Ġeinz el
ĠZ usammen
reck t
Ġdenn och
Ġgesch ah
it sch
onn er
fÃ¤ llig
Ġob gleich
m aÃŁen
zeit ig
ĠL auf
ĠVer d
ĠnÃ¶t ig
Ġbe zahl
ĠB au
Ġzu ckte
Ġdunkl en
Ġho he
Ġeil te
Ġrei chte
Ġkur zen
ĠbiÃŁ chen
ĠG lauben
ĠPfarr er
Ã¶ h
ĠN ichts
ahr e
h ar
ĠIn ter
N ur
w ollen
ĠTod es
Ã¼ st
ĠW a
ir r
Ã ľber
Ġbrau chen
ro s
Ġbes aÃŁ
Ġbeg rÃ¼
mm ern
ĠOr t
ĠMaj or
ĠB urg
im ent
ĠSch on
gef unden
lÃ¼ ssel
Ã¶ m
Ġro ten
ab el
Ġer b
ĠM ir
ĠE hren
ĠEur e
Ġfin ster
Ġr ichtete
Ġlie bte
G l
at ter
Ġle er
Ġdem selben
le cht
Ġst umm
Ġsol ch
ĠO t
f est
ĠD or
ĠAu g
ĠP u
bar er
g abe
Ġschwar ze
ĠSch war
geb ung
Ġ te
ĠPf licht
for m
scha ffen
ĠE ben
Ġschrie b
ĠAnt litz
ra ben
ĠD aÃŁ
Ã¤r t
Ġgetr offen
ĠF la
Ġbrau chte
Ã¤ng nis
un ser
ĠF abri
ĠAn ge
ĠSpr ache
er ei
Ġsch r
ĠV etter
ehr ten
ĠBrau t
Ġre chten
r er
ver l
zen den
Ġschien en
Ã¶l f
ĠÃ¤r ger
sch uld
ĠHo tel
b ahn
Ġst olz
ĠNe bel
ei gung
Ġges etzt
p iel
m acht
Ġb un
Ġle bte
Ġjen en
schl and
ĠG al
ĠT ante
ĠM eilen
ĠD ingen
ĠB rot
Ã¶ ste
Ġbe geg
or gt
ĠL eut
Ġmen sch
s onst
b is
W Ã¤hrend
au b
ĠW issen
ĠSch utz
k o
ĠBe am
ier ung
ĠLo nd
ĠBrie fe
Ġk lo
ĠW unsch
Ġfr anzÃ¶s
Ġber Ã¼hm
Ġjen es
wel che
N och
Ġhei ÃŁen
ĠK ne
v o
ĠL Ã¶
ĠEr fol
merk sam
' ,
Ġzu n
Ġer hoben
u tet
Ã¼ nd
B r
deck te
Ġh ielten
Ġs org
Ġneu em
ĠZw eck
Ġwoll t
ĠD ach
ĠT em
er b
eu cht
ei gt
ĠO pfer
Ġtief er
ĠSch recken
hm e
Ġviel mehr
ĠSte llung
ĠSchul tern
u ft
s ei
le ch
b uch
Ġeinz igen
ĠTon e
ĠO der
ĠH ol
ĠB art
Ġspiel en
ian er
ĠSa al
Ġe her
p ro
ĠA ben
Ġs icht
ĠF eder
ĠAb schied
ĠP at
ei sen
ĠÃ¼ber w
ack t
n ant
ĠB em
ĠmÃ¶ gen
ĠRei sen
ĠS c
eg t
geh Ã¶rt
Ġ âĢ¦
ĠM eine
ĠC ap
Sch l
Ã¶t t
Ġ Ã¤ngst
ĠH or
ĠF ahrt
Die ser
ĠPl an
Ġblau en
o hne
ein s
ĠJ o
G ed
ĠGr en
ĠÃ ľ
zwei f
r Ã¤n
on ne
sam e
hÃ¶r en
Ġfro h
L and
ungs los
ĠE v
ĠEngl Ã¤nder
t ausend
ĠK reuz
gel t
Ġverschw unden
hol en
ĠFreund in
ges prochen
ĠSchl ag
ĠstÃ¼r zte
Ġb lieben
w issen
la den
Ġd einem
ĠRei ter
Ġl inks
Ġt iefen
! âĢ¹
f ar
Ġver sich
ĠStu be
F Ã¼r
Ã¤u ber
ĠKar l
g angen
Ġan gen
an a
am t
ĠRei he
ĠA ut
ĠB en
och ten
leid et
Augen blick
Ġgef Ã¼hrt
Ġi sch
ĠFrei heit
Ġheil igen
m t
f ft
Ġso bald
ĠErinner ung
ĠIhr em
Ġst amm
Ġr as
gÃ¼l tig
ĠSt ille
Ġerrei cht
Ġver r
Ġne un
Ġen tr
Ġei s
Ġdas s
ĠAn fang
ct or
ĠF erne
Ġre g
Ġzwei te
Z wei
isch t
ĠZ eiten
teil t
Ġh ind
w ald
Ġdar aus
bar t
her z
Ġn annte
Ã¼ck ten
Ã¼hl en
ĠEnt sch
Ġunge he
ĠH arr
eit ung
ĠG et
et tet
ĠP rÃ¤
Ġmehr ere
ĠZ iel
h anden
Ġgew issen
ĠwÃ¼r d
ĠR Ã¶
Ġgem ein
ĠS Ã¤
ĠLond on
ĠErn st
Ġvoll er
Ġeben falls
ĠMat ro
get reten
ĠJ ungen
ĠL in
ĠR es
Ġwer t
z z
Ġst Ã¤r
Ġh Ã¼
ĠT ische
uÃŁ ts
Ġp ass
ĠzurÃ¼ck zu
ge fallen
ĠA mer
Ġerg riff
ĠAl t
hen d
ĠMad ame
ĠVier tel
stÃ¤nd en
Ġnach her
blei ben
Ã¤cht ige
ĠZ Ã¼ge
f lo
ĠE ing
ĠF rie
wohn er
ĠbÃ¶ se
Ġl etzter
bo den
dr Ã¼ckt
Ġb ot
on g
Ġzu letzt
ĠW el
Ġ Ã¤lter
ĠgewÃ¶hn lich
ĠSt and
ĠChar akter
ge ht
M r
Ġdas selbe
ĠAr beiter
Ġr ein
geb oren
st att
b a
Ges icht
Ġs euf
Ġk ennt
ĠF aust
Ġbe kam
ĠS eit
Ġp ersÃ¶n
Ã¤ me
Ġg lei
ung er
ĠWei ber
ĠT aschen
ĠGeheim nis
ĠD eine
au en
Ġj Ã¼n
ĠmÃ¼ de
ĠRei hen
Ã¤t zen
f ers
Ġver t
ĠW ut
ĠRo sen
Ġk ehrte
ĠE ndlich
ig sten
fl uÃŁ
merk samkeit
Ġtrotz dem
ft ige
will kÃ¼r
M eine
ru he
ennt nis
Ġt o
sch war
ei se
ig ste
Ġn a
Ġrecht s
Ġeigen e
Ġge legt
Ġdies mal
ĠGew issen
f ert
hat ten
Ġbrau cht
ra tet
haft ig
Ġlei d
ei dig
ĠFrem den
ihr er
Ġg riff
ĠW oche
Ġsch reiben
Ġgel assen
ĠEr zÃ¤hl
ĠhÃ¼b sch
G er
B l
ach er
ĠG Ã¤ste
ut zen
t a
ĠT ri
us se
ĠM ord
ihr en
mit ten
ĠS orge
ir t
ĠzurÃ¼ck ge
zwei fl
it h
lie hen
isch te
ĠgehÃ¶r te
kt ion
Ġganz es
Ġent lang
Ġhal be
ahn sinn
Ġspiel te
ĠK auf
Ġvor wÃ¤rts
v ielleicht
Ġerh ielt
ĠSt immung
ĠF a
Ġmit einander
Ġgrau en
sch eu
ĠFÃ¼ ÃŁe
ĠNach richt
zeich net
Ġm e
ĠM auer
Ġar m
H aus
ĠFor m
s eits
ĠH ann
Ġo ber
Ġdan ach
Ġw agte
r on
Ã¶ re
wÃ¼r de
ĠP aar
Ġjeden falls
mm te
ĠV oll
ĠSicher heit
Ġl achend
Ġhin weg
ĠFr anken
V ater
Ġge Ã¶ff
G egen
schein ung
Ġ et
au n
ig ar
Ġbl ut
ĠFrem de
m eine
ĠÃĦ r
ĠKr anken
uÃŁts ein
Ġl aÃŁ
Ã¤d el
Ġspr icht
Ġsch ar
Ġst illen
Ġbem erkt
euch tete
ĠB is
Ġkur ze
Ġverm ochte
ot he
ffe e
ĠM unde
er sten
ie der
ohn t
ĠStr om
ĠÃ¼br ig
Ġw ild
f Ã¼nf
Ġkein em
ĠS an
ĠRu f
Ġste llen
Ġw ein
Ġrei chen
Ġempf and
den klich
is mus
ĠVer mÃ¶gen
ack te
klÃ¤r ung
ĠAn g
ge tr
ar k
ant as
ĠEur op
fern ung
ĠOber st
ĠHÃ¤u ser
b ur
ĠP ost
k lei
f a
Ã¼ ste
Ã¤ch te
ei ls
sch wer
Ġdie selbe
Ġz err
Ġhol en
v ater
a el
Ġb eu
mmer t
ĠAbend s
Ġw ilden
Ġgen Ã¼
ĠHerzen s
ĠG lo
ĠSp itze
Ġgesch m
ĠHa fen
n issen
Ġb ra
ĠB eine
ro m
ĠAn na
gew orfen
ĠKopf e
ĠD on
Ġste ckte
D ar
Ġsoll st
re uÃŁ
rie b
Ġwei ten
ĠVer wand
iÃŁ t
h Ã¤nd
Ġb rÃ¼
Ġh alt
ger ichtet
nie der
ĠWol ken
Ã¤um t
l ag
y p
ĠD ein
ĠT au
Ġar bei
Ġsch ob
ĠT iefe
Ã¼r zt
ĠKÃ¶nig in
la f
ĠT rotz
dr Ã¼cken
ei fe
ver sch
Ġge zogen
Ġspr achen
Ġzun Ã¤chst
h Ã¤u
ĠKÃ¼ che
ĠN ord
ĠSch ein
ha fter
Ã¤n n
ĠRo ck
ĠFranz osen
Ġgen annt
ei de
ĠS er
ĠSonn tag
g ut
l ungen
ĠkÃ¼ ÃŁte
ĠNie mand
ĠFl ucht
ĠD ichter
Ġes sen
ĠAn n
wer fen
Ġent s
um p
Ã¤t z
Ġerinner te
Ġl egen
Ġdeut schen
ĠR a
be f
ĠJÃ¼n gl
ĠP ort
Ġhin ten
Ġtraur ig
Ġz Ã¤hl
ĠSch rift
Ġvor hin
ei ter
Ġm ache
ĠF leisch
Ġunser en
h ungen
ĠZ ur
ĠEs sen
Ġh ellen
f s
Ġw in
ĠL es
th an
ĠLie bes
ĠKamer aden
B er
ĠP lat
ĠFÃ¼r sten
Ã¶ ÃŁe
o v
Ġn immt
isch em
ĠM aÃŁ
Ġerrei chen
ĠAug ust
ĠS achen
d i
Ġstarr te
ĠT ra
wie s
f Ã¤lt
ĠR ot
Ġf anden
o ph
ĠSch Ã¼
ĠLad y
V ielleicht
a fen
ĠS at
ĠgrÃ¼ nen
ĠZ auber
Ã¤nder t
A lle
Ġz Ã¶ger
Ġerschien en
a bend
it tern
ha ber
Ġangen ehm
ĠKrieg s
ĠÃ¼ber ras
i te
ra k
n un
ĠV err
Ġsol ches
ĠGes etz
Ã¤m pfen
ro ck
ĠDie s
ĠF ing
r agt
Ã¤ chen
ĠBÃ¼ ch
Ġh il
Ġzu vor
ft iger
Ġgeh or
Ġfrem den
w ort
Ġb itter
ĠR as
oll t
e den
th eil
il dete
Ġre ch
ĠW angen
Ġall mÃ¤hlich
ĠBei spiel
Ġfr Ã¶h
ĠSp ur
ĠLei den
b lau
Ġsch affen
ĠgrÃ¶ ÃŁten
Ġl asse
og ra
Ġzw Ã¶lf
Ġs ank
Ġaus gest
Ã¤ch er
Ġflo g
ĠVo gel
d am
ĠG rau
ĠK ol
be d
fol ge
wÃ¼rd igen
Ã¶ hnen
Ġp ol
Ġgesch ickt
ĠKna be
ĠMan tel
ĠSch lÃ¼ssel
ĠBer ge
ĠSch los
Ġerf uhr
ĠH ein
Ġdunk le
ar bei
ĠR ed
nur r
ĠVer such
gew orden
ĠdÃ¼ ster
le x
i ppen
ste m
umm e
F rei
ei gte
on ie
Ġhast ig
angen ehm
glich keit
ĠB Ã¤ume
t Ã¶n
ĠM iss
zweifl ung
imm ten
ĠHau t
Ġho ff
Ġfurcht bar
Ġhei ÃŁ
B o
ĠM om
ĠDeut schland
geb lieben
ĠKÃ¼ ste
Ġr etten
Ġu r
Ġschwer e
p aar
b lichen
est Ã¤t
ĠSp iegel
Ġz ahl
aus piel
ess in
ĠLei denschaft
Ã¶ pfen
Ġt reffen
Ġhal ben
Ġle bt
ĠGegen wart
willkÃ¼r lich
Ġlei den
Ġlei der
Ġer inn
Ġauf merksam
ĠP ri
ĠWir klich
Ġschwei gend
P f
war d
bes ser
los igkeit
Ã¶ ch
Ġhind urch
k an
Ġs ehn
Ã¶ se
Ġgest orben
Ġb reiten
Ġentsch lossen
ĠUl rich
G r
G en
Ġlau fen
ĠUnter haltung
) ,
K l
Ġgef aÃŁt
ĠfÃ¼hr t
Ġerwar ten
te ktiv
Ġvor n
gro ÃŁen
M utter
Ġtr ieb
Ġd i
Ġle hnte
Ġwo bei
ĠF in
Ġso viel
sich ten
ĠL ou
zie hung
Ġm erkte
ĠhÃ¶r t
ĠA p
Ġver sp
Ġver wand
Ġtr aten
under ung
Ġf Ã¤llt
Ġbeg ab
dies em
will ig
B es
teil en
Ġst reckte
ĠKl ein
ruh ig
ĠR auch
ĠhÃ¶ch st
m te
ĠM esser
Ġg leichen
ĠT hr
Ġirgend wo
be ug
ĠmÃ¶ ge
Ġsch lief
ĠJ Ã¤ger
ĠD rei
ĠRei ch
herr n
er z
Ġwen ige
her aus
ĠĠĠĠĠĠĠĠ ĠĠĠĠĠĠĠĠ
i ten
i hnen
ĠSch wer
ĠSt Ã¤d
Ġzu weilen
Ġst ol
ĠJ un
ĠS ilber
ĠRe vol
wesen heit
M Ã¤dchen
ĠF e
ĠkÃ¶n nt
ĠHimmel s
b eits
l y
m in
Ġe x
ier s
ei er
ĠFrÃ¼ hl
F reund
Ġerwar tet
K omm
ĠT hat
S eine
p lÃ¶tzlich
ar g
ĠFl uÃŁ
re den
Ġtr inken
fl Ã¤che
m el
Ġall zu
Ġp h
Ġverl or
ĠRo bert
Ġver ab
sk i
hst Ã¼ck
ĠDeck e
c o
Ġs itzt
Ġf indet
war ten
Ã¤hr ten
wend ig
Ġbr ingt
r asch
v ern
Ġer m
Ġr ings
Ġbe hand
ĠRe den
ĠM ama
ro w
Ġt hat
mÃ¼t ig
ste ll
ru cht
n eu
mmer te
lich keiten
wÃ¼rd ige
L e
k eine
Ġz ogen
ĠF Ã¤
ffen tlich
Ġnahm en
ver b
ĠC o
Ã¶l ker
ber gen
ĠT urm
Ġunser em
ĠNach mittag
ĠInter esse
i le
w agen
mut z
Ġersch einen
ation en
g rau
Ġden kt
ver d
inn t
ĠLand es
ĠT Ã¼re
Ġgu tes
ĠH unde
k raft
Ġvor sichtig
Ġg lÃ¼hen
ĠH ast
ĠD ing
ĠÃ¼ bel
Ġn ich
Ġg Ã¤
ĠWin kel
ĠÃ¼berzeu gt
E ndlich
i pfel
te st
O h
v an
Ġt Ã¤glich
ĠVer trauen
au pt
ank heit
f Ã¼hl
ĠG o
b ach
w an
Ġver wir
ĠZ um
sch iff
il t
ĠM Ã¤r
ĠErfol g
ild et
Ġwie s
ĠSte uer
ĠMin ute
s oll
ei der
ĠSt amm
ingen d
Ġkein es
Ġnie dr
zw ungen
Ġver standen
Ġersch rocken
ĠerklÃ¤r en
ge halten
it ion
Ġvoll stÃ¤ndig
ĠHaar e
Ġ 3
Ġvoll en
mer zen
in t
ĠWald emar
en ig
ĠP ause
w alt
ĠB ra
ĠfÃ¼r chte
Ġbem Ã¼
h u
Ġt reten
ĠEnt fernung
ĠBeg leiter
Ġsch eu
Ġgest anden
p unkt
sch ritt
ĠGem Ã¼t
Ġd anke
ĠKlei der
ĠBr and
re g
ĠL ot
ĠV ern
ind esten
ĠAuf merksamkeit
gel ang
ĠGra b
w enden
em ann
el ig
um s
P lÃ¶tzlich
ĠL at
Ġgew isse
P ro
w elt
lie d
u tete
Ã¤ ne
Ġuns ern
Ġgeb oren
ĠB Ã¼r
et h
ĠMar ia
ĠK Ã¤
Ã¼cht ig
N acht
kl ang
ĠSt immen
ĠHalt ung
Ġver legen
Ġbr eit
Ġei fr
ĠFÃ¼hr er
geb lich
Ġvor zu
ĠPap a
G ut
ĠSal on
nde te
i al
ĠPf und
ĠKind ern
s ollte
ĠB all
hen den
fen t
Ġtr ocken
ĠfÃ¼hl en
w isch
ch tet
ĠW ellen
Ġlieben s
ges icht
zei chen
Ġempf angen
a is
ĠH Ã¤l
ĠZw ischen
verstÃ¤nd lich
ĠW eil
Ã¤u de
Ġden k
Ġdu mm
hin ter
sch wei
ern er
Ġs y
pf e
Ġzwei f
fÃ¼hr er
ĠJ eder
gef Ã¼hl
ĠR olle
e ur
Ġf assen
hÃ¶r te
ĠO l
den k
Ġvor nehm
Ġber Ã¼hr
Ġfehl te
Ġtief e
Ġ end
ĠF ieber
ĠL Ã¤rm
Ġschl agen
ĠGer Ã¤usch
nd et
bar keit
t i
Ġv o
ĠO hne
ĠKa ffee
ĠRie sen
s etzte
ĠH Ã¼tte
ĠZu stand
ck ten
br Ã¼
Ġger ichtet
b Ã¼
so ndern
ĠAuf regung
ĠW ert
Ġent setz
and ers
ĠMr s
ĠKÃ¶nig s
ĠB itte
Ġan f
ĠR ich
ĠGesch Ã¤
wir t
Ġr Ã¼ck
ĠC hin
ĠK Ã¼nstler
lau t
ĠMa c
Ġg alt
ill a
reu e
ĠGew iÃŁ
zÃ¼ glich
ĠEin en
Ġbe quem
sich er
Ġgel esen
gel te
ĠbeschÃ¤ft igt
Ġsch ne
lo ser
fel s
fel d
p s
ĠK ut
Wie der
ĠI mmer
ĠB auer
tr ei
ger issen
or a
ĠFr anc
Ġoffen en
lei er
Ġgew uÃŁt
ĠW Ã¤hrend
A h
Ã¶ gel
ĠH aÃŁ
ĠSe hn
ĠE rei
eu l
Ihr e
Ġb ru
Ã¤t igkeit
Ġwir k
am s
W ahr
m ack
p ar
E n
is ser
ĠR est
b ank
gesch n
Ġheim lich
in er
Ġverl ieren
stu be
Ġver an
l eute
ie h
Ġk om
ĠM as
bl ik
l ad
ĠNie der
lau be
ĠEr scheinung
Ġgef angen
Was ser
Ġho ffe
Ġg erne
at or
F l
ĠN orden
ĠschÃ¶n er
Ġaller lei
ĠH am
rie t
ĠGl anz
ĠM asch
o ber
ĠZu fall
ĠFei nde
Ġgew orfen
gen ie
ĠBur schen
ĠS tern
Ġverh ei
ĠW Ã¤r
ĠBÃ¼ cher
Ġverste he
h agen
ĠK ein
az ier
ĠErst aunen
zei gt
i de
rau m
ĠBlick en
ĠM ath
ur st
Ġgesch lagen
ĠBet r
ĠTh eil
Ã¶ chter
art ig
Ġb leich
Ġfol genden
Ġlust ig
en a
ge tragen
em pf
Ġdr ang
ĠFamil ien
All es
ĠA bt
Ġl euchten
ĠBur sche
ĠI talien
ĠB ein
Ġher zlich
ĠSchl acht
ilde ten
ĠDe tektiv
Ġl ernen
Ġdr Ã¤ngte
ĠhÃ¶ re
die sen
st Ã¼cke
ĠP reis
ĠFreund schaft
ĠVer lo
ger ade
Ġbest and
s an
Ġgew innen
pp el
un kte
Ġr ies
Ġdir e
ĠS k
ĠMÃ¤dchen s
Ġerg riffen
ĠSch au
Ġw uÃŁten
ĠMal er
ĠMatro sen
weg ungen
Ġar beiten
Ġre chte
Ġgeb rau
Ġvor handen
ĠJ ose
Ã¤t sel
kehr te
Ġleb haft
Ġsan ft
ha f
d el
ĠS inne
Ġdes selben
voll er
ingt on
ĠH em
Ġhei raten
l aÃŁ
es e
Ġau gen
ĠSt olz
ver m
Ġd ick
t Ã¼m
ĠD el
ĠS ol
fÃ¼hr te
ĠSehn sucht
ĠB latt
lich sten
Ã¼t zte
H aben
ĠSchiff e
ĠL is
Ġver spr
st ieg
Ġbe halten
ĠKind es
Ġ -
ĠW il
Ġdar unter
Ġlang er
p he
ul en
Ġdr itten
Ã¼r f
ĠA hnung
ĠP a
g ott
ĠA cht
Ġaus einander
Ġp l
ĠJ ak
st rÃ¶
Ġent z
Ġun heim
ei tet
Ġdrei ÃŁig
f Ã¶r
r y
ut zt
schl ug
ĠZ igar
Ġhal te
ĠGr as
t on
ĠfÃ¼r chtete
Ġver f
Ġantwor ten
ĠEnt schluÃŁ
w Ã¤re
und ern
D aÃŁ
ĠC ol
Ġlie bt
ĠVer stand
D urch
m utter
ĠK as
Ã¼t ig
Ġfrei en
Ġgetr agen
h ard
Ġschw ach
ĠLau ne
E i
Ġver ein
Ġs agten
Ġo f
antas ie
Ġwar m
ĠT anz
Ġher Ã¼ber
Ġerwar tete
k opf
Ġengl ischen
g ner
ĠG atten
ĠD ro
ad el
Ġ y
ir en
Ã¤t ten
ĠVer zweiflung
ge legt
Ġer ster
ĠC he
b aum
t Ã¼r
ĠL aden
Ġf ein
ĠH ir
ĠSe k
an en
ĠT iere
die ses
m achte
ĠM Ã¶n
wer de
m aÃŁ
Ġh or
sch nell
Ġin zwischen
ĠRe ch
Ġseuf zte
l Ã¤ufig
un t
Ġneu er
ĠR ing
Sch on
hin aus
ĠPh il
p o
ĠFr itz
b ogen
Ã¤h ig
g nen
w ig
te ll
ĠJul ian
Ã¤ ten
K opf
ĠB ilder
b ein
f urcht
Ġd ien
sp ektor
ĠGew ehr
ĠMon ate
tr a
le b
Ġr ufen
Ġbesch eiden
ĠH u
u gt
Ġver nahm
ed es
l em
s st
ol gt
ĠSe elen
Ġbet ro
ĠDo ctor
lich ten
Ġun n
Ġgleich gÃ¼ltig
stra hl
ar s
ĠUn ruhe
ĠD an
ter te
Ã¤u ft
ast or
ĠFrÃ¼ hstÃ¼ck
Ġgeheim nis
am es
ĠSta ats
h ut
ĠA g
ĠB and
ul a
ĠSchu le
ĠIn ner
gest anden
Gew iÃŁ
ĠEing ang
tern acht
ĠMill ionen
it a
ĠUn ser
ĠSp aÃŁ
Ġbr ennen
kr et
R o
k amen
i ffen
un ruh
Ã¤nd ig
in kt
ĠBew uÃŁtsein
m uÃŁte
ĠZeu g
ĠK ell
ĠInd ianer
f ord
ĠP unkt
ĠHor iz
Ġs amm
ĠG anz
B eg
ĠD abei
ĠR h
Ġneu es
j ungen
er es
itz er
ĠG Ã¶t
ĠÃ¼berras cht
Ġstr ahl
Ġpr Ã¼
ĠEr regung
hol t
enn st
blick en
Ġden selben
ĠB ald
Ġtr Ã¼
s og
au gen
Ġg Ã¼nst
was ser
Ġge lei
Ġerf Ã¼llt
Ġzitter te
I hnen
er zÃ¤hl
rei che
w illen
ben den
de cken
et tern
pf l
ik e
ar in
ĠB i
Ġver raten
ĠNeu gier
Ġgeste llt
Ġver geben
ĠwÃ¼n schte
Ġer kannt
ff er
ĠR and
Ã¤us ern
p ol
Ġfiel en
Ġr uss
Ã¤n ner
ein st
erk l
ste ht
ĠKir ch
Ġschl imm
Ġro te
un z
ir m
Ã¤u fer
ik er
ĠgeÃ¶ff net
ĠAnst ren
a fe
l ange
s i
ĠF alle
kl einen
W ald
Ġent f
Ã ª
Ġwer fen
ĠPar k
T r
ĠM Ã¶rder
arr te
f an
h il
ĠB ier
el eg
Ġabend s
ĠB a
ĠSÃ¼ den
ĠSchl uÃŁ
Ã¤um te
f reu
ĠBeg riff
under te
iv e
Ġnach zu
rau t
ĠBrÃ¼ der
t reffen
w orden
ĠK Ã¶n
ĠEr sch
ĠMar ie
ĠJung frau
ar b
i los
ĠSch auspiel
ei nde
ĠS kla
Ġneu gier
ĠL ast
Ġun gefÃ¤hr
Ġlei chter
ĠO h
z Ã¼ge
hn ten
ĠLie d
Ġbrau che
l as
en ken
ĠKu gel
K ap
ĠSt ief
fÃ¼hr ung
ĠVerb indung
ander en
ĠKl aus
ĠBr Ã¼cke
ei ger
Ġw ack
deut ung
c c
ĠHoch zeit
Ġeil ig
qu e
utz end
Ġklo pfte
ĠE ll
ver w
bei den
Ġverschieden en
Ã¤n glich
ĠMe ter
u sch
Ġein sam
ĠKu mmer
zen de
ihr em
ĠPerson en
ind ungen
ges agt
Ġre dete
g ie
Ġk ost
isch of
ĠVerd acht
re che
ĠL Ã¼
m orgen
Ġver stÃ¤nd
bar es
ĠUn i
Ġhol te
ĠFar ben
ĠMich ael
ge k
ĠfÃ¼r chten
g lichen
ĠKl eine
ĠM ah
ĠFel s
Ã¤ te
Ġverb orgen
j ahr
it er
ste llte
etw egen
ob ald
ĠLeut nant
ĠM agd
Ġherr schte
d ir
Ġger aten
f rÃ¼
ĠâĢĵ ,
ĠC or
ĠJahr es
ĠKir chen
me te
all te
tw as
dr Ã¼ck
Ġw eshalb
un nen
ĠMom ent
ei f
Ġs ingen
ĠN eg
ĠFrank reich
Ġman cher
ogra ph
ĠF er
s mann
ĠAu fent
ĠStr eit
ĠUm stÃ¤nden
M orgen
ĠV ort
om p
ank te
in zen
Ã¶ ten
ĠF ehl
ĠnÃ¤her te
Ġd s
ĠBo gen
ĠUn be
ĠflÃ¼ cht
ĠHÃ¤l fte
ste te
ĠW ien
ĠW esten
Ġge liebt
und heit
Ġtr ank
ei nd
geh Ã¶r
Ġd opp
ĠB lei
ĠP o
Ġd icken
ĠFreu den
N ie
ĠW Ã¤l
ro ÃŁ
sicht lich
ĠB ette
Ġver tr
ol ke
Ġtr ugen
wie ger
I nd
O b
ich e
sch ien
ĠF en
Ġs inn
ĠB ri
B ru
D enn
ĠK la
r ing
Ġjem als
v id
ĠP lÃ¶tzlich
na den
d re
ir d
all ein
ĠBem erk
l inge
em ent
ut ion
Ġtr Ã¤gt
Ġerw Ã¤
och t
ĠEr ich
ur er
Ã¼hr ung
ĠD ol
Ġersten mal
ĠGefangen en
k tr
n ade
end ung
Ġgel ernt
ĠA pp
ĠAu ff
Ġlei denschaft
ĠS itz
Ġgesch w
ĠfÃ¼nf zig
gr unde
ĠZÃ¤ hne
ber eit
ĠHau fen
ĠHo fe
Ġan gef
S ein
h Ã¤ngen
ĠR ichter
ĠP ass
E l
N e
G em
ĠgrÃ¶ ÃŁte
ĠFar be
Ġfr isch
af ft
M ir
W elt
stu hl
in ke
Ġpf legte
B lick
st re
ĠM ahl
Ġk o
lo ck
Ġbeu gte
ĠWirklich keit
Ġzu recht
ĠM auern
ĠVer s
Ġseit dem
ĠH unger
ĠAus sicht
ĠMin ister
ĠstÃ¤r ker
k leid
sch Ã¼ttel
Ã¶ pft
hol z
v el
ĠZ Ã¼gen
men sch
eck t
ru f
Z w
ĠGeb ir
g rÃ¶
ack e
ĠThe ater
ĠM Ã¼n
ĠL ampe
ĠSch nell
ĠEr den
ĠIn nern
ĠTa fel
v at
zu bringen
G ra
ĠFreund es
Ġbeweg te
fÃ¤lt ig
Ġso eben
ĠN er
Ġk Ã¼hl
Ġfehl t
Ġw ach
ĠGe org
k rÃ¤
ĠSch wei
f ri
Ġsie hst
ol og
b eln
h am
Ġvern Ã¼n
ĠS ign
zu kommen
Ġstar ken
sch lieÃŁen
ĠW it
ĠSch wert
Ġp ein
dr ich
Ġwei te
ĠMÃ¤n nern
Ġvers uchen
ter t
ĠK Ã¤lte
zeu gung
ĠW Ã¤
stehen den
Ġz orn
Ġwieder um
dr Ã¼ckte
v al
Ġd icke
ĠIn genie
ĠD ick
Ġbl itz
Ġm ach
Ġn o
K a
Ġaber mals
ien s
Ġm indesten
chen s
Ġbeg innen
ĠS il
ĠB Ã¤umen
se e
ĠAll ein
at tet
Ġin mitten
ĠHal b
Ġs ilber
ĠFol ge
D em
mit h
gar ten
ĠÃ¶ fter
T ag
Ġunser es
p u
ĠDir ektor
N obody
Ġver br
ĠUm gebung
zwei fel
d ich
ie ter
Ġun sch
Ġd umpf
um pen
ĠG att
ĠLie bl
Ġverste ht
W el
ĠZ ahl
Ġn atÃ¼r
dien st
ĠFla mmen
i lo
lÃ¶t z
fl ucht
ĠG as
ĠwÃ¼n schen
il dern
Ġuns re
art igen
ĠWir kung
Die s
ĠMit leid
ĠPro v
ĠS el
ĠDie ses
ĠB al
ĠF isch
ĠN or
ĠZeit ung
Ġhal f
l ust
den t
ĠSe gel
Ġfol gten
ĠEd el
s eines
ĠAb b
Ġs orgen
ĠD ruck
euchte ten
ĠjÃ¼n ger
ĠAr n
Ġne hme
is k
h och
m Ã¤dchen
Ã¶r ung
Ġverg angen
ĠMorgen s
t au
i me
Ġver schl
Ġe hem
Ġmerk wÃ¼rdig
ĠK Ã¶pfe
d in
au te
Ġdes to
ĠAr beits
Ã¤cht nis
m or
ĠfÃ¼r chter
Ġind essen
ĠSter ne
Ġwin kte
ĠhÃ¶ch sten
ĠGer icht
ĠJ an
rei f
ger ufen
ĠEin er
ĠRe chte
ichte ten
ĠEr k
Ġgerade zu
ĠGem ach
Ġn ennt
Er st
Ġs ang
Ġt anz
Ġgleich sam
ĠJÃ¼ngl ing
Ġh Ã¤ufig
ĠWal de
F el
Ġfuhr en
pe kt
Ġbest Ã¤t
ir ne
ic e
ĠÃ¶ff nen
ĠBÃ¼rger meister
M a
eck te
ĠWÃ¼r de
ie ht
Ã¤ng ten
ĠVerb rechen
ĠFing ern
Ġm Ã¤chtigen
de uten
ĠVater land
lie genden
Ã¼ch tern
Ġerre gt
ĠErei g
un er
N ichts
ĠgnÃ¤d ige
ĠZ unge
ĠReg ierung
Ġf ried
ĠJ im
ill er
ĠSchr itten
Ged anken
uÃŁ er
K ind
Ġb ildete
Ġr itt
ĠFl asche
Ġgew onnen
her vor
Ã¼t ten
Ġbe deckt
Ġp re
Ġverg nÃ¼
Ġbe ge
Ġbe herr
Ġges und
ĠmÃ¼ h
Ġdort hin
ĠW ahl
b lich
Ġge brochen
ĠAn sicht
Ġversch lossen
Ġg iebt
red ung
Ġda zwischen
ul den
mit t
ĠB ot
am er
ĠMeer es
K r
Ġschw e
art ige
ĠfrÃ¼her en
Ġfrem d
g ei
m und
ĠEr b
ĠBl Ã¤tter
au ert
le pp
mann s
ĠT uch
rei te
ĠLei d
re ff
eid igen
ĠIde e
w etter
ei ÃŁen
ĠÃ¤ngst lich
Ġin ne
ĠT Ã¶chter
eck e
ĠStr and
ander e
da von
ĠGef Ã¤hrten
Ġunser m
gel aufen
Ġew ig
d ort
Ã¼r te
gro ÃŁ
h ls
ĠPf l
Ġbeglei ten
Ġzu fÃ¤llig
00 0
w Ã¼n
Ġn ah
Ġf la
gem ein
d igen
l auf
zen e
ĠGegen stand
Ġschmal en
ĠGesicht er
ĠSchrei bt
ĠS umme
ĠG ere
ĠR ad
ie sen
Ġun ged
Ġbeg riff
ĠKr ankheit
schau en
Ġan ges
Ġbl aÃŁ
Ġl inken
Ġnoch mals
ĠH eute
Ġun angenehm
lei ten
u ge
g ingen
ĠT rÃ¼
D r
S elbst
ĠSp an
ĠHeil igen
ĠEr klÃ¤rung
Ġste he
gl Ã¤ub
ĠnÃ¤ch ste
Z um
et tel
Ġsch lieÃŁen
e k
e te
ĠW ander
gef ahren
k ein
ĠSch uÃŁ
eil ung
ĠEin samkeit
ĠhÃ¶r ten
Ġstren g
Ġn immer
ĠP astor
ick ten
Z immer
ĠEl end
w echsel
Ġbef anden
ĠH Ã¶r
Ġman che
gel d
imm ern
ĠEur er
ĠJohann a
Ġst ille
N atÃ¼rlich
Ġlei chten
ĠMit g
ieb ten
Ġheil ige
ch st
ĠEn gel
ĠEin zel
Ġa ch
reu en
ĠAll er
ĠAd el
s uchte
ĠE le
ĠSie g
rei ÃŁen
Ã¶hn te
den en
ĠSch reck
Men sch
ĠRich ard
p lat
Ġwei chen
v erne
Ġd ienen
Ã¶ sten
be wegung
zei hen
deck ten
ĠUr sache
ene hmen
richt ung
W ill
Ġweiter e
ĠAm b
ĠGefÃ¼hl e
Ġwein te
ĠWol f
k ur
l Ã¤nder
ĠKrÃ¤ fte
or ten
der wisch
ĠfÃ¼hl e
geh euer
ĠP ul
ĠFabri k
en kt
Ġf esten
ĠL och
ĠEr fahr
ĠBer uf
war f
ĠhÃ¤t t
bes onder
G leich
H e
Ġh Ã¤ngen
ĠW Ã¼n
Ã¤hl t
St adt
St imme
b liche
sch loÃŁ
Ġge than
ha ar
Ġstie gen
Ġallgem einen
ers eits
b y
gen ossen
Ġsch uldig
ĠAn kunft
st ag
Ġen g
I I
ĠF ern
ĠHa ben
ĠGegen teil
haus es
Ġzwei mal
ĠBl itz
ĠGew ohn
G anz
Â» ...
ĠG Ã¼te
Ġbes uchen
Ġverw undert
ĠR eicht
le gten
ĠVor stellung
sie ht
Ges ellschaft
ĠTro st
ĠÃ¤hn lich
ats Ã¤chlich
schn itt
D ien
g s
sch reiben
zu gehen
Ġn erv
Ġun willkÃ¼rlich
ĠF ig
ĠFen stern
ĠG eister
ĠD onner
hin ein
Ġget reten
ĠwÃ¼ ÃŁte
ĠE w
ĠT ur
Ġp ackte
ick elt
ver standen
W eil
Ġkl ug
Ġwen den
ĠVer legenheit
ĠHein rich
ut ig
ĠR ache
Ġum f
Ġwer det
eil te
Ġglau bt
as c
mÃ¼ ssen
ĠMaj estÃ¤t
i ppe
rasch ung
ed em
ĠFlÃ¼ gel
al tet
Ã¤hr en
Lie be
Ġg aben
Ġgef ragt
Ġbem erken
ĠgewÃ¶hn t
un ten
ĠG naden
Ã¤cht iger
ĠSt all
ĠSp azier
gesch rieben
ĠMar qu
wir klich
ĠBei de
ĠB lÃ¼
tr ug
ĠO heim
kl es
Ġp lau
wir r
it Ã¤r
Ġger ettet
hand lung
Ġin n
sch end
ĠR Ã¤uber
Ġlei chte
ĠVerl angen
S eit
j unge
ang es
gesch ickt
Ġleben dig
gÃ¼l t
ĠAnd re
P eter
k ne
st ren
wei chen
ĠschÃ¶n es
Ã¤ hen
ĠK Ã¶r
ĠK ab
Ã¤mmer ung
d or
eil t
O r
b lieb
Ġw em
Ġw achsen
Ġh Ã¤ÃŁ
Ġg ra
Ã¼r en
Ġmein t
ĠR en
ut zte
ed ig
Ġder selbe
Ġf Ã¶r
ver trau
ĠSÃ¼ d
l eitung
ann ung
or k
au ff
Ġg rÃ¤
ĠN u
Ã¤u scht
t un
Ġan nehmen
tr Ã¤glich
etz e
Ġzie ht
Ġunbe weg
A bend
Ġd auerte
ro ff
jen igen
t ief
ĠP et
Ein en
Ġsicht bar
s iden
ĠK reise
S pr
Ġdie selben
ĠH alle
Ġver zweif
ier ig
sicht s
Ġbew egen
ĠHaupt mann
H ast
Ġw echsel
ĠSt eine
Nach dem
ĠJe an
ĠBeam ten
dr ingen
der ben
ĠP osten
ĠGest alten
l eu
Ġf inde
ĠS am
ĠSch atz
ahr te
ĠSt aub
Ã¤n zlich
Ã¶s ung
Ġn id
Ġw agen
ind el
Ġman ches
ĠStr oh
ĠS orgen
ĠH Ã¤nd
ĠMe ere
wÃ¤r t
Ġgetr ieben
Sch iff
sch lieÃŁlich
rau ch
ĠGesicht s
Ġfrem de
ĠHÃ¼ gel
h or
ĠDunkel heit
Ġs Ã¤m
Ġk ind
enn ung
ĠPrinz essin
Ġre gel
ĠJe den
er w
ĠSchw elle
h et
ĠC y
Ġersch rak
ĠgrÃ¼ n
ĠPh antasie
ĠV illa
Ġo h
Ġbesch w
Gl Ã¼ck
Ġz Ã¤rtlich
sch lossen
ack ten
Ġeinzel nen
it ik
ĠBer gen
Ġzei gten
Ġw einen
sch eiden
ĠGesch lecht
L u
o de
ei s
ĠO sten
ĠBe wegungen
ie tet
Ġw ilde
ĠD es
ĠF ro
ĠK ehl
Ġsch mer
âĢ Ļ
Ġwor auf
Ġeifr ig
tr Ã¼
ent gegen
te ls
ĠG lieder
lei cht
ĠDeut schen
ĠBruder s
Ġhand elt
M e
it u
ĠT ab
ĠP en
ĠSt ahl
he ben
fang s
g ungen
le ge
ĠG nade
ord on
eleg ra
se ch
Ġt oll
Ġgolden en
arbei tet
ĠB ill
ĠGesch w
Ġbetr achten
ĠAch seln
Ġgel angen
Ġerk und
bet r
drei ÃŁig
H immel
Ã¶ tet
ĠMit ternacht
Ġgleich falls
l ings
h ielten
der en
ĠEr w
Ã¤hr te
ĠGesch mack
ĠMo de
Ġuner war
Ġsch uld
Ġjedes mal
ĠH ab
uÃŁ land
Ġtr eiben
sie ur
Ġel eg
Ġ Â«
ĠK ath
ĠK reis
Ġent schieden
ĠGesch ichten
i ls
ĠB on
ĠP el
Ġlei sten
Ġsch ickte
Ġl Ã¤ng
Ġbru mmte
der ung
ĠSch reiben
Ġst eigen
Ġp ra
F enster
and ern
V ier
f rie
ĠL eder
Ġwo hnen
Ġs etzten
ĠJak ob
ĠS im
in o
end em
ĠMÃ¶ glichkeit
se hn
Ġbeob achtete
hÃ¤nd ler
D ort
ter s
ges etzten
ĠKind e
k ad
ĠU e
tel n
euch tet
Ġk Ã¤me
H o
ĠD utzend
Ġvers ucht
v om
ĠHe x
f alt
ĠG au
ĠH an
Ġdr in
ĠGr Ã¶ÃŁe
Ġwe h
ge ls
re unde
Ã¤ gen
ĠSchw ier
zu sehen
Ġeinz iges
ĠEnt setzen
Ġempf ing
m ten
Ġver bergen
Ġhin gen
C hr
ĠFl ut
Ġkur zer
wÃ¼rd iger
ĠbÃ¶ sen
ĠW Ã¤nde
ĠBe deutung
ĠWei ÃŁ
it al
Ã¶ ck
al tete
ĠGesch rei
ĠwÃ¼ tend
ym p
ĠS essel
ĠL ehn
ĠLei chen
lÃ¤ ss
c a
Ġk aufen
ĠViertel stunde
Ġsch lich
Ġt od
in sen
Ġnach denklich
O ber
Ġwo zu
Ġvier zehn
rie chen
ĠN acken
ang er
ĠGef Ã¤ngnis
re de
k s
ĠP la
Ġerinn ern
Ã¤t t
Herr n
W ohl
Ġge lo
ĠK al
m einen
ĠEi fer
Ġgeg laubt
Ã¤ st
Ġstar ke
er ten
Ġbef r
spr ache
H och
ĠErzÃ¤hl ung
Ġs i
nd es
ĠD om
Ġbew uÃŁt
Ġentfern te
yl ord
ĠmÃ¼ ÃŁten
Ġvoll e
ĠVolk s
ĠHei ter
n us
icht ung
ĠM au
k lo
x t
ĠHerr in
Ġsag st
ĠSch ar
lot te
Ġun ab
legen heiten
ĠBes te
geschn itten
Ġb ill
Ġver samm
wei le
Ġunter wegs
ĠHer bst
ĠerfÃ¼ llte
ĠFin stern
Ã¶ hne
Ġf einen
reck ten
dar auf
Ġdeut sche
Ġg ilt
ĠL aut
Ġan genommen
Ġle eren
pen st
ĠGes undheit
k u
Ġer blickte
ĠDu mm
ĠhÃ¶ flich
Ġstr ich
G est
inn ung
ĠStu fen
nahm en
K ir
Ġr und
ĠO fen
Ġverg aÃŁ
t uch
ach s
P ol
d achte
Ġso wie
ĠAu ÃŁer
Ġso wohl
ĠAr ch
ĠFre unden
ĠReisen den
ĠDampf er
Ġsch icken
Ġbegann en
Ġverspr ochen
ech net
ĠSte llen
ĠMon aten
ĠOffiz iere
ster reich
ru s
s ern
Ġm ar
Ġf le
ĠHÃ¶ hle
ĠRÃ¼ck kehr
ĠMart in
ĠIngenie ur
s itzen
Ġder gleichen
ĠP ist
w oll
Ġm u
ung l
Ġstamm elte
Ã¤ llig
lo w
ust av
sch reiten
ĠD oll
rau f
ĠSch wieger
ĠMa x
Ġwo hnte
ĠGr uÃŁ
ĠAn spruch
B ar
g aben
ĠSch merzen
ĠSt Ã¤
Ġdeu tete
V ers
dr ungen
Ġbef ahl
igt ausend
t Ã¼
w uÃŁte
Ġneugier ig
Ġh arm
ĠHann es
sel igen
Ġp lÃ¶tz
Ġhei ÃŁe
ĠEi le
ĠAmer ika
E m
ĠR eu
Ġberuh igen
Ã¼ gt
Ġm inder
ĠS euf
ĠM aul
Ġste cken
Ja wohl
ĠGeschÃ¤ fte
R u
an er
ĠK inn
Ġsoll t
ĠAuf gabe
ĠAng riff
ĠH oll
ra ck
ĠVor der
Ġbeglei tet
ei be
es tern
Ġso gen
sel ig
Ge b
Ġverd ient
lÃ¤ ssig
Ġaugen blick
u ar
ein z
ge p
ord nung
ĠW all
Ġlieb sten
H el
ĠSe emann
er m
Ġu f
ĠK eller
Ġsch immer
Ġbe unruh
kr Ã¤n
Ġel f
Ġerhe ben
ie bte
Ã¶ mm
hal te
Ġgeh ol
ĠIn halt
Ġbr annte
ĠAm t
ĠAbb Ã©
Ġs uchten
Ġf rug
Ġsch ein
ot ten
Ġent deckt
Ġfreu te
h Ã¤ng
u ern
ĠBed Ã¼rf
Ã¤ hn
fÃ¼hr t
ĠAben teuer
ĠWie sen
gro ÃŁe
irgend s
ei fer
ĠFuÃŁ e
Ã¤m t
d lichen
an ischen
Ġber au
ĠRo ÃŁ
Leben s
Ġw ander
ĠWei s
spr ingen
ĠfÃ¼nf zehn
ĠJu den
gangen heit
H aupt
k Ã¼n
ĠS ehen
Ġdire kt
? âĢ¹
w ehr
Ġb ar
ĠLie ber
in es
Ã¶l k
L eute
le hnt
Ġges tr
Ġgel ben
ĠFÃ¼rst in
f and
ĠVer kehr
it ischen
ĠA lex
us k
eid ung
f le
ge kehrt
ĠAuf trag
Ġ ordentlich
hel m
Ġver geblich
Ġst ud
sinn ig
P r
! ...
lau bte
us ses
M on
Ġauf recht
kl agen
Ġeigen es
Ġstar b
Ġsch oÃŁ
ru fen
ellen z
Ġun ruhig
rei cher
zu stellen
Ã¤ men
ĠH eu
Ġver kÃ¼
ĠV Ã¶gel
Ġgleich zeitig
Ġschnell er
ĠS mith
Ġer le
Ġt Ã¼cht
Ġwen dete
tre ff
H at
ĠK erk
Ġverlang te
e ten
Ġan gesehen
Ġar g
Ġbesonder e
ĠGes chen
Ġge zeigt
ĠBe wohner
lie gt
ĠAus sehen
geboren en
ch tes
Ã¼ gel
Ã¤ ll
ir te
Ġent stand
ĠAus gang
hau fen
ĠLei che
ĠVerhÃ¤lt nisse
ĠFrie drich
Ġglei che
p art
uld igen
ĠMil ch
ilos oph
ĠT ats
Ġal tes
ĠH at
ĠN ov
licher weise
d orf
z eiten
Ġf ester
Ġwo her
Ġw uchs
lo cken
dr Ã¤ngt
ĠLehr er
ĠB einen
gew achsen
ĠTro pfen
ĠM ehr
tr ieben
ĠZeit ungen
ĠTe e
ĠrÃ¼hr te
g eist
ver lassen
ĠBer icht
Ġ 4
ĠGe gner
ĠSp itz
Ġk Ã¶st
Ġwar st
ĠHarr y
ĠMon at
ĠÃľ brigens
h ig
Ġ 5
ar men
us sen
f euer
t asche
lich ste
Ġum geben
ĠMar kt
Ġwahr haftig
ĠAnge legenheit
ĠM erk
fÃ¤ lle
w es
m uÃŁ
Ã¼ nde
Ġsol chem
we ge
Ġew igen
Ġsol ange
Ġkurz em
ĠÃ¤rger lich
Ġh u
Ġan fangen
ie te
ĠLei be
ĠLuc ien
k ind
n ot
ĠF ischer
Ġgew isser
ĠTrau er
ĠgewÃ¶hn lichen
Ġdro hte
Ġsch lie
ĠJ ames
Ã¤ch sten
ĠWei ter
ik el
ĠGr an
ĠAnder e
ĠHoriz ont
en tr
Ġbeg reifen
ĠGru ppe
l etzten
mm el
Ġsorg fÃ¤ltig
H Ã¶
r ig
Ã¼hl t
gesch m
get an
L aÃŁ
Ġw ahren
ĠS en
un e
ĠkÃ¶n ig
spr Ã¼
ĠWeg es
ĠGem ahl
t um
Ġsel ben
sam er
ĠDien ste
ĠerklÃ¤r t
ge heim
ĠS atz
ĠP reuÃŁ
is te
Ġgef olgt
Ġle be
ĠWider stand
em ber
Sch ul
ĠGed Ã¤chtnis
Ġen gen
g ru
Ã¤ ser
um ent
Ġschl uch
ĠReihen fels
ĠB eute
mar sch
K Ã¶nig
K inder
m at
Ġs inken
M ich
h ob
ag lich
ĠBe ob
Ġbe geben
ver st
Ġzerr issen
wur den
kret Ã¤r
ĠSchreibt isch
Ġz ier
ĠÃ¼ber legen
ĠGu tes
ĠKne cht
ĠGatt in
Ġst Ã¶ren
Ġbei seite
ĠfranzÃ¶s ischen
ĠPrÃ¤ siden
ĠT err
Ġr es
d amit
t at
ĠR itt
Ġwei ch
ster t
wand te
Ġverd amm
Ġunbe d
ĠKomm and
D e
k ol
Ġk alten
Ġda vor
ĠEin fluÃŁ
Ġfr agt
pf ten
gest alt
ĠHel m
ĠTe pp
Ġat mete
Ã¤ sten
gl Ã¤n
ĠDar um
ĠUn recht
ĠNer ven
ĠM ed
ĠB ro
Ġt oten
ri ften
ap ole
m einer
Ġuns icht
ĠRe chten
ĠRu e
fr em
orben en
f ro
Ġk Ã¤m
ĠGesch ick
Ġjung es
U r
o y
Ġlie fen
Ġgeh Ã¶ren
ett ung
deck e
ĠpersÃ¶n lich
Ġk nie
Ġaller hand
st oÃŁ
ĠS onst
ste lle
pr ungen
Ġbeob achten
ĠFrÃ¼hl ing
Ġvor an
achte ten
Ġerw achte
reck e
ĠEurop a
f red
Ġ .Â«
her um
ĠGed uld
ĠSat tel
gelang t
ĠN atÃ¼rlich
Ġar mer
ĠMensch heit
ĠKell ner
ĠL ange
chen kt
Ġg old
end s
ĠJahr hundert
F rÃ¼
l angen
oren z
ĠGeb urt
S ind
Ġs auber
Ġg Ã¤nzlich
ĠB ande
ĠN arr
Ġdurch s
im a
Ġverb rei
ĠE twas
ĠT u
deck ung
T h
h eute
Ġerrei chte
ĠB Ã¶
ĠAm ts
ĠGei stes
ĠG reis
ĠNach dem
ai se
Ġbrei te
h ing
em and
Ġda heim
Ġver sprach
Ġun auf
eu chen
Ġfern er
Ġverr Ã¼ckt
t or
ei ÃŁ
ĠEn tw
d lich
ĠW Ã¤nden
l ers
Ã Ħ
ĠB ach
Ġl aÃŁt
ĠWir ts
D o
ĠV ieh
aÃŁ e
Ġsp Ã¶tt
ĠPf eife
S ehr
Ġs enkte
ĠSch leier
ĠR uÃŁland
ĠDa vid
ĠRu hm
ĠBr ig
ĠHÃ¤u pt
Ġarbei tete
ĠD Ã¶r
ĠE sel
err t
wie gen
wur f
eigen tlich
n al
Ġun mittel
ĠAr beiten
Ġgef ahren
mÃ¤ÃŁ igen
w itz
ĠM asse
rich tet
Ġblau e
ĠReg iment
an kt
Sch Ã¶n
Ġhand elte
ĠBe weis
ĠFl ur
Ġfurcht baren
Ã¼r z
ĠAn zahl
âĶģâĶģâĶģâĶģ âĶģâĶģ
Ġgering ste
ĠM os
Ġher z
al a
ĠV al
ĠGel iebten
Ġbef est
Ġer z
komm e
ĠTre ppen
ikan er
ber ge
ur ra
am b
ĠIn st
Ã© e
Ġunged uldig
Ġm Ã¤chtig
Ġsch einen
âĶģâĶģâĶģâĶģâĶģâĶģ âĶģ
Ġr iefen
fr agte
zu setzen
aÃŁ ten
ĠKo hlen
gesch ichte
Ġl euchtete
ĠK ra
ĠVor schlag
Ġverlang t
Ġeinzel ne
Ġer rÃ¶
Ġvier zig
ĠHel den
Ġw ich
Ġvor nehmen
ne y
Ġges ucht
kannt schaft
Ġn eigte
ĠM et
Ġgesch ieht
l Ã¤ch
ĠSch aden
ĠSp uren
ĠVor sicht
if ft
Ġhoff te
erkl Ã¤r
it tes
ĠWa ffe
Ġschar fen
g o
ĠO st
ĠHerr schaft
ĠGes ang
ien ten
ĠEin ige
ĠUnter such
Ġbrau nen
richt er
ĠAmb ros
d ah
en z
ĠauÃŁer dem
fÃ¶r m
hr e
hn er
Ġgering sten
Ġwo mit
Ġru ft
l Ã¶
Ġl achten
lei den
ne ben
Ġir r
fÃ¤ ll
samm lung
Ġentw eder
p ur
v err
ol ken
Ġbet rÃ¼
Ġem p
kÃ¶n nte
ĠEmpf ang
ur op
Ġbeg raben
Ġschle chte
Ã¤s ser
haf tes
den ke
ĠVer an
ohn ten
Ġlang weil
Ġglau b
Ġbeweg t
ag s
J e
v ille
Ġge lebt
Ġun aus
onn a
ĠmÃ¶glich st
ĠT elegra
Ġwahr e
ĠWit we
ÃŁ lich
and te
ĠR ein
hm t
ĠMar sch
âĶģâĶģâĶģâĶģâĶģâĶģâĶģâĶģ âĶģâĶģâĶģâĶģâĶģâĶģâĶģ
f ried
ĠB ischof
zu frieden
art ier
ĠFrei lich
ĠdÃ¼r fte
ĠhÃ¶ch ste
ĠAnstren gung
ĠAufent halt
auf e
ĠHe er
Ġm y
dig ung
ĠTÃ¼r en
k or
ĠPaul ine
ar ina
Ġein samen
un be
ĠGel Ã¤chter
Ġschwer er
Ġj etz
Ġimmer hin
ahm en
d ung
gel ten
Ġgef Ã¤llt
Ġgel ungen
mittag s
d Ã¼r
Ġm eist
Ã¤u schen
ord et
ĠGren ze
ĠzÃ¶ger te
ĠH itze
uldig ung
ĠHei rat
B itte
Ġver Ã¤cht
und dreiÃŁig
cht igkeit
ed et
schl Ã¤ge
Ġdr innen
uten ant
ĠKar te
Ã¼ ter
Ġlei ser
ĠHau p
Ġsicher lich
ĠAut o
Ġbe gegnete
ar tet
Ġver sehen
Ġmein st
ĠhÃ¤tte st
Ġbet reten
ĠGeb Ã¤ude
Ġange kommen
ĠmÃ¼h sam
F rÃ¤ulein
M Ã¶
ĠM Ã¼tze
ĠÃ¼ber r
Ġwel ch
Ġersch Ã¼tter
Ġho ffen
wÃ¼r den
ĠGen ossen
and elt
ĠSp e
Ġbeg rei
ĠSe gen
O hne
Ġs etzt
Ġsch lau
Ã¼r tel
Ġbr achten
m et
p ern
Ġw isse
Fr anz
Ġer geben
Ġr ichten
ĠhÃ¼b sche
ĠKleid ung
w ick
Ġdr itte
ĠLin ie
ĠVerwand ten
ĠGewohn heit
R ei
Ġm unter
gehen den
Ġeinz iger
Ġschreck lich
Ġb lÃ¼hen
ag an
Ġlei ses
kl eine
ĠStr afe
Ġverl angen
zeich nete
ĠVerhÃ¤lt nis
ĠKut scher
m Ã¤chtig
ze ÃŁ
? !
Ã¼ stet
al ie
bl Ã¶
Ġ ord
Ġau ÃŁen
ĠT reue
Ġbes itzen
sch Ã¼
ĠFle derwisch
Ġehem al
lieb ten
Ġverm ag
ĠBed ing
Ã¤usch ung
Ġverschieden e
Ġh elle
ĠSch ild
ĠmÃ¼ ÃŁt
Ġseltsam en
nd ung
Ġf lat
ĠK uÃŁ
Ġun g
all s
ĠkrÃ¤ ftig
Ġp assen
Ġbeg onnen
ĠAl b
Ġruh iger
ĠSer ge
Ġge zwungen
Ġvor stellen
Ġbes orgt
Ġger ufen
Ġbeob achtet
ĠW icht
Ã¶r te
Ġgef iel
âĶģâĶģâĶģâĶģâĶģâĶģâĶģâĶģâĶģâĶģâĶģâĶģâĶģâĶģâĶģâĶģâĶģâĶģâĶģâĶģâĶģâĶģâĶģâĶģâĶģâĶģâĶģâĶģâĶģâĶģâĶģâĶģ âĶģâĶģâĶģâĶģâĶģâĶģâĶģâĶģâĶģâĶģâĶģâĶģâĶģâĶģâĶģâĶģâĶģâĶģâĶģâĶģâĶģâĶģâĶģâĶģâĶģâĶģâĶģâĶģâĶģâĶģâĶģâĶģ
Ġm a
Ġoffen e
Ġfei erlich
ĠGrÃ¼ n
Ġbezahl en
Ġb ildeten
ĠN eigung
ĠKo enig
âĶģâĶģâĶģâĶģâĶģâĶģâĶģâĶģâĶģâĶģâĶģâĶģâĶģâĶģâĶģâĶģâĶģâĶģâĶģâĶģâĶģâĶģâĶģâĶģâĶģâĶģâĶģâĶģâĶģâĶģâĶģâĶģâĶģâĶģâĶģâĶģâĶģâĶģâĶģâĶģâĶģâĶģâĶģâĶģâĶģâĶģâĶģâĶģâĶģâĶģâĶģâĶģâĶģâĶģâĶģâĶģâĶģâĶģâĶģâĶģâĶģâĶģâĶģâĶģ âĶģâĶģâĶģâĶģâĶģâĶģâĶģâĶģâĶģâĶģâĶģâĶģâĶģâĶģâĶģ
l ington
u le
ĠS y
Ġrei sen
Ġum sonst
ged uld
ĠPu blik
st ock
tr eiben
Ġentsch eiden
ĠPl Ã¤ne
Ġricht ige
ĠgrÃ¶ÃŁer e
ĠKehl e
at a
ĠJun ker
Ġerf ol
Ġbesch loÃŁ
ĠunglÃ¼ck lichen
h Ã¶rt
re gen
Ġst ein
Ġdu l
ĠKo ffer
Ġverb unden
richt ig
Ġer tragen
Ġbeglei tete
Ã¤rtlich keit
n ungs
ĠG ute
ĠschÃ¶n sten
Ġo hn
um ph
Ġe h
Gel d
ĠDor fe
Ġh ie
ĠI hm
ĠNe w
Ġvergeben s
Ġaufger egt
Kap itÃ¤n
ĠG ab
ind ert
ĠH ob
ĠF eu
ĠÃ¼ber lassen
Ġuns rer
ĠK ommen
ehr e
auf te
ech an
ĠVolk es
ĠEben e
f ertig
er ste
ei ge
Ġb rechen
Ġzu zu
ĠD am
ĠT ar
ĠGe p
ĠBo ote
Ġkomm st
ĠGem einde
ĠSchm uck
ĠSold at
Ġb og
el nden
ele ktr
ĠunglÃ¼ck lich
Ġtau chte
ĠS ind
schen den
ganz e
ĠBahn hof
ĠS zene
Ġer tÃ¶n
ĠR ob
ĠÃ¼ber legte
hau sen
ĠUm stÃ¤nde
ĠInd ier
Ġm erken
ĠA s
ĠVer fol
Ġgew ann
voll es
ĠGeb Ã¤r
Ġversich erte
ĠW ag
be ll
ĠVer k
Ġgleich er
Ġdan eben
k einen
em en
Ġso weit
ĠM ylord
Ġl ock
ĠK oll
Ġtr enn
ĠhÃ¶ch stens
Ġdank bar
au ÃŁer
ĠF al
Ã¤n ken
Ġeinz ig
umm te
w under
ĠS amm
Ġauf genommen
esch e
ĠFol gen
ĠBemerk ung
D rei
ĠSt aunen
ĠfÃ¼hr ten
Ġben ach
Ġh ern
ĠSp itzen
ĠSchn eider
U eber
ĠSt Ã¼cke
Ġger iet
ĠWerk e
Ġein treten
ĠLicht er
Ġseltsam e
st immen
Ġb ilden
Ġge kannt
gegen Ã¼ber
ĠArme e
ĠDe p
ĠEmpf indung
ĠF Ã¶r
Ġfort wÃ¤hrend
Un ser
ĠSter ben
Ġwor in
ĠSchlos se
b s
hen de
sa al
Ġhei ser
Ġzei gt
Ġpass iert
W ort
i Ã¨
âĢ¹ .
n es
ĠSo fa
ar beiten
ĠR ande
N eu
ĠK arten
Ġver pf
sa hen
Ġwiederhol t
D amit
d abei
y t
in sel
ĠL am
Ġen erg
as ser
u se
ĠÃ¼ber n
H inter
h Ã¤nge
Ġunter st
Ġges essen
Ġbest immten
Ġfei nd
wahr scheinlich
ĠberÃ¼hm ten
ĠHem d
i kles
ill on
ha st
Ġste ckt
zie hungen
Ġqu er
i am
n acht
ĠH atte
ĠG ustav
ĠW ollen
zu ge
ĠWei be
imm l
ar van
on te
us ine
la ster
Ġbesonder en
ĠBesch eid
ĠS innen
ĠW ink
der ten
ĠVer ein
ĠRu der
ĠZeu gen
ĠL Ã¤nge
ĠR Ã¤
ĠV an
Ġweiter en
ĠChar les
g ibt
ĠS erv
ar beit
Ġver nehmen
ĠC ou
ri fft
ĠPar iser
Ġblick ten
ĠerfÃ¼ llen
R echt
ĠD Ã¼
ĠAb reise
Ġkeines wegs
H ause
ĠW alter
gest iegen
Ã¼st ung
ĠH Ã¤usern
Ã¤r ten
Ġmel dete
Ġbezahl t
ĠN ummer
he ll
l esen
ĠQu al
g rÃ¤
sch ung
Ġk Ã¼n
gl Ã¼
ĠDu ft
Ġge z
ra b
ĠChrist ian
l assung
Ġd anken
Ġt u
erk ennen
Ġgem eint
s Ã¤chlich
ĠF ried
Ġsch weigen
ges ucht
' m
W issen
g lauben
ged acht
ĠL ang
Ġun gewÃ¶hn
hal ter
ĠGeb et
u p
ĠK anz
and a
Ġweiter es
eig net
F amil
Ġ or
Ġt ue
ĠSchiff es
ĠEm il
wart ung
er em
au d
ab eth
Die ses
Ġblei be
ĠWind e
Ġn Ã¤cht
ĠK ette
arr t
Ġrei che
Ġmensch lichen
ĠW echsel
ĠW ahnsinn
Ġsch Ã¼tzen
ĠV i
Ġst immte
Ġdrei mal
na pp
ganz en
lad ung
ĠMar y
eister ung
st a
in i
Ġt atsÃ¤chlich
so nder
Ġa hnte
st ill
Ġ Ã¤ndern
Ġm or
Ġsch mutz
Ġt Ã¶d
ĠKo st
Ġgewalt igen
l Ã¤nd
ĠF ir
ĠHo sen
unk eln
wenig stens
J ahr
Ġn Ã¼t
Ġz eit
ĠT art
Ġt Ã¤t
bes te
ĠEx p
ĠRevol ver
re ppe
Frei lich
R eg
at zen
her ein
om e
ĠBes ser
b oten
ĠZÃ¤ hnen
M iÃŁ
sch ungen
al er
ĠF Ã¤u
ehr er
Ġsonder bar
Ġsie h
gel aden
Ġind es
ok rat
ĠK issen
Ã¼r t
ĠJ es
P ar
Ġs ucht
Ġt Ã¶n
Ġman chen
dr ein
ĠWÃ¤r me
Ġl itt
und es
enn er
Ġgew ohnt
ĠKl einen
H alt
Ġan sehen
Ġan fangs
eit ausend
ĠSch ur
ĠSch erz
ver gessen
Ġbegeg net
ĠZur Ã¼ck
Ġw iÃŁt
st oÃŁen
ĠSchl Ã¤
Ġanzu sehen
ium ph
ĠLÃ¶ wen
l et
ĠSt irne
ka mmer
Ġhil f
Ġh arten
ĠV ic
ĠSt oÃŁ
ĠKam in
Ġer lebt
ĠH orn
ĠW est
Ġbun ten
ĠS ollte
as ia
is abeth
ĠVer gangenheit
schau te
s wer
Ġfurcht bare
Ġgesp ielt
Ġh Ã¤ngt
ber eitet
Ġf Ã¤hrt
ĠVer schw
os se
Ġger ei
ĠGl en
ĠKomm iss
ĠL or
ol en
auer nd
ĠfÃ¼hl t
ĠSohn es
ĠHei de
ĠSeuf zer
b ieten
v Ã¶lker
be am
be kommen
ĠBes onder
Wir klich
Ġhell er
s ig
er ikan
ĠKl ang
ĠFehl er
K rie
b ett
d est
w a
Ã¤ uÃŁ
ĠHÃ¶ lle
ĠJose ph
C har
Ġbef rei
Ġfreu en
Ġungehe ure
zz io
ĠL Ã¤
Ġvor lÃ¤ufig
ĠO ffen
ĠErfahr ung
os ph
ĠDa zu
u i
ĠB Ã¤ren
ĠT om
le gung
ĠVer trau
Ġfrei e
E uch
d ro
or ie
Ġvor treff
ĠC lau
Ġspr ich
s y
Ġun gest
Ġed len
bur ger
g u
ĠD amit
itter te
ĠSchwar z
B is
Ġm o
on a
ĠB enehmen
ĠHand el
Ġhand eln
g liche
in gel
ĠSch am
Ġbet rat
Ġgeb unden
Ġei nd
Ġgek leidet
ĠInd ien
Ġehr lich
gew iÃŁ
Ġgel ten
ĠLei ter
Frau en
ĠGeh irn
ĠL os
ver schw
ĠSp ott
ĠsÃ¼ ÃŁ
b lo
f ragen
Ġein gesch
ol a
ĠBr unnen
Her zen
ĠL ohn
Ġfr ische
ho fe
Ġgl itt
ĠGra d
ĠPap iere
ĠRom an
Ġdr ingen
Ġschl immer
Ġpre ÃŁte
w Ã¤l
ĠW unde
Ġwei tem
Ġbet Ã¤u
dar Ã¼ber
ĠG riff
ste l
Ge f
antwor ten
I mmer
s burg
Ġzu viel
ĠG ou
Ġrei ten
Ġnot wendig
P ap
W ollen
ich tes
ĠP ater
land e
ĠMÃ¶n ch
Ġmindesten s
z ellenz
at tete
Ã¤n ke
Ġbef inden
Ġunter brochen
iv il
wirr ung
ĠS eiden
ĠHau stÃ¼r
Ġschle chter
az ieren
ĠVerb recher
ĠUnter redung
antwor tet
h es
Ġm Ã¤nn
lie bte
auf zu
wer ke
ĠĠĠĠ ĠĠĠ
Ġbede utet
Ġbegeg nen
. ,
ĠE ugen
Ġp ar
Ġdich ten
ĠS Ã¤nger
Ġtr itt
sel te
Ġgegen seit
ament lich
P fer
k rie
lo gen
ste h
ĠTh or
E igen
Ġf eine
Ġj ugend
dr ing
Ġfehl en
J ohann
b Ã¼rger
ĠSch lieÃŁlich
Ġfei er
ĠBu sch
ĠgefÃ¤hr lich
Ġn imm
Ġn ahen
gest oÃŁen
ĠÃ¤uÃŁ erst
ge be
ĠK ann
Ġdr ein
ĠKa sten
ĠKn ochen
ĠhÃ¼b schen
Ġg si
ĠG ordon
arr y
gei z
ĠA bst
ĠG re
Ġtr ei
ĠHaar en
ĠwÃ¼n sche
Str aÃŁe
f ig
ch n
ĠP rÃ¼
ĠWei bes
bl i
ĠUr teil
eidig ung
Ġliebens wÃ¼rdig
ĠRech nung
ĠauÃŁer ordentlich
Chr ist
b and
Ġer sp
sch lafen
zeich nen
Ġwunder bar
vier zig
ĠW ille
ĠSt Ã¤r
ĠMarqu is
Ġf lei
ĠH art
Ġsch er
Ġver bar
ĠN ab
etz tes
ĠGl ut
Ġfal sch
ĠLauf e
Ġer leich
im pf
in te
ĠD ur
ĠN ation
Ġim stande
Sch r
Ġvers unken
ĠMon sieur
ĠvergnÃ¼ gt
T age
ein ige
ĠA h
ĠF il
ĠSchw Ã¤che
H eute
Ġein trat
othe k
ĠAn gel
Ġersch eint
ĠE t
ĠSch nurr
M in
ĠMann schaft
ant in
Ġehr en
Ġgr imm
Ġd rauf
ĠS oll
ĠB ell
fÃ¼ gung
ĠDi am
ĠGlo cken
ĠD Ã¤mmerung
ĠDar auf
Ġverhei ratet
g Ã¤nge
ĠS Ã¶hne
ĠLu d
Ġersch Ã¶pft
ĠAcht ung
ĠGe hen
Ġzu mal
ĠM agen
ĠV is
ĠSt ich
Ġschein bar
l i
Ġun best
ver g
itz te
av e
Her z
Ġs onn
an ce
ĠB Ã¶r
Ġver liebt
ver k
E ben
Ġver riet
ot te
rÃ¤ utig
it y
Ġt anzen
antwor tete
st aben
sch auer
ĠSch oÃŁ
ĠP unkte
ĠGew and
m ahl
hr t
Ġf rage
jÃ¤hr igen
Ġrings um
ĠStief el
B ald
los es
wÃ¼r fe
haft igkeit
Ġbetro ffen
Ġa bst
Ã¼ chter
Ġent deckte
wel cher
Ġklar en
ĠGei ste
ĠFÃ¶r ster
L icht
g Ã¤nger
ie gt
Ġein getreten
ĠO per
Ġbeg eister
ik o
schein end
ĠGÃ¶t ter
es seln
ĠM ister
ĠW ache
ĠSp eise
u k
sch le
at he
ĠN apole
ĠKa is
zeu gen
c roff
w ein
ĠSch ande
ĠLieb haber
stell ungen
m einem
ĠG ipfel
Ġin folge
al so
ĠSch er
be k
Ġbe fehl
Ġverwir rt
ĠD einen
ern te
Ġbei sammen
ant ast
ausen de
u mmen
Ġb ieten
ĠA dr
Ġf ernen
Ġent decken
Ġbef indet
Ġstr ei
Ro bert
ach el
ĠE ls
str and
Ġflo gen
ĠVern unft
i men
ger e
Ġschl ugen
teil te
ĠWar en
s etzt
Ġn u
rei chte
Ġselbst verstÃ¤ndlich
Ġerf or
ĠPr acht
E x
d ach
ut t
Ġr Ã¼ckte
schaft lichen
ĠMa i
Ġrech nen
ĠN ahr
iv en
ĠgrÃ¼ ne
Z ur
ĠR Ã¤tsel
ĠR ettung
.. ..
ĠNeg er
Ġsch ier
spr ang
fÃ¼nf zig
ĠfrÃ¶h lich
ei digt
al ischen
ĠK ri
ĠSch eu
spr ung
ĠFig ur
ĠFei er
ĠFinstern is
Ġaugenblick lich
ar ch
Ġl Ã¶ste
Ġmit t
all t
setz ung
ĠErinner ungen
k on
s ohn
ĠS ach
Ġverk auft
schuld igen
m o
or s
ĠG ift
ĠIhr es
os s
ĠI s
Ġviel es
ĠSchl itten
m ord
Ġbesch rÃ¤n
Ġgetr unken
bild ung
an zu
Ġwo hnt
ĠNach richten
ĠPr inzen
fÃ¼hl te
h ab
Ġan geb
Ġbe weisen
ĠVer achtung
gew alt
ens ion
beug te
? !Â«
c qu
Ġwar men
ĠAn k
ĠGem ein
ĠDen ken
ĠGrÃ¼ nde
ĠKom p
Ġg inge
ĠH arm
ĠI wan
age gen
Ġbeg angen
Ġbr inge
zeu ge
Ġf angen
Ġst ock
Ã¤r men
Ġdahin ter
k Ã¶nig
u el
ĠP or
ĠzurÃ¼ckge kehrt
ĠKauf mann
v ent
em a
ult ur
far ben
T rotz
hr te
ĠUn sinn
Ġengl ische
N amen
Ġbe deckte
Ġam erikan
ĠwÃ¼r dig
blick t
ĠNachbar n
ĠPlat ze
g ange
or gte
Ġg ei
aus zu
ĠStr ahlen
ĠGer ichts
Ġgrau e
ĠÃ¶ ffen
ĠTri umph
ĠTab ak
! !
ste ck
ĠSchw eden
ĠMag nus
schÃ¶n en
Ġunbeweg lich
ĠS ar
ĠDas ein
Ġbl ind
etter te
Ġgeheim en
Ġzorn ig
d t
m esser
ie ls
Ġm Ã¤chtige
ar ke
pr Ã¼
ĠJu bel
ĠAnt on
All er
wesen den
ĠPri vat
Ã¶r er
Ġ1 5
ĠSter nen
Ġta pfer
Ġhor chte
ĠK orn
ĠR asen
ohn te
Ġteil te
Ġungehe uren
Ġents etzt
G roÃŁ
Ein es
ĠTo il
Ġunter halten
Ġgesch n
ĠChr isten
Ġed le
n ik
hol te
ahn te
Ġ1 7
ĠSta at
s age
an ch
Ġh au
ĠEr z
iel te
ĠBe geg
Ġzw ang
Ġeigen tÃ¼m
ĠTh om
Ġbehaup tete
Ġf unkel
ĠDen k
ĠTem pel
Ġm aÃŁ
ol and
fen ster
Ġn irgends
Ġg Ã¶t
Ġf ieber
Ġt Ã¶ten
Ã¤t tern
Ġwer d
ĠUn geduld
ĠmÃ¶ chten
under ten
ĠRo se
Gesch ichte
verl oren
Ġun endlich
Ġum s
Ã¶n nen
ĠZimmer s
ĠJa mmer
K ann
blau en
H a
ir ten
B esch
Ġm oder
ĠGeschÃ¤ft s
schu he
ĠPart ei
ĠMÃ¤r chen
l euchten
Ġan sah
hol d
ĠLou is
A nt
f on
anz t
itt a
ĠGesch Ã¶pf
ĠSÃ¼ nde
ĠJohann es
schr itten
ĠHen ry
b auer
h Ã¤n
Ġb ele
Ġr ie
ĠHo heit
kne cht
ge brochen
Ã¶ die
ĠT un
ĠZ erst
Ġgesch affen
itter t
Ġged achte
ĠdÃ¼r fe
S ehen
k ampf
Ġruh igen
Ġbeste hen
Ġu s
Ġk on
Ġdes wegen
zie ht
Ġruh te
ĠB as
der s
ĠR am
zu sagen
ĠGes pr
bo ot
Ġverste ckt
Ġgebe ten
B et
d igkeit
ge br
Ġf eur
ur et
ĠgroÃŁ em
Ġricht igen
ĠPel z
Ġw ahnsinn
gen ug
Ġz ahlen
Ã¤u le
men schen
Ġschreck lichen
Ġ 6
ĠA sp
ier end
rie ch
ĠLand schaft
ĠTh orn
T od
Ġh eul
ĠDan iel
M ad
Ġwar fen
Ġgen ieÃŁen
ĠUr s
Ġte le
elig ion
Ġw ilder
st amm
Ġbem erk
Ġverzweif elt
t an
st Ã¤
em m
ĠT hal
Ġbesch lossen
ĠhÃ¶ hn
Ge h
at ze
Ġin nen
ĠSch weiÃŁ
ĠI l
Ġzw ingen
Ġro llte
je den
Ġverschw inden
Ġru hen
ĠbegrÃ¼ ÃŁte
urop Ã¤
Ã¤ hne
ĠB ert
Ġver Ã¤ndert
ĠP ersÃ¶n
Ġr eine
Ġirgend wie
Ġfreu dig
schwar zen
ĠPreuÃŁ en
ĠPublik um
Ġ elektr
ie u
Ã¼ s
Ã¼ ÃŁt
Ã¼r ze
Ġaus geb
ĠAn sehen
Ġlei sen
ĠRu ck
geh abt
ĠRh ein
F Ã¼nf
ĠSch Ã¤del
ĠOr den
tr Ã¤ger
ĠKur t
Ġverk aufen
H Ã¤nde
g riff
ĠA fri
den ten
ĠP ant
ra gend
Ã¼t igen
ĠBe kanntschaft
ĠÃĦ hn
ĠKrie ger
spiel en
ĠBew underung
b ungen
d unkel
ber ger
Ġan gelangt
Ġt aten
Ã¤r chen
Ġent hielt
sl eute
ĠberÃ¼hr te
itu ation
ĠSchwier igkeiten
S eite
k as
Ġj Ã¤h
ĠV Ã¤ter
ĠEr laub
acht ungen
Ġgem Ã¼t
ĠTh ier
H off
ĠR ussen
ent lem
ĠAlt ar
n atÃ¼rlich
Ġk rei
eg te
ĠEin mal
spr Ã¼n
da zu
Ġveran l
j agt
ĠT eller
Ġver lo
uÃŁ e
ges tern
ĠSchiff s
ĠTrÃ¤ ume
e ff
v is
Ġa ÃŁ
Ġzwei fel
wand t
ĠÃľber raschung
ĠBeam te
Ġhil ft
F reu
l achen
ĠM un
ĠK unde
ab an
ĠSte fan
Ġew ige
em o
ĠF ack
Ġver schaffen
ĠEisen bahn
f tet
Ġaus sah
br Ã¼cke
ĠC on
ĠGeb Ã¼
ĠHaupt sache
Ġmorgen s
Ar t
ĠThr Ã¤nen
ten s
ien te
ĠWirt in
ĠWieder sehen
Ã §
st immung
Ġg lat
Ġl o
ĠVer mut
ĠIn spektor
Ġbed ro
ĠSonnen schein
win kel
b nis
h orn
Ġf liegen
Ġgew achsen
ĠIn seln
Ġpf iff
W eg
f ast
Ġger au
kÃ¼ mmert
Ġverfol gt
ĠWissen schaft
ĠgÃ¤ be
Ġg re
sel ige
ĠKath arina
P h
Ġf liehen
re gel
ĠGef ahren
Ġv an
Ã¶ ÃŁen
ĠH indern
Ġtr ennen
ihr es
ĠstÃ¼r zen
i os
ĠS ah
ohn ung
Ġsch merz
Ġt Ã¶r
Ġtr ot
ver schieden
Ġger Ã¼hrt
dar an
ĠWÃ¼n sche
Ġunbed ingt
Ġbefrei en
w achsen
ick elte
Sch m
ĠTru ppen
Bo den
ĠPhil ipp
u ppe
der e
ĠRei z
ĠFle ck
ĠPer ikles
ĠkrÃ¤ ftigen
st imme
ĠHau ch
St unde
ĠglÃ¤n zenden
T Ã¼r
ĠE b
ĠL aÃŁ
ĠL ob
ĠAn zug
ĠNamen s
ĠstÃ¼r m
ĠBÃ¼r o
S onnen
b ot
h i
st rich
Ġer haben
ungs voll
ĠOt to
Ġl acht
ĠEin tritt
asch a
Ã¤g lichen
be halten
ĠGes ichte
Ġ 7
Ġer laubt
ĠzurÃ¼ck kehren
Ġei gnen
schn eiden
f ung
Ã ´
tr af
ĠZ Ã¤rtlichkeit
ĠJ os
lie s
ĠPass ag
ĠReicht um
Ã¼ bt
an ter
Ġk Ã¶rper
ĠD einer
ĠL Ã¼ge
Ġbes itzt
ĠBes org
ĠEur em
ĠGewiÃŁ heit
ĠZ oll
Ġr unden
ĠAn wesenheit
ell os
Ġlau schte
ĠHarr lington
ĠGere chtigkeit
p ers
ei tete
Ġverd ienen
H eil
ĠG atte
al itÃ¤t
Ġaus gesprochen
ĠJ ack
est ament
rÃ¤ cht
eut nant
Ġzitter nd
F euer
W orte
l uft
el m
ĠR eit
unde ten
rich tete
ĠÃľber zeugung
ĠSchick s
ĠzÃ¤hl te
ĠlÃ¤ng s
ĠS ib
ĠV iel
Ġber Ã¼hrt
ĠLe win
ĠFrÃ¼ h
s Ã¤
Ġl Ã¤uft
ĠN ik
ĠZ uh
ĠMon t
p hen
ĠS itte
Ġg lich
ĠH all
ĠW ur
ĠE il
mm a
Ġsch la
ĠL inken
Ġand res
l an
ĠGen uÃŁ
ĠNeu es
En gl
ĠK aum
ist or
Ġschl eu
ĠFor men
besch Ã¤ft
ĠgrÃ¶ÃŁer en
en der
ein wand
Ġaus ger
ger t
ĠwÃ¼ ten
ĠKan onen
Ġgolden e
ĠEw igkeit
ĠGlen arvan
ei tel
as i
Ġf este
Ġwir kte
Ġho her
ĠgrÃ¼ ÃŁte
L assen
ĠD eshalb
ĠRu d
ĠOr te
Ġgek auft
hÃ¤u ser
ĠG assen
ag on
ĠJ ust
ĠGl Ã¤ser
ĠÃ ł
ĠBar b
Ġverb lÃ¼
en gt
ĠN Ã¤chte
lÃ¤ ÃŁt
ĠProv inz
z eigen
ief er
St u
ĠLe b
Ġdunk eln
ĠZ ige
Ã¤n ze
grau en
m osph
w icht
eid et
Ġbeste ht
ĠLau b
ĠprÃ¼ fen
ĠR Ã¼
Ġst eif
ĠBe ziehungen
zei hung
mÃ¼t igen
Ġgesp annt
ĠVerhÃ¤lt nissen
ĠBot schaft
f tete
g ste
k und
at hol
sen t
be weg
ĠSt re
Ġtr afen
ĠSte ll
ĠHÃ¶ hen
f lichkeit
ĠH ell
Ġdurch einander
Ġsp ielt
ĠGel iebte
ĠFla mme
Ġschmer zlich
- ,
Ġa chten
Ġn ix
Ġk Ã¤mpfen
Ġge hn
ir ren
Ġun recht
her ab
geb ir
ĠAb grund
ĠEi fers
ĠLes er
ĠWÃ¤l der
r isch
est a
Ġschl Ã¤gt
Ġgest ohlen
ĠlÃ¤ch eln
ĠSchu he
ĠSchlaf zimmer
ĠÃ¼berzeu gen
ĠZ un
ĠEr f
Ġtr iumph
Ġfr ischen
Ġbef rie
Ġgeb aut
a w
Ġzu ge
Ġl Ã¶sen
th ur
wÃ¤r tig
ĠBÃ¼ nd
Ġinner en
M itt
g sten
Ġ Ã¤lte
ri c
Ġbes etzt
kl ar
bereit ungen
Ġvor zÃ¼glich
Ġbest immte
Ġschau en
ons ul
Ġer lo
ĠB ann
re y
ĠT itel
ĠSkla ven
r Ã¤t
Ã¼ sten
ĠB rÃ¤utig
Ġjen seits
row n
ĠH Ã¤tte
ĠT er
ab le
Un glÃ¼ck
ĠFel der
Ġbehaup ten
Ġf Ã¤hig
ĠL eicht
ĠV en
Ġals bald
ĠTro m
ĠBu sen
gra f
Ġallgem eine
ĠEinzel heiten
D eut
ĠK rÃ¼
Ġver lieÃŁen
Ġun end
ĠHerr gott
Ġges chenkt
ĠwÃ¤ l
Ġlange m
fehl t
v a
z ien
ĠH ille
ĠT ugend
Ġschw ang
Ġgetr ennt
ĠFahr zeug
ĠweiÃŁ er
ĠKr one
Schw ester
frie digung
L ieber
T he
m Ã¤nn
ar at
lich tet
ĠAr g
ĠKl asse
ĠlÃ¤ch erlich
ĠkÃ¼ ssen
Ġschle chten
Ġschn itt
ĠLat erne
k ir
ĠH ohn
Ġsch ieÃŁen
ĠL ok
ri dor
ĠHand els
ĠfÃ¼ llte
ĠAdr esse
wei ÃŁen
m auer
st ung
ĠJ as
Ã¤nder ung
Herr en
j eder
Ġ teuer
pr Ã¤
Ġlie bes
st reifen
in ten
ĠV Ã¶lker
Ġwenig sten
K n
L uft
f Ã¤hig
o is
er er
Ã¤ uch
Ġer klang
ĠZ Ã¼gel
ĠSe el
ĠStr eich
ott land
ch o
Ġk ennst
ĠB lau
ir bt
ĠN Ã¤
ĠGe fallen
all ten
lie dern
ĠGer uch
ĠMo os
ĠKn ien
ĠWol ke
ĠRÃ¼ck sicht
ĠEmpf indungen
Ġi t
Ã¶ gern
und et
T ochter
s itz
gesch w
im er
Ġern sten
ĠD un
Ã¤nder te
ĠMich el
ĠJeden falls
en gen
Ġm ut
Ge heim
Ġverm Ã¶
ĠBeg leitung
Ġbetr achtet
dien er
ĠAt hen
n Ã¤ck
pf licht
ĠVer wirrung
k reis
Ġm ochten
ĠA kt
ĠSt ande
la ck
ĠHa mmer
Ġschm eich
ĠHal se
Ġd eines
ĠM ot
ĠZ elt
Ġch rist
P aul
S oll
ch sen
Ġw ehrte
ĠK onst
ĠGes ellen
Ġwill kommen
Ġbeg innt
ĠZu ge
ĠFl or
Ġverb oten
et it
ers p
sp itzen
Ġbef Ã¼r
Ġkr ampf
b ill
ĠF alten
ĠR uh
Ã¤n zer
ĠGeb rauch
Ġed el
ĠPen croff
u en
Ġn ackten
Ġver fallen
f rage
Ġm on
Ġg latt
ĠB Ã¤r
ĠglÃ¼ck lichen
aff te
ge legen
ĠK eine
Ġbeg riffen
ĠLie utenant
agan el
M Ã¤nner
Ġa tem
Ġn Ã¶r
Ġz arten
ĠT Ã¤tigkeit
ĠEr l
Ġhe ftigen
ĠMas ke
Ġm il
ĠR ats
Ġviel er
Ġth ut
o ft
ĠW erner
Ġaus sehen
Ã¤n k
Ã¤h te
c y
h elfen
ĠWei hn
Ġdeut sch
ĠHÃ¤u schen
K ar
h alle
Ġt eils
Ġhal ber
sie d
ĠW Ã¼ste
ĠF lei
Ġan stÃ¤nd
Sie h
ĠMar mor
ĠUnter schied
ĠWil helm
Ġverbar g
an i
ĠM ast
ur es
ĠP ir
sp iegel
Ġverg ing
ĠWÃ¤ sche
y er
ĠA st
und vierzig
ĠVer stÃ¤nd
ĠUm stand
ĠkÃ¼ hn
e he
et s
Ġsch me
ĠP ra
ug heit
ĠSchw estern
Ġgelang te
ĠrÃ¼ck wÃ¤rts
ĠWeis heit
p on
st unden
ĠL ichte
Ġver zeihen
ĠBe kannten
ĠBeg eisterung
ĠSchm ied
san walt
Ã¤nd nis
h s
ger icht
Ã¼n scht
ĠLand straÃŁe
ĠEx zellenz
ĠmiÃŁ trau
ĠCap itel
ĠDol ch
wes end
v ok
ĠW ogen
Ġsch lÃ¼
ad es
Ã¤ch ten
Ġber ichtete
Ġvers etzt
ĠSchnell igkeit
L ei
f ra
ĠM Ã¤del
ĠZ eilen
ĠSt ation
ĠEin es
hin auf
ĠKrÃ¤ ften
Ġruss ischen
Ġver ur
ĠP il
Ã¼n kt
etter t
zut reten
ĠSpan ier
ĠP e
ieren den
Ã¤m te
ĠÃĦr ger
Ġmar sch
ĠG i
ĠC ha
ĠHe ft
off iz
ĠSchrei ber
son ne
1 8
m assen
sch riften
ĠG Ã¼rtel
ĠW oll
ĠSt recke
ĠMit ten
Ġeigen er
ĠSa int
ĠTem per
Dar auf
ĠChe f
J ahre
Ã ¢
ĠLie ben
ĠIr rt
Ġblo nden
ĠSek unde
tr o
ad et
St unden
ĠFabri zzio
J ahren
ĠSt off
vor Ã¼ber
b rot
Ġer r
Ġf Ã¼n
ĠSo hne
ĠAb wesenheit
flo g
sch uÃŁ
ĠH um
ĠGroÃŁ vater
ĠMÃ¶ bel
ĠS id
Ġaus st
ver t
ĠDie ter
ĠSo ph
bl ut
ĠIde en
B ist
b latt
n ers
ro hr
ro ten
Sch rei
ĠStr ick
Ġerre gte
ĠG anze
ĠG Ã¤rt
and ten
ft iges
ĠGew itter
ĠKr anke
ĠwÃ¼rd est
B ed
k ap
Ġk a
ĠB reite
Ġver fl
fl ug
ĠWirt schaft
Ġunheim lich
ĠG all
ĠGeb iet
Ġse h
ĠBefehl e
ar i
ĠB lo
ĠF assung
ĠK etten
Ã¤m pft
Ġwahr haft
isten z
ĠTepp ich
Ġtrei bt
M ag
l z
Ġk alte
ges ellschaft
Ġhal bes
Ġlang es
ĠUnter nehmen
ĠArt ikel
ĠkÃ¼ mmern
Ġpf legen
Gen er
Ġver urs
ing st
Ġgew agt
In zwischen
Ġgeste hen
Ġunmittel bar
en ge
Ġd um
em por
ĠB ilde
ĠEnt deckung
ĠglÃ¤n zend
frÃ¼ her
D es
F ort
it tel
ĠV olke
Ġbest Ã¤ndig
ĠberÃ¼hm te
or dert
sel ber
Ġneben einander
ĠZigar re
ĠGebir ge
Ġnerv Ã¶s
Ã¼ber haupt
Ġst Ã¶hnte
Ġkl ingt
Ġgesch Ã¤ft
ĠEur en
ĠJo e
ĠGep Ã¤ck
E nde
G old
h immel
ehr ter
tlich er
ĠMo uret
Ġand rer
ĠMasch ine
ĠvernÃ¼n ftig
ĠS ab
ĠA le
Ġk enn
Ġun besch
ĠVer fÃ¼gung
Ġp aÃŁt
ĠAus nahme
Ġdenk st
Ġknie te
K ein
ĠS em
ĠB or
re digt
ste cken
Ġerg reifen
ĠSchÃ¼ ler
mm t
ĠSchl ange
Ġern ste
ĠgrÃ¶ ÃŁ
Ġschwei g
ĠunglÃ¼ck liche
bem erkt
ĠVort eil
F or
G uten
Ġb lÃ¼
ĠI sa
ver sicht
Sch n
ip lo
T isch
a sten
g an
ĠS ack
ĠK art
ĠK ennt
iel en
war tete
ĠEl isabeth
fÃ¼ llung
ĠHoff nungen
ĠSil v
ĠfÃ¶r mlich
ff te
ĠVer z
Ġre gte
Ġschwe bte
b lÃ¼
t isch
sch el
ĠK ru
igen d
Ġgeh ei
gl as
Ã¤l en
Ġle bten
fÃ¼r st
Ġuner sch
lief ert
Ġl edig
Ã¼r k
tr ieb
ĠAus kunft
Ġerh Ã¶
wo od
Ar beit
bli othek
n Ã¤her
Ġg lÃ¼
ĠG unst
ĠGro ÃŁen
ĠDeut sche
Ġtraur igen
ĠInner e
ĠVer sprechen
ĠMittag s
ĠEreig nis
ĠSchnurr bart
ĠT Ã¶ne
ut ze
Ã¤n z
Ġdr an
ĠLo cken
Ġv Ã¤ter
ĠB os
ĠSt ill
ka sten
H m
Ġein gerichtet
ĠAn ker
Ġrei zend
H ans
Ġn ord
pf ern
ent fern
Ġkl app
ĠKo sten
ĠMar i
d s
Ġge drÃ¼ckt
se h
Ġnach ts
iz ei
ĠbeschÃ¤ft igte
ĠHeiter keit
ĠTats ache
o be
Ġum arm
Ġbew aff
Ġ1 9
ĠLot te
ĠFranc s
C l
J ul
l ager
ĠB auch
ĠW acht
ĠVer t
sel ten
ĠVerw underung
j ung
Ã¶ de
ĠG entlem
Ġmit gebracht
ĠAn teil
ĠPar a
Ġleben d
Ġwar tet
ĠT ir
le bte
Ġspr ingen
Ã¤h igkeit
eig ne
ĠRitt meister
W agen
v olk
Ġf reut
ĠF Ã¼nf
Ġgew artet
Ġpr acht
Ġgelang t
ĠIr r
Nie mand
ol ge
ĠPf eil
ĠKampf e
ĠRau b
ĠKamer ad
a al
au x
Ġauf gef
Ġohne hin
ĠÃ¼ pp
Ġstr Ã¶m
zeu gt
Ġleg t
Ġallgem ein
ĠEr wartung
Ġab scheu
ĠSe kretÃ¤r
zeich neten
ĠHam burg
ge he
ĠS ituation
ĠG asse
Ġun ruh
ab zu
Ã¶hn t
Ġschle pp
ĠSteuer mann
Ġbe hielt
ĠEr leb
Ġr Ã¶m
Ġdarf st
Ġs eg
ĠB ob
Ġl Ã¤u
ĠT eile
Ġdr Ã¤ngten
Ġries igen
Ġdopp elt
ĠR und
Ġnach t
ph an
ĠEnt z
ĠFranz ose
Ġwunder te
Ġmensch liche
n immt
ĠK Ã¶
tr offen
ĠN arren
ĠPol itik
Ġvern ommen
W ider
as tete
Ġb auen
der nd
be ck
Ġtr Ã¶sten
Ġzwei hundert
gend es
ahn t
Ġacht zehn
ĠTeil nahme
Ġdank te
Ġbehand elt
ĠbemÃ¼ hte
Ġh eben
re e
Ġuns icher
Ġnun mehr
Ste lle
ll os
Ġwie viel
Ġbe ten
Ġsp reche
ĠQu elle
Ġherr lich
D ir
n s
au ten
Ġbe kommt
zei gte
ĠPrÃ¤siden t
ĠEifers ucht
o ut
Ġer lauben
ĠG uten
ĠSie h
ĠVerl ust
ge ord
Ġer leben
ĠSch Ã¶pf
ĠZ e
ĠmÃ¶ cht
ĠLu x
iz in
ĠrÃ¼hr en
W ann
ge gend
uch zen
Ein ige
Ġernst haft
Ġberuh igte
Ġgra de
hl er
ĠC our
lau cht
ĠBe ziehung
Ġrei cher
ass es
ĠPro z
fol gen
Ġfreu e
il ian
ĠWald es
ĠOber flÃ¤che
Ġreich lich
ĠB eim
ĠT estament
Ġbesser e
ĠMart ha
ĠFrÃ¼hl ings
Ġunsch uldig
V olk
s Ã¤tze
Ġd Ã¤m
ĠG itter
Ġsie b
Ġmit ge
her zig
lÃ¼ sse
ĠBes uche
Ġeinf ache
mÃ¤ÃŁ ige
ĠNot iz
ĠMill ion
anch ol
D ein
h Ã¤tten
Ġmit genommen
ĠR ath
ick s
ĠMÃ¼ ller
Ġschmal e
ĠgenÃ¼ gt
H il
ÃŁ lichen
ann tw
O der
er halten
tr otz
Ġmehr eren
ĠBo ten
ĠPfer den
ĠWesen s
Ġberuh igt
p assen
ĠK enntnis
sp itze
Ġneu lich
nden ken
ren zen
' t
ĠS arg
Ġst Ã¼tzte
ĠZu stande
Ġeinf achen
ĠS au
ĠUn schuld
Ġverh Ã¼
inder te
nik ow
r Ã¼ck
Ġsch o
ĠSch o
ech seln
Ġir d
ĠEv a
ungl Ã¼ck
b igen
Ġge gessen
Ġsch ade
ste llt
il ien
ĠWie se
ĠHa be
V esta
ein anders
ĠF rucht
ĠL az
Ġr ieb
ger te
ĠTh iere
Ġstehen den
ĠGren zen
ĠAuÃŁer dem
Do ktor
it ische
ĠE g
lie ÃŁt
Ġab gew
ĠGes p
ĠKind heit
mut h
ĠGegen stÃ¤nde
ĠglÃ¼ck liche
Ġs uche
Ġz arte
ĠF ast
Ġan einander
rei ft
ĠR eligion
Ġschl ank
Ġerf reut
Ġgeschlossen en
ĠGes ell
Ġsp azieren
ĠSp annung
ĠBild ung
Ġherr lichen
Ġstol zen
ĠCy rus
ed ition
ĠHand bewegung
Ġd Ã¤mmer
ĠP eit
ab sicht
Ġentz Ã¼ckt
besonder s
Ġn amentlich
Ġr einen
ĠschÃ¶n ste
Ã¤g liche
Ġgep ackt
ĠbestÃ¤t igte
C h
w ander
ĠE cken
Ġj ust
Ġse ht
hÃ¶ ch
ĠBlÃ¼ ten
k ow
ĠEr ziehung
Ġr annte
ĠHer de
Ġleg ten
lang sam
din and
R Ã¼ck
ter ten
ĠW itz
Ġan zunehmen
Ġger issen
ĠGra be
Ġbest anden
Ã¶ff nete
ĠBei fall
geste llten
ĠRecht s
ĠMasch inen
ymp ath
H al
Ġe uropÃ¤
sol che
Ġ 8
sch reck
Ġr at
Ġe ure
p ap
gen t
eu ern
rei tet
Ġle ere
har p
fert igen
Ġober en
ig ungen
ĠZ wie
ut her
Ġvor igen
ĠZu flucht
Ġentsch uldigen
ĠBesch Ã¤ft
S ol
g reifen
Ġh imml
ĠMan gel
ow na
Ġhe ftiger
Ġschrei en
l ern
Ġz Ã¼
ĠJahr h
Ġinner lich
ĠChin esen
ĠNapole on
d y
ĠW ach
eben so
ĠEin ladung
Ġblick en
je w
ĠzÃ¶ger nd
M o
ĠA ra
ĠD icht
Ġver zweifel
ĠHerr lichkeit
ĠAll em
Ġbedeuten d
Ġschr itten
wÃ¤rt igen
ĠKais ers
ie ÃŁt
Ã¼ ÃŁen
ĠD urst
ĠB ir
ĠB acken
ĠL ag
ĠO ct
ĠSchl angen
ĠSchl ucht
ĠKne chte
S ir
g ute
Ġf einer
Ġge wei
ĠR Ã¤ume
Ġverm eiden
ĠTr ag
ĠFÃ¼ lle
wel ches
Ġschreck liche
Ġschrei bt
L eiden
S ache
f assen
ĠS org
ar me
sch icken
ĠH ug
ĠW en
ĠAn gesicht
Ġwahr lich
ĠZwei ge
ĠstÃ¼r zten
ĠKer aban
ĠBedÃ¼rf nis
zu halten
Ġgesch lafen
Ġfreund lichen
Ġverfol gte
ĠGlo cke
Ġerm ordet
ĠverÃ¤cht lich
z ir
Ġi talien
ĠS ei
Ã¤ ÃŁe
ĠSt einen
ĠÃ¼ber aus
eg al
ver trauen
Ġgen auer
Ġern ster
Gesch Ã¤ft
ĠAmer ikaner
k es
ĠT reiben
ĠSch immer
Ġtr Ã¤um
mÃ¶ chte
Ġerinn ert
ĠClau de
Ġmitt ler
O n
er ie
ĠhÃ¶ lz
ĠFrauen zimmer
zehn tes
Ġentfern en
beg ann
Ġerinner e
ĠKla vier
ĠStu ben
kÃ¼ nd
ĠFlÃ¼ cht
mosph Ã¤re
k ar
m ond
so fort
ĠKap elle
ĠBÃ¼ hne
ste dt
ad urch
ĠVor hang
ĠAl pen
ĠKur z
ĠB rown
eu g
Ġbe kannten
wend igkeit
ĠPeter sen
Bru der
Ġangef angen
Ġlie ÃŁe
war tet
ist ischen
Ã¤l de
ph on
ĠglÃ¼ck licher
ĠRes pekt
ĠLiebl ing
Ġunauf hÃ¶r
y d
Ġer kl
ĠK reu
mal en
Ver b
sog ar
k i
k enntnis
Ġh ar
Ġge laden
Ġun geheuer
ro ssen
ĠSt att
Ġvoll ends
Ã ľ
an sp
ĠM Ã¼tter
Ġauf tau
Ġab sol
glÃ¼ck lich
ĠFir ma
K aum
d an
gew icht
Ġgeb ildet
ĠBar bar
vÃ¶lker ung
ĠL orenz
ind em
ast ro
ĠVor schein
Ġersch reckt
ĠHaupt stadt
ĠBuch staben
u ll
ĠB alk
Ġge br
ĠF uhr
Ġganz er
Ġbes tr
Ġgen Ã¼gen
Ġschw immen
Ġlau tete
Ġ1 0
Gr und
r Ã¼cken
Ġb os
ĠE ier
Ġso zusagen
be hr
Ã¼t t
ĠGel ehrten
Ġkeiner lei
ĠCl ar
ĠRas um
Ã¤ fer
ĠK uh
schie ÃŁen
essel t
ĠGebÃ¤r de
E llen
b Ã¤ume
ur pur
ig st
Ġbe kannte
Ġkann ten
ĠZeit lang
og off
ĠTr ink
Ġgute m
ĠPal ast
ĠMu ster
K ommen
ĠH Ã¼tten
ĠHerr schaften
gel Ã¶st
ĠGra de
ĠWasser s
ĠSchr ank
ĠGlÃ¼ck s
Ġget Ã¶tet
Ġzei ch
af Ã©
Ġfor derte
Ġbeweg ten
Ġbeh aglich
ĠHÃ¤upt ling
S Ã¼
Ã¤ ht
ĠH us
Ġun gew
Ã¶r n
pp er
ad a
Ġgen eigt
Ar m
ĠNahr ung
anntw ein
sch ne
Ġan gst
Ġkl at
ĠAr thur
ĠUn s
I r
un o
ĠP all
Ġwir ft
Ġzerst reut
Ġkrie gen
sch immer
ĠP ech
ĠP ension
ĠfÃ¼hl ten
Ġverfol gen
ĠEurop Ã¤
ĠGeschen k
ĠP aganel
Ġbes uchte
ĠBe denken
Ġgef Ã¼hlt
Ġgest Ã¶rt
ic ol
ĠauÃŁer halb
Ġgrau sam
nehm e
Ġge pf
ger echt
ĠZu cht
Ġstr eich
ĠFrei e
dah in
re ht
Ġmehr mals
ed och
ĠJu d
ĠHel d
zz a
j an
o die
Ġw a
Ġer mÃ¼
ĠF ische
ĠR oland
Ġent gehen
Ġrei ÃŁen
verne ur
Ġunter scheiden
Ġspr angen
nie mand
Ġinner e
ĠMahl zeit
au nte
ber eits
Ġl Ã¼
Ġbet rifft
ud el
gn Ã¼
ĠdÃ¼n nen
sprÃ¼ che
k aum
t age
Ġa hnen
ĠÃ¼ber s
Er inner
Ġgef Ã¼llt
ĠVor wÃ¼rfe
Ġbun t
Ġverab schie
ĠflÃ¼cht ig
ĠErlaub nis
S icher
f la
Ġ /
er fahren
un ver
al al
Ġt reff
Ã¶ff el
Ġempf inden
Ġdunkl er
ĠÃĸ ff
ĠLin ien
ĠBrÃ¤utig am
Ġsch ickt
unter brochen
Ġhalb laut
ĠÃ¼berw Ã¤lt
ĠFranc is
ĠÃ¼berr aschen
N atur
itter ung
geg riffen
Ġeis ernen
ĠHir sch
s igen
Ġh aupt
ĠB ern
ĠL ab
Ġst unden
ĠÃ¼ber sch
ĠO hn
ĠEhr geiz
sol chen
Ġeiniger maÃŁen
ĠSÃ¤ bel
Ġdien te
Ġmach st
j ah
ĠS obald
ĠH ahn
ĠZ elle
lei dete
Ġum schl
ĠÃ¼ber kam
ĠVer st
ĠVer beug
Ġgel itten
ĠBeg um
ĠRecht sanwalt
Ġmerk wÃ¼rdige
F uÃŁ
n Ã¤chsten
Ġn et
ter ung
ĠL og
hl t
Ġtr ost
ĠBe cher
ĠEi tel
ĠÃ¤lter e
H aar
ĠS eide
ĠG Ã¤sten
ind lich
Ġber eiten
kehr ten
Ġwicht ig
ĠGal gen
ĠStÃ¤d t
ĠHob son
st Ã¤d
Ġr ang
ĠVer m
Ġtr ock
ĠAn laÃŁ
ĠUn heil
ĠSe es
ĠGer ade
ĠChar lotte
ĠSta aten
Ġwicht ige
H en
f Ã¼gen
Ġer tr
ĠL ind
ĠV om
ĠDo ppel
man tel
leben s
ĠBesitz er
n em
r itten
Ġs amt
Ã¼ hls
st ab
Ġauf geb
eu tlich
Ġange zogen
ĠLehr e
tre ter
erb iet
kol nikow
ĠLud wig
ie be
Ġs att
ĠA ndern
ĠH on
ant ischen
ĠFel de
ic ane
Ġheut igen
amp ag
getr ieben
ĠglÃ¼hen den
g a
ĠD sch
Ġge arbeitet
Ġl euchteten
et sch
ĠL einwand
ĠZ ettel
ĠKor b
ĠBem Ã¼
ĠStÃ¤d te
Ġ on
ges prungen
Ã¤ch ern
zie her
ĠKat ze
v ort
au scht
ur teil
ĠT ele
rei cht
aus ge
ĠIn str
uldig te
ĠhÃ¶her en
ĠSek unden
Ġh el
ig ht
stra hlen
ĠKu geln
ĠMitt eilung
G lauben
H ar
N eben
ĠK re
ĠT annen
Ġun ent
ot s
ĠkÃ¼ mmerte
Ar me
ĠÃ¤uÃŁ ersten
zÃ¼ ndet
ĠBegeg nung
Ġein verstanden
ater ial
Ġtief sten
ĠGroÃŁ mutter
ĠRevol ution
Ġ X
an ien
ĠSch auer
Ġgew ahrte
me ter
Ġglau bten
Ġgest Ã¼tzt
ĠKÃ¶n ige
Em pf
ĠK enn
ot land
ĠC r
Ġleb hafte
E he
Ġk reu
ĠSch ottland
ĠSt il
ĠHand werk
Ã¶l z
ĠBei stand
ĠKor ridor
ĠJun i
Ġbefr eit
h und
Ġd achten
Ġtr ifft
ĠMar strand
Ġfrei er
ĠTeufel s
ĠGeheim nisse
ĠEreig nisse
M eister
w ache
er wider
Ġb o
ter e
rau s
Ġent standen
Ġzwei ter
ĠDiam anten
l u
u bel
ĠS age
ot ograph
Ġwo durch
ow itsch
ĠAnder en
b elte
ĠT ore
Ġste hn
ĠStr eifen
ĠFl uch
Wei ÃŁt
Ġvertrau t
M Ã¼
ĠA dern
Ġsch enken
Ġun zÃ¤hl
ver ley
ĠC la
ĠSchw e
mut ig
Ġunbe kannten
ĠMaÃŁ e
ĠBÃ¼ch ern
Ġy ou
z Ã¼gen
ĠB ut
ĠW egen
Ġste llt
ĠPf eifen
Ġpf l
ersch ien
jÃ¤hr ige
ĠTrotz dem
Will st
G ottes
Ġein ger
ll a
ĠD is
ĠR ang
Ġbes ucht
Ġaufge hoben
ĠKlei dern
ĠKirch hof
p tem
z eits
ĠW Ã¶l
ĠSie ger
Ġt aum
ent in
Ġwo von
Ġtr Ã¤umte
Ġmel den
ĠÃ¤lter en
S al
b ist
Ġein gef
Ġbes p
Ġstar ker
ĠSa cc
Ġpf legt
our nal
ĠBu ben
h Ã¼b
st ift
ĠD auer
ĠK e
gesch ehen
sie ben
Ġbest Ã¼rzt
ĠJu de
ĠInd ian
ĠMu se
ĠUntersuch ung
ĠRud olf
an st
ĠW Ã¤re
Ġwir ken
lie ber
Ġgew Ã¤hlt
kl er
Ġgef Ã¼r
ĠĠĠĠ Ġ
ĠGew icht
gehen d
Ġget Ã¤uscht
dam als
en ke
ner gie
we h
Ġallem al
Ġunver m
ĠTrÃ¤ umen
f isch
f leisch
st ig
ĠL assen
ĠL iter
Ġan scheinend
ap s
Ġbeg nÃ¼
ĠBo ck
ĠCh or
wend ung
hÃ¶ he
ĠY ard
ĠGru ppen
j as
t Ã¤t
Ġw est
ĠM assen
ĠE ff
ĠfÃ¼r s
Ġher ange
ĠweiÃŁ es
ĠKÃ¼ sten
Ġversamm elt
Ġmu sterte
ĠTelegra mm
r and
ĠB ucht
ver h
Ġvoll em
ĠflÃ¼ ster
Ġdro hend
b le
o z
Ġl etztes
ĠN est
gesch oben
Ġgeb oten
ĠBeg inn
off eln
Ġschwie gen
Ġgeste ckt
ĠÃĸ l
b all
s wert
u pp
Ġk Ã¼r
ĠK ont
ĠZ ehn
Ġkl agen
Ġschl Ã¤ft
ĠUni form
ĠertÃ¶n te
Ġn ett
Ġf erne
se her
Ġent halten
freund lich
ĠOt ho
or sam
Ġg rad
Ġl inke
re geln
Ġgeh Ã¼llt
schaft lich
St ein
enk ten
Ġed ler
wind igkeit
P er
ĠW ester
Ġp o
ĠEin fall
ĠStr ogoff
ĠNe ffen
ĠAd vok
ĠAnge legenheiten
ĠzurÃ¼ckzu kehren
. )
D abei
J ohn
al teten
mal t
Ġgeh oben
ĠVor wand
ĠVor bereitungen
ĠWei ÃŁt
ĠSchw ager
Ġschw ier
Ġei fers
Ġbede utete
Ġung laub
Ġm att
sch weigen
ĠVor wurf
ĠHer mann
m acher
Ã¶ ll
ĠG Ã¶tt
Ġdas elbst
Ġst eigt
ĠzurÃ¼ck kehrte
voll kommen
ĠStu d
ĠFuÃŁ boden
fÃ¤ llt
Ġgebrau cht
Ġm i
Ġh arte
ben teuer
ĠÃ¼ber dies
ad eln
Sch nell
gesch ossen
arr ten
ĠmÃ¶ glichen
Ġniedr igen
ĠUnser e
P latz
sch uh
al is
ĠF uchs
Ġsp Ã¼rte
ĠSal z
B rief
ĠS itten
ĠEr be
Ġum zu
Ã¶n nt
itz ten
fÃ¼r cht
Ġhaupt sÃ¤chlich
ber eiten
ĠF ell
Ġauf gestanden
Ġr aschen
ĠVer sammlung
ĠKÃ¼ chen
ĠSÃ¼ nden
Ã¼cht igen
Ġerkund igte
Ġgegenseit ig
k unst
Ġge liebten
hl te
ĠSerge ant
ĠG un
den kt
ĠK rei
ĠC ann
Ġp aÃŁte
ĠHer d
ĠMan chmal
ĠFl ug
konn ten
Ġfal schen
Ġentsetz lich
H eim
Ġz Ã¤r
Ġb Ã¶s
ĠB ay
Ġun wider
ick el
Ġwe hte
tra ft
ĠIrrt um
sch Ã¶ne
ĠM ienen
ĠD onn
Ġun bes
zu fÃ¼hren
erk annt
Ġgem Ã¤ÃŁ
ĠHel ene
Ġbetr unken
Wald emar
Ġz art
ĠW einen
Ġan vertrau
ver z
tel ier
Ver hÃ¤lt
Ġbesser en
Ġbeste llt
ĠnÃ¤m lichen
B ild
K Ã¼
w all
ĠW ange
Ġwar te
Ġwar teten
lei tet
llen den
Be wegung
Ã¼l fe
ĠgehÃ¶r ten
B Ã¼rger
Ġgel be
ĠSchl imm
Ġir re
zahl t
Se e
ĠThr on
Ġgebrau chen
ĠPul ver
U l
i ken
j Ã¤ger
Ã¼ cher
ĠS agen
ĠA kten
zu machen
Ġt Ã¤uschen
ill es
ĠHo hen
Ġirgend eine
ĠGrÃ¼ nden
ĠEntsch eidung
ĠSan kt
ge wei
ÃŁ end
ĠG ur
ĠW Ã¤chter
Ġl ud
ĠK ilo
is on
Ġp er
ob te
hin unter
Ġbl enden
Ġbed urfte
wo hnen
ĠBaron in
schwar z
kad em
K on
e cken
s ollen
er fÃ¼
Ġzu grunde
Ġst re
ver hÃ¤lt
ĠfrÃ¼ hen
Ġrau chen
Ã¤s ar
Ġm us
Ġl es
Ġbei der
ah ll
bar ten
ĠMar g
ĠStu denten
ĠFrei herr
Ġf ind
Ġl Ã¶
Ġver sen
ĠAn schein
ĠC an
Ġange legt
org an
Ġdro ben
ĠEigen tum
ĠfranzÃ¶s ische
ĠSchlos ses
v ard
v iele
te sten
ur ften
Ġver rie
ĠGer v
Ġgewalt ige
G u
i or
Ġs au
ĠB ist
Ġverl etzt
ĠAlter s
ĠEv el
Ġmancher lei
ar ben
Ġg reifen
re chte
hal ts
bl Ã¤tter
Ġbew ahren
Ġirgend ein
ĠFÃ¤ lle
ĠTrÃ¼ mmer
ĠSacc ard
ĠS Ã©
be ob
Ġbest immen
ĠPro zeÃŁ
ĠBett ler
ĠSÃ¤ ulen
T ro
ĠA ndenken
Ġan ger
hin zu
Ġdr ingend
Ġverm ut
unser e
Ġletzter e
ĠStÃ¤r ke
H ol
N ot
hm et
Ġbe endet
lie fer
ĠSchla ge
Ġinteress iert
ĠAp othe
B ur
G ro
z o
z igtausend
Ġh ung
ĠD ra
ĠD einem
Ġmit unter
eu gnen
Ġre de
Ġerst aun
Ġlaut los
Ġtraur ige
Ġex ist
ĠReu e
p ra
Ġm ischte
Ġein geb
Ġder art
Ġver halten
Ġwollte st
Ġber eitet
gem ach
Ġfol gt
ĠEn kel
ĠÃ¤uÃŁ erte
Se ele
ĠPfl anzen
an ie
ĠS einer
etz ung
Ġst at
Ġlie genden
Sch laf
Ġdr Ã¼cken
ĠKl ar
gest ad
ĠStu dien
ĠWill st
unz elte
ĠLam pen
G rÃ¼
H in
m ach
ag n
Ġst immt
ad ac
ĠZu erst
ĠLei chn
ausen den
leu dert
ĠPersÃ¶n lichkeit
R icht
u der
re chten
Ġst oÃŁen
kann ter
Ġlau ten
ĠMon te
Ġspiel ten
Ġel end
ĠDank barkeit
ĠKer zen
T on
k ennen
and al
ĠJ ap
ri ke
ĠLu ke
ĠFrieden s
t urm
ĠA pr
Ġk opf
ĠB utter
ĠW ann
ĠT op
ehr ung
Ġkl in
hau er
ĠPer len
ĠGrau en
ĠbemÃ¼ ht
ĠW ahn
um her
Ġbes orgen
Ġhier auf
Ġbrau chst
euch ter
ym n
bu sch
ĠEitel keit
B ett
J eden
k Ã¶rper
ll end
ĠD egen
ĠW im
ĠW endung
ĠL eucht
ĠJ en
Ġgeh st
ĠBe friedigung
gew and
Ġbrau ne
zie h
Ã¶pf chen
Ġerwar te
geste ckt
e x
u cken
Ã ¦
ĠK einer
ĠV iele
Ã¶n en
ĠVer g
Ġber ichten
ĠHo pe
ĠZu cker
Ġfro mmen
ĠSu ppe
Bl ut
ĠMÃ¤r z
ĠTerr asse
ĠKommiss ar
ptem ber
s aÃŁ
Ġg al
ĠSch eiben
ĠGra ben
Ġbetro gen
f lichen
h ag
ord net
ĠWohn zimmer
b i
Ġs a
Ġl ernte
Ã¤l er
sicht igen
ĠHÃ¶ flichkeit
ĠCh aus
Ã¤h ern
ĠGefangen e
Ġl enkte
Ġsch Ã¤r
ĠBer Ã¼hrung
Ġerwider n
ĠsÃ¼ ÃŁe
ĠerrÃ¶ tete
B lei
O ffiz
Ġh indern
Ġg ott
ĠStr ande
ĠKapitÃ¤n s
Ġgehei ratet
G ar
M el
Ġm Ã¤ÃŁ
ĠM ort
ĠBo ur
oren en
glÃ¼ck t
ĠgrÃ¼ ndlich
ĠTo te
ĠNot h
Ġgemein sam
Ġbrennen den
ĠNeugier de
Bru st
Ġsogen annten
K lo
ĠW ern
ĠK ul
ĠSpr ung
Ġch ines
Ġblo nde
Ġbehaup tet
Ġgehor chen
ĠPist ole
H olz
b an
ei che
ĠG riechen
ĠH Ã¤
eu x
Ġvor bereitet
lo cke
ad y
S ter
Ġw id
ĠT iger
Ġt re
ĠVer f
ĠVor haben
nie mals
Fr em
ĠTa kt
vers itÃ¤t
Ġbra v
at ri
Sch atten
Ġber eitete
ĠSchul meister
ĠAd ler
schr ank
ĠTrom pe
l Ã¶sen
ter in
Ġr Ã¤chen
br ingt
Sch wei
ĠLie der
ĠEigen schaften
ĠRos a
Ġflei ÃŁig
ĠSah ib
ĠEntz Ã¼cken
Ġb lies
ĠB ack
Ġre det
men den
ĠGew inn
Ġerf reu
herr en
frei lich
ĠÃ¼br ige
ĠMatro se
s achen
ÃŁ liche
Ġb Ã¼rger
ĠK ragen
se he
ste ller
scha fter
og g
ĠGesicht ern
itter ten
S ei
e c
ei sten
âĢ Ķ
Ġgew ollt
Ġtr au
Ġger Ã¤usch
ĠPf ad
fall end
Ġe cht
ĠFl aschen
ĠGem Ã¼
mittel n
schu le
ĠnÃ¼t zlich
ein zu
sch irm
ste her
ĠAr z
Sch ne
ĠPf laster
ech s
ĠNacht s
Ġerf aÃŁt
ĠLiebl ings
B eim
n amen
Ġ 9
Ġsch im
le g
Ġtr ag
Ġzwei er
Ã¶l be
Ġtreu en
ĠKer le
Ġehemal igen
F est
M art
g asse
Ġk osten
ĠVer halten
ri ÃŁ
Ġunbe kannt
wieder te
Ġherr liche
Ġleuchten den
S eiten
g laube
r ang
Ġs Ã¤he
st lichen
ar re
ĠMar gar
ĠFl ag
Ġgest and
Ġstarr en
ĠZeu ge
ĠtrÃ¼ ben
ĠSel igkeit
ĠGebÃ¼ sch
Z usammen
r ingen
in c
Ġda m
tr aten
ĠC omm
gel esen
ĠPf lege
ĠvÃ¶ ll
ĠTir ol
Ġer be
Ġer wiesen
Ġall edem
Ġent lassen
ĠIn s
Ġsollte st
ĠPro be
nie dr
hand eln
por ter
it Ã¤ten
Ġf arb
ĠF este
Ġauf nehmen
ĠSch e
Ġj agen
bei m
ĠRe eder
fÃ¼r sten
Ġruh ige
ĠJa cqu
Gel egenheit
ĠplÃ¶tz lichen
ĠRÃ¤ der
Ġatem los
or derung
ĠA er
Ġver he
ru hr
Ġkl agte
Ġsel ig
ĠFl Ã¤che
eucht ung
Ġschne llen
m Ã¤chtigen
x an
ĠSch mutz
br ett
Ġab gesehen
inter ess
lang te
ĠQu artier
ĠRau schen
Ġschar fe
row itsch
tÃ¼ mlich
Ġgehol t
ĠspÃ¶tt isch
s f
Ã ¯
Ġm ann
Ã¤ mm
ĠSt ab
achte l
Ġschw eben
zeich nung
ĠTal ent
Ġanf ing
ĠDam als
u pf
Ġd ehn
ar zt
ges ellen
Ġgen ossen
ĠDo ug
Ġ1 6
Ġernst lich
Ġwor an
Ġwirk lichen
lepp t
ĠGespr Ã¤che
, âĢ¹
Ġzu geben
Ġk und
ĠEin geborenen
hau ffe
ĠfÃ¼hr e
kr ank
Ġben utzen
ĠBri ant
S ohn
ver stand
Ġbes innen
ĠFel ix
ĠUr laub
ĠTaschen tuch
Tag es
ĠErk enntnis
ĠSim on
Ġbefrie digt
ĠLux us
A nd
o x
es tes
ĠE nergie
Ġgew Ã¤hren
gel ernt
ĠRe chen
ĠDeut sch
Zw ischen
ĠSt urz
Ġjeder mann
stÃ¼r zen
grÃ¶ ÃŁer
b recht
y en
ĠS ehr
Ġver derben
Ġt eilen
ĠKl ugheit
itzen den
Ġschwar zer
Ã¼ttel t
Wo hin
Ġzitter nden
ĠMag ister
ĠArbeits zimmer
ĠMun ro
L ang
Ġd auern
Ġm echan
ĠM am
ĠVer se
ĠVer zeihung
Ġglau bst
ungs kraft
ak te
umen te
echsel t
Ġpra kt
F reunde
L ieb
Ġw ort
Ġf alls
ĠK lage
ĠK ultur
die u
ĠSp rechen
eigen en
ion s
ĠBl ume
Ġir ren
ĠTh ema
zehn ten
gn es
ĠBerlin er
ĠerschÃ¼tter t
ĠTart arin
B el
c l
ĠS umpf
ĠA th
ĠH eiden
Ġsp iegel
bl umen
Ġne bst
Ġempf unden
Ġunbe w
ĠGru be
ĠVerlo c
Ġgewisser maÃŁen
st Ã¤tte
ĠH y
ĠL Ã¤nder
Ġent sprechen
vor her
lÃ¼ nder
Ġbl assen
ĠBur e
Ġsonder bare
L ippen
os a
St ill
ĠbrÃ¼ llte
ĠzÃ¤hl en
K eine
ĠA k
Ġf rucht
Ġsie g
ges tr
iz z
per te
nach dem
ĠsÃ¼ ÃŁen
Ġtreu e
ĠEntsch uldigung
Aller dings
Ġan statt
ĠP ad
ver stehen
Ġbr achen
amm elt
ĠZw ang
ĠEx istenz
ĠPart ie
Ġstrei fte
C ar
w al
am te
Ġj ahr
ang st
Ã¶r ten
Ġgeh andelt
rÃ¤ umen
ĠRei s
Ġsan ften
ĠAg athe
! !Â«
A cht
d un
ĠC afÃ©
ĠkÃ¼ hnen
Ġverschwand en
ĠGesetz e
ĠBi bliothek
g uten
ĠT im
ĠkÃ¼ mmer
Ġbein ah
fiel en
Ġstren gen
l ingen
en gl
sch ar
Ġauf richtig
ĠT asse
ĠR enn
br Ã¼ch
sel igkeit
Ġab ger
fall e
Ġbel eidigt
ĠFrei en
red iger
getr offen
Ġph antast
Ġwirk liche
Ġschluch zte
P erson
j estÃ¤t
w ell
ĠSch ub
Ġj agte
il ett
Ġgesch ossen
vor bei
ĠUnter nehm
ĠLe be
ĠkÃ¤m pfte
ĠServ adac
ĠBÃ¼nd el
ĠBeschÃ¤ft igung
R as
i ol
en dete
Ġk Ã¼hlen
lei se
Ġwei che
Ġent flo
geb Ã¤ude
Ġhinter her
id t
ĠZigar ette
T eufel
k os
st rom
ĠS harp
ĠT ausend
ĠT Ã¤nzer
ra te
ap el
ĠPf orte
All ein
ĠLis ei
ĠArn old
A d
w olken
ĠRu fe
Ver d
ĠÃ¤rger te
s il
ie ge
ĠG Ã¤rten
ĠE p
ĠN utzen
Ġkl angen
ĠGes penst
Ġander em
Ġschau ten
Wei se
ĠBesuch er
ĠÃ¶ffen tlichen
L ord
Ġm Ã¼r
Ġn amen
un n
ĠD unst
Ã¤ch s
Ġfr ag
Ġeil ten
ĠNachbar schaft
ĠgenÃ¼ gte
Ġverwand elt
p ort
Ġer zogen
on isten
ber s
ĠM ur
ĠK ie
ind lichen
ne ter
men ge
Ã¤cht iges
ĠsÃ¼ d
Ġstol ze
ĠVerbeug ung
ĠM us
ier ter
ier de
ĠÃ¼ber geben
Ġhin an
ĠHoff mann
ĠOffen bar
Ġw inz
Ġf loÃŁ
Ġk athol
ĠK Ã¤m
Ġmit zut
ĠP ack
Ġst ot
Ġgew andt
ĠEin richtung
ĠKl ub
Ġheraus zu
lang t
Ġverh indern
grÃ¼ nen
Ġw uch
as te
ĠH irn
sen s
ĠSt Ã¼hle
Ġgeh Ã¶re
inn a
geb unden
Ã¤m lich
ĠSchul den
ĠÃ¤uÃŁ eren
Wo her
Gra f
ĠSchicks als
J ung
b Ã¼ch
her bei
ĠO ce
ĠwÃ¤ hlen
ĠWei te
ĠLu ise
ĠBes innung
Ġgest Ã¼rzt
ĠGeheim rat
Ġanges ichts
Ġhern ieder
m end
ĠW unden
and id
Ġwei sen
lie fen
wer ben
Ein er
Ġsamm eln
ĠAsp asia
ĠgrÃ¶ÃŁ ter
Ã¼ sse
Ġpaar mal
Ġwiederhol en
ĠB itten
ĠE id
ĠF au
re ÃŁ
ĠVer steck
ĠGegen den
ĠLe on
ĠStÃ¼ck chen
ĠSc ott
ĠAndre as
ĠKommand o
ĠKoll egen
k arte
or ne
Ġf Ã¤ngt
Ġk Ã¼nst
ern st
etw illen
Ã¼hr te
ĠSchl uchzen
ard in
zur ichten
ĠGegen satz
sinn igen
vier tel
ĠHinter grund
Ġ "
Ġw es
gen au
or r
erk annte
ant a
old aten
amm e
stehen de
ĠRom e
ym b
Wei ÃŁ
m anden
ĠB ade
lich te
ir g
Ġsch rÃ¤
ĠHand lung
wen iger
zahl en
ĠgefÃ¤hr lichen
Ġarm es
ĠSign or
ĠArn heim
w or
st in
Ġg ib
Ġwar me
lei che
ĠWei ÃŁen
fel der
spr icht
Ġverh Ã¤lt
ĠFrie de
ĠBarb icane
a kt
er eien
st eig
ĠS ult
ĠG ange
ĠG ulden
Ġver beugte
ĠkÃ¶nnte st
tag s
abri k
Ġbun te
Ã¶ste te
G arten
T rau
Ġa chtete
ĠG ol
ĠB ab
Ġbes essen
ĠSp ion
sp Ã¤ter
ĠZu schauer
ĠtrÃ¼ be
kleid ung
k enn
Ġz Ã¼r
in ett
el det
ĠG lied
Ġan st
ĠEr fÃ¼llung
ĠSa ale
ĠDe cken
Ġentsch loÃŁ
hei ÃŁ
Ġschr eit
ĠAnn emar
ĠnatÃ¼r lichen
Famil ie
t schaft
Ã ł
Ã¤ ÃŁt
Ġb ildet
ach ter
ĠA ss
Ġsch enkte
lei der
Ġt Ã¼chtig
Ġ1 2
Ġblo ÃŁen
ĠTal er
ĠWild nis
ĠMil itÃ¤r
Ġsicht lich
eigne ur
O t
ein fach
ig in
ĠZ o
ĠC a
war um
ĠBe frei
im on
Ġgel ingen
ĠVerr Ã¤ter
Ġvornehm e
b ilder
Ġn annten
ĠH ilde
ĠR iv
ĠP aÃŁ
Ġwieder sehen
Ã¤r mer
ges unken
unde te
ĠPf lichten
ĠAb sichten
ĠAugenblick en
for schungen
Ġras cher
Gest alt
Ru he
K unst
j agen
Ġer wiederte
Ġauf steigen
Ġst irbt
ĠzurÃ¼ck gezogen
ĠVor mittag
ĠFr ont
na ben
asch ine
Ġebenso wenig
jen ige
ĠSc otland
ĠWel che
ĠBal ken
G ast
ĠE ichen
ĠR ollen
Ġt Ã¼rk
Ġgef r
im ir
twor ten
gem Ã¤ÃŁ
ĠBeg rÃ¼
wÃ¼rd igkeit
ium s
Ġhart nÃ¤ck
herz igkeit
Ġblut igen
ĠFer dinand
W e
st Ã¼cken
gl anz
gesch Ã¤ft
ĠTr itt
ĠgewÃ¶hn liche
Ġkom isch
schÃ¼ttel nd
D eine
f eu
s agt
Ġd ichter
Ġw undern
Ã¶ ÃŁt
ĠG laube
ĠZ iele
ĠVer sicher
ĠFreund innen
Ġpr Ã¤chtigen
gewÃ¶hn lich
ĠgenÃ¼ gend
ĠOhn macht
b ro
m ag
Ġf euchten
ĠR ast
Ġkl ingen
Ġste llten
ĠzurÃ¼ck halten
me er
Ġbet eil
Ġsech zig
ĠEm p
mar ck
Ġinner halb
ĠAt mosphÃ¤re
Ġbrei tete
far be
ĠVerstÃ¤nd nis
ĠSoph ie
Gener al
b at
w Ã¤nde
ĠA cker
ĠSch af
Ġmein etwegen
bar m
ĠDa fÃ¼r
hau en
Ġen ge
An twort
ĠGro ÃŁe
Ġstill er
Ġdeutlich er
Ġgewalt ig
Ġsan fte
Ġzerst Ã¶rt
tell igen
ĠToil ette
st eine
ĠS us
sch lÃ¼
ĠM er
ĠM Ã¼hle
ĠÃ¼ber flÃ¼
ĠBr anntwein
ĠGeb ieter
Ã¼b chen
dar in
Ġaufge geben
ĠRed ner
ĠplÃ¶tz liche
au cht
ĠH om
Ġmit tel
Ġbe denken
Ġschw achen
iff e
gem essen
ĠlÃ¤nger e
fahr er
Ġregel mÃ¤ÃŁig
ĠThom as
w olle
Ġb Ã¼ckte
isch ten
ĠGef olge
Ġbet rÃ¤cht
ĠStu dent
Ġbed arf
ĠPh ilosoph
mÃ¼t ige
Ã¨ re
Ġpein lich
ĠSpazier gang
Ġka iser
em mt
Ġg riech
Ġverw undet
Ġzer schm
Ġben utzt
ĠUnglÃ¼ck s
Ġs itz
ĠB eu
Ġl u
ĠF unken
Ã¼r fen
be u
mmer zien
ĠAus fÃ¼hrung
Ġdr angen
gar d
rech ung
r rt
Ġer weisen
ĠA ffen
al ische
ol zen
ĠJ emand
ot ima
Ġtr age
ĠDie b
kl agte
Ġeigen tliche
atz ung
Ġzer brochen
Ġschn eiden
Ġ2 0
Ġverpf lichtet
o stet
Ġauf gew
ĠL Ã¶sung
Ġbe absicht
zen der
Ã¼n ste
Ġgel b
Ġschl anke
ĠAd am
ĠAben te
Ġgehol fen
j or
m Ã¤nner
r em
Ġun ber
ĠÃ¼ber lieÃŁ
Ġkl Ã¼
hin Ã¼ber
schein t
astro phe
l ernen
Ġ eilen
nd em
de ll
ĠC am
hin ab
ĠWei den
ĠSe ptember
Ġtief es
Ġfreund liche
ĠMiÃŁ trauen
k ette
Ġf ix
ĠB om
ĠE kel
ĠK Ã¶pfen
re ÃŁt
ol ten
ĠJ ens
ĠUn geheuer
ĠRe gel
ĠKl ippen
ard on
Ġfreu d
ĠnÃ¶t igen
gebir ge
y lle
an gel
pf eln
St a
Ġschwer lich
Ġunbe g
ĠNot ar
ĠhÃ¼bsch es
ti enne
Ġtod t
Ġbe zw
Ġent t
Ġseiner seits
Ġbra ven
b Ã¤umen
d rauÃŁen
ut sam
etw a
Ġmal en
Ġzer f
ĠEd ward
ĠÃ¶fter s
b ilden
s Ã¼
s in
Ġein genommen
Ġz erk
icht igen
ĠSch t
ĠSch Ã¤tze
wei st
Ã¤nd igen
Ġger echt
qu art
An ge
fol ger
Ġstie ÃŁen
ĠWo zu
Ġaufzu suchen
Ġzitter ten
ĠFle cken
elig i
ĠKÃ¶r pers
ĠApr il
Ã¤ sse
Ġk ehrten
ĠN asen
Ġaus gef
ĠC ib
Ġta pf
b iÃŁ
f eind
j Ã¼n
Ġm Ã¤chtiger
ĠK rug
ĠZ wer
ĠAn stand
ĠSp ort
ĠNe ffe
ĠFranz Ã¶s
Ġgelegen tlich
ĠMos k
Freu de
m iÃŁ
Ġh Ã¤us
in ste
ick lung
gesch rei
Ġersch oll
ĠBl ute
ĠGen ugt
ĠTr ennung
ĠZweck e
Ġsilber nen
i ver
t Ã¤uschung
ag o
wei te
Ġbefest igt
D ank
h Ã¤lter
i dr
Ġs angen
Ġg i
ĠW itt
che zza
her unter
sp iele
ess ion
wohn ern
ĠberÃ¼hr en
ĠgÃ¼nst ig
erwider te
i at
m asse
Ġsch Ã¤mte
Ã¤r te
ĠSp iele
Ġgest atten
Ġged uldig
Ġgetr Ã¤umt
Ġuner me
Aus druck
atter as
ski y
F le
k ut
Ġ euer
ĠS icht
Ġein geladen
ĠN im
lau bst
Ġgef lÃ¼
Ġeigen tlichen
Ġfei ern
ĠKab ine
Ġerlo schen
Ġauf gestellt
be kannt
kl ein
fte ten
Ġerrei chten
ĠdÃ¼ster en
min al
ĠGemahl in
hauffe ur
R eise
i ant
z iger
ĠN ichte
ĠVer gleich
sel tsam
Ġp reuÃŁ
ha ten
fl ut
ĠLe ere
Ġverste hst
ĠPort ier
ils on
ĠDumm heit
ĠKerk er
ĠHaup te
ĠExp edition
ĠAfri ka
h an
p al
Ġw ischte
st on
ar beiter
ĠT rei
Ġbe wir
Ġzwei tes
Ġgef Ã¼
Ġbr ennt
ĠHaus frau
Ã¶ff net
ĠEn tr
Ġhe bt
Ġbed acht
ĠFrÃ¼ chte
gra ben
ĠVic tor
Y ork
l asse
st ille
ĠS ich
ĠK iste
and s
ĠN ana
ĠZ war
ĠC orn
zei h
Ġro m
ak et
brau en
ĠBÃ¶r se
g laubte
l Ã¤u
st iegen
Ġn Ã¤hern
ĠH undert
Ġl og
ĠL umpen
ĠR iegel
isch ung
Ġr itter
il us
ĠC ra
fe kt
gl ing
sa ck
gro ÃŁer
plat te
sech s
Ġstunden lang
W eshalb
u fe
z erst
Ġvor gestellt
om eter
Ġkr och
ĠKrie ge
ilder t
schn itten
ĠEhe paar
ku gel
v Ã¶
ĠG end
err te
ĠVer Ã¤nderung
Ġkl ugen
Ġzum ute
la de
Ġhe ftige
Be w
Ã¤ ug
ĠD au
ĠK essel
Ġsch ief
ĠR ennen
br ennen
Ġp reis
hol fen
ĠSchu hm
f achen
h ern
Ã¤ hnen
em pl
ĠSt at
Ġtr Ã¼b
ĠFr eit
Ġverst ummte
Ġschwarz es
M ehr
W Ã¼r
b elt
z war
Ġw eckte
Ġbei zu
Ġunter nehmen
ĠStr ahl
ĠBl Ã¤ttern
spiel te
Ġrau chte
ĠFrem d
ĠWider spruch
ĠkrÃ¤ ftige
ĠReich s
erzÃ¤hl en
ĠEuropÃ¤ er
l achte
n end
n ommen
p os
Ã¤ sch
Ġk raft
Ġerw acht
ĠBr ille
zut age
Ġjetz igen
A uÃŁer
ĠS einen
ĠB ie
ĠP an
ĠAu ÃŁen
bei de
ĠAb scheu
zur ufen
Mit tel
Ġgek ostet
Ġwe cken
ĠHol m
ĠGerv aise
S obald
h all
h art
l ungs
p ersÃ¶n
u a
in ker
ĠSch ilder
is h
ent z
ĠSe ch
dr ang
Ġbew undern
ĠJu lie
Ġerg Ã¤n
ĠSchla fe
ĠFranz is
gra mm
ĠMut h
ĠJul i
Ġfal sche
ĠWa verley
ĠBÃ¼ch se
ĠZuh Ã¶rer
M acht
r igen
u z
z ert
st igen
ĠS ag
Ġbe z
Ġfrei willig
nehm end
ĠHÃ¼ hner
ĠChrist ine
Ġwander te
H Ã¤nden
Ġh ub
Ġf ahre
Ġaus gefÃ¼hrt
lie fern
Ġger e
Ġgem erkt
bes ten
ĠRau sch
ĠFa hne
el ei
ĠG Ã¼ter
ĠF lie
aus druck
all em
Ġunter m
Ã¤u er
kÃ¶n ne
grÃ¼ nde
Ġstren ge
ĠLuc as
ĠRÃ¶ mer
freu de
Ġd at
Ġf ragend
Ġmit nehmen
ĠL om
ol o
le ger
ĠC le
ĠSp ei
ĠStr au
Ġgest iegen
Ġneben an
Ġbel iebt
wel chem
Ġausge zeichnet
deut schen
neu en
woll ten
E ind
Ġ 000
re det
Ġtr Ã¤umen
ĠBe vÃ¶lkerung
Ġgel Ã¶st
ĠLei bes
Ġhinter lassen
ĠfÃ¼nf hundert
Ġinn ig
ĠDoll ar
f aÃŁ
i qu
on isch
Ã¶ p
ĠG is
ĠH ind
eil chen
Ġger edet
Ġ1 4
Ġvern ichtet
Ġgeheim e
bu ben
soll ten
A t
ge hoben
is ation
ĠN etz
Ġr Ã¤tsel
Ã¤t zt
ĠO bst
nde ÃŁ
Ġvoll stÃ¤nd
ĠBo ule
ĠÃĦ uÃŁer
ĠUnglÃ¼ck lichen
ĠSu mmen
ĠtÃ¶n te
Ġd o
Ġd Ã¤n
Ã¤ ss
ann a
ĠVer derben
hal ben
ĠAuf tr
gehen de
Ġbrau ch
Ġstehen d
Wei b
ĠKom Ã¶die
ĠNachmittag s
ĠKlar heit
ĠA telier
ĠW arten
hl ig
eil ungen
gl er
ĠRe pu
Ġvier undzwanzig
Ġvern ichten
ĠVerl auf
Dien st
ĠWirts haus
K raft
ra in
ett i
geste hen
ĠglÃ¤n zende
ĠJung fer
Lu c
Ġverbrei tete
Ġtrenn te
ĠWeihn acht
D an
Ġm ager
Ġein geschlossen
zu geben
ĠAuf ruhr
Ġschw ankte
ĠGar de
ĠJean ie
ĠFeu ers
p ha
Ġer s
ĠF rack
Ġauf er
ĠR uth
Ġbes ter
Ġger Ã¤um
dr uÃŁ
da fÃ¼r
fr anzÃ¶s
ĠNie mals
Ġentfern ten
jen er
ĠJul ius
Ġverwir r
Ġstrahl te
Ġledig lich
Ġbe ur
ĠC re
chte ten
ĠDir ne
fÃ¤ llen
Ġfinster en
ĠSchwar zen
ĠMiss ion
min ister
enig stens
haf tet
ĠAller dings
S onne
b ige
o il
at hen
Ġk nurr
be llen
Ã¼hr en
ĠRo hr
ĠnÃ¤cht lichen
ĠDoug las
L Ã¤cheln
W under
w ild
Ġb los
re dete
ĠSt Ã¤tte
Ġr Ã¶t
Ġsp itz
ĠzurÃ¼ck kam
gesch ick
ĠRes iden
ĠGran it
ĠÃĦhn lichkeit
ansp ort
H all
Z ug
l och
an y
Ġk ru
ĠF aden
ĠT rÃ¶
Ġver wei
ĠSch rau
ĠN icol
Ã¼ck end
her e
Ġent le
Ġam Ã¼s
geben s
Ġho ben
Ver w
Ġbrau n
hand lungen
ĠKat zen
Ġamerikan ischen
E d
Ġz ahll
Ġin einander
ĠB ad
ĠL en
ann es
Ġbe klagen
ra f
Ġgew ohnten
ĠAn schau
Ġdu mme
Ġbes pr
la st
ĠKr anz
aut ilus
J eder
R itter
ge z
rie fe
ru b
Er de
Ġbef ohlen
ĠBr ett
ĠBr etter
ĠTh Ã¼re
Ã© s
op el
hand elt
Ġei g
ĠWo hin
Ġmen schen
ĠPall as
an ische
un ke
ĠG od
ĠN Ã¤her
le un
bar men
Ġgef Ã¤llig
ĠSo u
Ġbew ahrt
ĠfÃ¼nf undzwanzig
mÃ¼t ze
ĠSchu ppen
ĠnÃ¶t hig
Ġkn ir
vo gt
ĠBeding ungen
Ġerleich tert
en te
Ġer wies
at ischen
Ã¶ te
Ġbe wiesen
ent schlossen
ster ben
ĠRe porter
bes itzer
bo ur
ĠwÃ¼rd igen
ĠAp oll
ĠSign al
ĠkÃ¶nig lichen
ĠunaufhÃ¶r lich
G eist
s voll
ĠF alk
am in
ĠZu versicht
ĠPro phe
trau t
ĠfrÃ¼her e
ĠDe c
ĠHoch zeits
ĠÃ¶ ffentlich
Ġfolgen de
ĠEdel mann
ĠsÃ¤m tliche
ĠFÃ¤u ste
Ãľ brigens
A nder
h igen
Ã ĸ
Ġk unst
ĠF ogg
Ġsch ott
Ġaus fÃ¼hr
Ġvier ten
Ġdeut scher
Ġgewalt sam
ĠHin sicht
ĠstÃ¤r k
Ġenerg isch
H Ã¶r
Ġk al
tr am
Ã¼hr ten
Ġbr icht
ho hen
ĠSchl ummer
ĠBeding ung
ĠBoule vard
H Ã¤u
el nde
ĠD Ã¤m
Ġauf gehÃ¶rt
ĠT ausende
Ġver scha
ĠI ll
ĠC amp
Ġ... ?Â«
Ã¶t ig
Ġerw orben
ĠUm gang
twort ung
nÃ¼ pft
drÃ¼ck lich
ĠNov ember
ĠLeichn am
g i
Ã¼ mer
Ġein same
Ġer raten
Ġge krÃ¤n
und fÃ¼nfzig
Ġst eil
Ġgew endet
og n
ĠĠĠĠ ĠĠ
Ġbet reffen
Ã¶pf te
fÃ¼ gte
Wahr heit
ĠHir ten
Ġunerwar tet
Ġwahnsinn ig
ĠMari anne
F rie
b ock
p ass
st reich
or ren
Ġaus halten
lei denschaft
ĠBl u
ĠPro je
Ġunbe fangen
ĠGro ll
Ġpr Ã¤
ĠBed auern
Ġch o
Ġgeist igen
Ġreg ungslos
ĠVers uche
beam ten
ĠGentlem an
a der
b Ã¼r
u ung
ge hn
ĠS ten
ĠG ri
ĠK och
ro u
ent s
Ġwei blichen
Ġlie ge
Ġricht iger
Ġsorg sam
ĠAnstren gungen
B ra
ei ert
Ġs itze
Ġa d
ĠP yr
Ġges ehn
reu ten
ute ten
ĠHel gestad
ĠDro sch
ĠAuff orderung
gÃ¼lt igkeit
Ġohn mÃ¤chtig
Ġor ient
b licher
k Ã¶mm
Ġs andte
Ġzu ver
der selben
ĠL ist
Ġun gemein
blick ten
ĠStr Ã¼m
ĠAb fahrt
ĠNach denken
Ġunver stÃ¤nd
wel chen
ĠWahr scheinlich
S agen
Ġn or
ĠSt arke
ger ing
ĠVor Ã¼ber
ĠVor aus
ĠMÃ¤n n
ried igen
Ġletzter en
erzÃ¤hl te
ĠBi bel
Ġschleu derte
J o
Ġs ann
ĠO br
ĠAr mut
Ġges ell
vor aus
Ġmal te
ĠInd essen
ĠSu per
ĠjÃ¼nger en
Ġschmutz igen
W en
f rey
ĠS eil
ĠSie ben
ster s
Ġges unden
Sch lieÃŁlich
ĠMar c
ust rie
kÃ¼ ste
Ġleb haften
ĠHen ker
ĠSol che
dre hen
ĠerwÃ¤ hnt
Ġleidenschaft lich
Ġemp Ã¶rt
lÃ¤nd ischen
F lÃ¼
a ktion
i ams
or y
ĠW ilden
Ġsich ern
Ġsch Ã¼chtern
Ġum gab
ĠO chsen
ell an
Ġe chte
ĠBes ten
Nach bar
Bei de
ĠgnÃ¤d ig
Ei sen
ĠBesonder es
W inter
ĠS og
et isch
Ġsch laf
ĠV as
schen de
ĠSp recher
Ġschl anken
spr achen
Ġdrei hundert
Ġbehand eln
Ġgeheimnis vollen
Ġfried lich
Ġmil itÃ¤r
ĠzÃ¼ ndete
f tes
k raut
Ġh Ã¤uf
ĠG Ã¤n
ĠB undes
Ġauf fallend
Ġun Ã¼ber
ĠJ ournal
Ġwei bliche
ĠC Ã¤sar
Sch loÃŁ
Ã¼hl te
Ġlau tes
Ġeinge fallen
ĠNeben zimmer
Ġgerei zt
iplo mat
e e
i ber
Ġk ahl
ĠT aten
le ÃŁ
Ġwei se
Ġab geschlossen
amm ern
Ġblei chen
Ġverst Ã¶rt
Ġuner trÃ¤glich
ĠStock werk
Lie bes
Ġglei ten
ĠWÃ¤l dern
P fl
o us
in chen
ĠSch uh
ĠSch nur
ĠSt Ã¼r
lo b
ĠSo nder
Ġersch ossen
ĠSchla fen
Ġsonder baren
Ġpol itischen
Hoff nung
ĠZige uner
ĠHeft igkeit
W esen
Ġaus gesetzt
ri ce
Ã¼t tet
Ġgen oÃŁ
gew andt
In sel
yr ton
Ġerre gen
M und
Ġg oÃŁ
Ġsch aden
rei bung
ĠSt asi
zen en
ĠVor liebe
Ġbin nen
gef angen
ĠStu fe
ĠGem Ã¤lde
por al
ĠOber sten
ĠZusammen hang
ĠbegrÃ¼ ÃŁen
Ġzweif ellos
ĠRome o
V oll
ĠA sche
ier er
ste uer
Ġtr auen
Ġp lat
ĠweiÃŁ em
Ã¼tz ung
ĠhÃ¼ ten
ĠGo uld
ĠhÃ¶hn isch
F rage
l Ã¤ufer
Ġbe deckten
Ġtr ieben
Ġunter drÃ¼cken
schein ungen
ĠKÃ¼ hn
Ġwicht igen
ĠhÃ¤ÃŁ lich
ĠHoll Ã¤nder
e be
ie bel
es ie
Ġge laufen
ĠL ong
Ġbe tete
ĠVor rat
ĠVor stellungen
ĠDu chezza
ech nung
orn sen
ĠGer Ã¼cht
Ġverg ingen
ĠZwei gen
Ġgeg rÃ¼
for der
Ġqu al
vo gel
Ġbegeister t
Ġmechan isch
ĠK ern
enn ig
ĠSt arr
ick sal
ff ic
ĠO ze
kl en
ĠBo te
gest Ã¼rzt
ĠMo jan
ĠÃ¶ de
Sp iel
Ġfal tete
ĠGet rÃ¤n
Ġbegrei fe
kir che
Å ĵ
Ġein her
Ġein iges
ĠB eiden
ĠK ro
ĠL Ã¼gen
ĠSch al
reu er
Ġbem Ã¤cht
ation s
Ġrau hen
ĠTrau r
ĠBis marck
wort h
Ġlangweil ig
Ġmitge teilt
b rei
l euten
at i
Ġk aufte
ĠB in
et he
Ġunter en
Ġre d
rÃ¤ bnis
ĠStr Ã¶m
ĠAus ruf
Ġvers ank
Ġbesch wer
Ġschau t
Ġdien st
H of
ĠM ess
ĠH urra
ĠF ach
Ġun glÃ¤ub
ĠV ar
eg er
Ġlei ten
dr Ã¤ngte
Ġho ffentlich
Ġtief em
ĠGen ie
ĠGlauben s
Ã¶ch in
ird ischen
Ġvortreff lich
Ġs itt
Ġz ar
ĠW ilde
Ġvor ging
ĠAr ist
orden tliche
Ġrei cht
ilder te
Ġgeschw oren
ĠJes u
k om
w Ã¤chter
Ġa s
ĠM and
ter en
ig arren
ĠAu str
ĠDas eins
ĠUnter richt
Ġseit wÃ¤rts
schie ben
will igen
kr anz
ĠÃĦ uÃŁ
ĠTo ur
Ġmei stens
ĠkrÃ¤ ftiger
Ġtanz te
B ank
R egen
m usik
w est
ĠW eshalb
Ġge Ã¤ndert
ĠE nd
ĠJ edes
Ġges eg
tel te
ĠzurÃ¼ck gelassen
ĠAus weg
An na
ĠFeder n
ĠpersÃ¶n lichen
ĠMitg lieder
ĠSorg falt
m on
u ckte
w orte
Ã¶ cke
ier ungs
anz er
Ã¤r r
ĠBe weise
Sch au
Ġbrau chten
ĠAbend essen
aur ant
ĠEd ith
Mann es
Ġko stete
ĠGeschw ister
ĠBesser es
ĠBesorg nis
D ame
L aÃŁt
k rei
n eigung
s ag
ar chen
Ġb ietet
ĠE mma
be ten
ĠZ iegen
lo mmen
Ġlie bst
ĠZeit ungs
Ġkrie gt
Gl as
ĠSchwar ze
Ġruss ische
b recher
c le
m achten
r iel
s inken
Ġn utz
as tes
or ff
ĠA pfel
ĠP au
Ġgew Ã¼nscht
ĠO ft
ru hen
ĠBr uch
fol gte
land es
if tet
Ġgelei stet
ĠnatÃ¼r liche
Ġdul den
b loÃŁ
o ul
on ischen
ĠD re
ĠF utter
sen den
Ġgro b
qu et
Ġirgend einem
ĠKn opf
Ġeinst weilen
Fr ank
Ġmerk wÃ¼rdigen
heil igen
ĠKer ze
ĠMah di
Ã¼rz ung
offiz ier
P l
k eln
er isch
st urm
ck end
Ġsch eiden
ĠC onn
ĠAch sel
zi al
ĠAben de
ĠMÃ¼n chen
Ġunwider steh
b itt
sch rieb
ĠC om
ĠC hauffeur
ĠIn n
ib ald
wur fs
ĠHerzog s
Ġries ige
Ġres pekt
ĠJas per
Ġeifers Ã¼chtig
' .
j on
ĠB Ã¶se
ra tete
Ġwo mÃ¶glich
ĠFl usses
Ġho hem
ĠSal ons
ĠStuhl e
vern Ã¼n
ĠFÃ¤ llen
P al
Ġm er
Ġer d
ĠR ahmen
ĠZ eich
Ġaus sprechen
Ġvor gekommen
ĠGe hÃ¶r
Ã¤hl en
rot te
Ġange wiesen
ĠDenn och
Ġheil ig
Ġfor dern
Ã¤ck er
Ġbra ve
ĠStre et
A ug
ĠM ist
ĠZ ittern
Ġunter hielt
schaft liche
vor sichtig
Ġvoll endet
ĠAnd eut
gesp ielt
ĠStand es
Ġur sprÃ¼n
f liegen
i phan
Ġd Ã¤
ĠE ck
ĠF at
ol ine
Ġbes ann
gesch afft
ĠRau bt
bau en
Ġsprich st
b Ã¤rt
Ġg Ã¼tig
ĠT ap
Ġver brachte
ĠP ont
ĠÂ» ...
Ġ1 3
ĠGest Ã¤ndnis
gra ph
ĠErsch einen
ĠEb ba
ĠverblÃ¼ fft
ĠGÃ¶tt in
D anke
a in
c i
en gte
Ġw ehm
ĠM Ã¤g
ĠB uche
is iert
ĠN eid
Ġst umpf
ah ls
fe cht
ĠHau st
Ġfurcht barer
ĠwÃ¼n scht
ĠHinter grunde
ĠPal men
Ġerhe bt
ĠJan uar
n oten
Ġver bl
ill t
richt igen
ĠBemerk ungen
ĠCou pe
ĠCib ula
L ange
p osten
s weise
Ġn ackt
Ġl ass
Ġauf gesch
be deuten
Ã¼t ige
sk y
lin ie
yl inder
ĠIr gend
geschlagen en
ĠGeschÃ¤ ften
Ġtrenn ten
K urz
d auer
k ost
r onen
er re
se ll
mal e
ĠAn sichten
St Ã¼ck
Ġgeworden en
ĠWagen s
Ġsech zehn
ĠWohl t
Ġpass ieren
Mad ame
? ...
M al
k aufen
r ein
x en
Ġge lehnt
Ġauf stehen
orden tlichen
dr Ã¤ngen
ĠDo z
verstÃ¤nd nis
Ġgelegen en
g Ã¤ngen
t z
ĠR Ã¼hrung
eu m
ĠN at
ĠZ ivil
ĠVer deck
ĠhÃ¶r bar
ĠTr acht
Ġverd opp
ĠÃ¶ sterreich
ĠMath ieu
Ġbenach barten
ĠG liedern
ĠW h
Ġsch lossen
Ġges ungen
ĠTÃ¼r ken
klÃ¤r t
Ġben utzte
Ġfrem der
Ġflo h
ĠHerzog in
lad imir
sog ut
Rei hen
ĠStÃ¤dt chen
a tes
b chen
er weise
Ġzu cken
ĠK und
Ġmit teilen
zu stand
Ġtr Ã¶stete
ĠC ab
Ġent be
Ġbel ust
for men
ĠFÃ¼hr ung
ĠRas kolnikow
ĠBall on
Wel che
ĠPassag iere
ĠBarbar a
D rauÃŁen
V om
g olden
Ġ egal
Ġb i
Ġer blicken
Ġg renzen
Ġun geh
Ġun bemerkt
ĠR ach
eu ert
ah a
Ġverl ange
Ġzw eitausend
ĠGef Ã¤hrt
geh Ã¶ren
Ġvern eigte
ĠHÃ¼ ften
Ã¤ck chen
weis ung
flo gen
ĠLehn stuhl
Pfer de
Ġtrot zig
ĠPara dies
d on
f uÃŁ
u ckt
ĠG ymn
ĠD rauÃŁen
and es
ĠL ena
ro ffen
ĠU fern
Ã¼t tern
gew innen
ĠApp etit
mitt age
Ġkrampf haft
k op
u ht
ĠS yl
ĠW urz
Ġge antwortet
ĠL y
ĠT reu
Ġan kam
ff el
Ġbes itze
hol m
Ġange tan
Ġged anken
Ġlust igen
ĠGal erie
ĠGemÃ¼t s
Ġko stet
ĠbefÃ¼r chten
b ra
k ennt
p unkte
Ã «
Ġk ahlen
ur r
Ã¼ber w
ĠAn tworten
Er zÃ¤hl
Ġlei chtes
omm ern
hau t
Ġverst rich
ĠJe de
Wei ter
brau nen
ĠGeh orsam
fuhr en
olog ie
ĠmiÃŁtrau isch
Ġstreich elte
W erk
f ache
w eder
ber Ã¼hm
ĠH erk
eu len
Er sch
Ġsp itzen
ĠGef Ã¼hls
ĠOr gan
m od
Ġer schlagen
ĠM ul
tr unken
ĠN ed
zu gleich
Ġob schon
Ġgeb ot
ĠHÃ¶ hlen
ĠMÃ¼ digkeit
Ġschm ie
du ard
Ġinteress ant
ĠWa ppen
ĠApp arat
Kir che
ĠJud ith
B uch
b ad
Ġz ers
ĠK in
ĠK ant
ĠSch lei
ro ber
ĠAu ft
eg ten
Ġbr annten
ian a
Ġsicher er
Ġbed ienen
ĠBrau en
unk elte
brau ch
ĠDeck el
k einer
Â °
er ischen
ĠG ib
ĠG Ã¤nge
Ġf e
ĠH yp
Ġge kl
ĠO kt
br icht
Ġger inger
dr Ã¼ckten
Ġschw Ã¶re
Ġwand ten
Ġklar e
Ġleb hafter
Mar ie
ĠHar bert
ĠPat ri
Ġkost baren
Ġvergangen en
Ġbeherr schte
Ġstock te
m eines
ĠG reg
Ã¼ber all
Ġha ÃŁte
ad ier
eid iger
ĠGut s
ĠHex e
ĠbegnÃ¼ gte
ĠCann ing
F o
k Ã¶pf
Ġer laubte
et hei
ob il
Ġerf aÃŁte
ĠTrau me
theil t
ĠJahrhundert s
ĠDep esche
n ett
te au
Ã¼ ten
ĠA ven
mm ed
ĠK Ã¤t
ĠK arren
Ġges unken
ĠBe hÃ¶r
ĠKa val
Ġaufs uchen
ĠTe x
best immt
ĠVerw alter
hier her
lech tes
Ã¤tz chen
ĠrÃ¼ck sichts
ĠHarm s
W or
Z ehn
Ġm Ã¼tter
Ġm uss
err en
Ġunter suchen
Ġab ges
ĠWir d
ĠErd boden
Ġwild es
Ġzweif eln
Fel sen
Ġbeunruh igt
ĠMot or
W ind
h Ã¼tte
sch eiben
Ġtr anken
od or
dr Ã¤nge
ĠAll an
Ġehr lichen
ĠSchrei b
ĠBrau ch
Ġverz ichten
stÃ¼r zte
ĠUni versitÃ¤t
ĠbetÃ¤u bt
ĠPeit sche
ampag ner
K or
S ollte
h us
er inner
Ġd onn
de utet
Ġha d
le hnen
Ġdu mmen
Ġersch recken
ĠNot wendigkeit
zÃ¼ nden
flÃ¼ gel
ĠSonntag s
Ġdick er
ĠS ak
sch wÃ¤r
ĠL ar
ĠL esen
ro sen
ĠSt ur
ger uch
Ġent ziehen
Ġkl irr
ha mmed
ĠKl agen
Ġged ient
ĠSchm ach
ĠGarten s
ĠMor al
ĠVerfol gung
k urz
ĠG ard
ĠN autilus
Ġbew under
Ġged Ã¤m
Ġerg ab
Ul rich
B est
k inder
Ġw achte
Ġh ag
Ġf eucht
ĠW ette
et a
et scher
ĠP est
ĠEr m
Ġbl inz
ĠEl emen
ĠCar lo
Ġversich ert
Ġblitz te
geheim nis
Ġdum pfen
l ament
r ien
er o
sch lage
ste ten
rie le
om ot
Ġimmer fort
ĠBe haupt
ĠGlÃ¼ck es
Ġverd rie
ĠSchiff er
Ġverst Ã¤r
ĠgrÃ¶ÃŁer er
Ġnot wend
ĠMed izin
ĠBure au
k leidet
ĠH Ã¼lfe
ĠB issen
Ġsich eren
ĠT iefen
ĠP ier
rei flich
ĠAuf nahme
Ã¶hn ung
ĠEigen tlich
ĠWill iam
Ã¶ste l
Ġgehor chte
J ugend
Ġf Ã¤r
ĠB uck
Ġl icht
ĠSch impf
be fehl
ĠN adel
Ġt ade
Ġgew eckt
ver ste
Ġwel t
Ġbeg aben
ĠSchl Ã¤ge
Ġgest oÃŁen
mittel t
ĠFle xan
Ġaufger issen
Ġbegeg neten
Ger ade
el ter
ĠH as
Ġge eignet
Ġbesch rieben
Ġbl asse
ĠQu alen
ĠHel ena
mar kt
ĠbegrÃ¼ ÃŁt
Ġklo pfen
Ġzahl reichen
Ġgeheimnis voll
Ġgeheimnis volle
Ġumarm te
ĠRasum off
A ha
v Ã¶gel
Ġd urften
Ġa benteuer
au schen
Ġent schied
ĠStr enge
ĠAl fred
bl em
ĠKap ital
ĠRÃ¶ te
stre ben
ĠBlÃ¼ te
ĠFrÃ¼h jahr
w ich
sch es
ra tes
ĠAn wesenden
Ġkl uge
Ġger ingen
sp rech
ĠWei bern
schl Ã¤gen
fl ur
ĠRu inen
ĠLau te
Ġgebe ugt
Ġet liche
Ġgelei tet
ĠSchwei zer
ĠBert a
) .
l Ã¤ngst
Ġdie jenigen
Ġer o
ĠW ell
Ġr affte
ot h
br achten
Sch war
Ġbeg n
ĠGesch windigkeit
ho fer
Ġange bracht
Ġeis erne
klei den
ĠErb schaft
Ġwechsel te
ĠBeob achtung
Ġgrimm ig
ĠTemper atur
F rieden
R om
b al
b rief
j edoch
an zug
ĠH age
ĠK lau
ĠT yr
Ġvon einander
is ses
ĠAn mut
ver ein
ru fe
ĠzurÃ¼ck geblieben
Ġber echt
Ġdr um
wand ten
sk raft
Ġunbe deuten
ĠKam p
Ġfro mm
eidig te
ĠJahres zeit
klo pfen
G ehen
m chen
Ġm ilde
Ġn Ã¤
Ġh ohl
ĠÃ¼ber legt
om en
Ġunter suchte
Ġste lle
blick end
ĠDo k
ĠLo ge
ĠSchn aps
Ġmoder nen
on ia
it or
Ġab genommen
gem einen
Ġse yn
fin ster
ĠÃĸ sterreich
ĠIde al
Schr itte
Jul ian
ĠLiter atur
b reiten
c ester
m ont
Ġs etze
sch ul
Ġge pl
Ġauf w
ĠT y
Ġver p
le chter
Ġst eilen
Ġt ust
sam es
Ġrei ste
ho ff
Ġwahr er
Wie so
Ġpr Ã¤chtig
ĠPeter sburg
Str aÃŁen
ek ul
Ġbill ig
Ġverlo bt
ĠGÃ¤rt ner
S u
d ampf
h um
i zen
ir s
ĠL ider
tr acht
Ġj eg
ĠAugen brauen
ĠVor zimmer
ĠhÃ¶r st
Ein mal
Ġrecht zeitig
Ġstr Ã¤u
ĠWer a
ĠWer den
B aum
n o
ĠSch aum
ĠP aket
ĠZ ahn
Ġbei des
Sch weigen
ander es
ĠNach forschungen
Ġnieder zu
op hen
Ġmag st
ip s
schu hen
ĠChin ese
ĠMath ilde
Ġerle digt
ĠZun eigung
Ġmitzut eilen
E uer
s orge
Ġein sch
Ġzu gehÃ¶rt
ĠB ildern
Ġver weil
ĠI hn
be herr
sam t
Ġgen Ã¶t
gesch oÃŁ
Ġgel acht
ĠWie ge
Ġschw amm
Ge fÃ¼hl
ĠGer ing
ĠSchr ittes
ĠMÃ¼ ndung
sb ur
gesp annt
ĠSchrecken s
ĠÃľ bel
ĠĠĠĠĠĠĠĠĠĠĠĠĠĠĠĠ ĠĠĠĠĠĠĠĠ
iÃ¨ re
Ġverur teilt
H Ã¶ren
p ert
Ġb arg
Ġges ellschaft
ĠSp Ã¤ter
Ġgleich gÃ¼lt
ĠDa her
Ġschw ache
Ġbesonder er
ĠPl Ã¤tze
ĠSÃ¼ nder
unser er
Ġschr ien
ĠÃ¼berw unden
schwar ze
ĠWester ly
B auern
a ffe
Ġw Ã¤chst
Ġan ziehen
ĠR ate
ĠSt o
Ġvor genommen
Ġar tig
Ge fangen
h Ã¤usern
or es
ĠSch Ã¼rze
Ġj auch
Ġbe eilte
ft ausend
ĠZ ir
Ġr eligi
ĠO s
Ġgef esselt
Ġgest attet
Ges prÃ¤ch
ĠnÃ¤her ten
ĠjÃ¼nger e
ĠSchur ken
ĠSib ylle
ĠClar isse
Ġ ,
er f
ich ert
on ik
Ã¶ tete
ĠK onsul
Ġauf halten
Ġauf geben
ĠSch irm
ĠÃ¼ber nehmen
ungen en
ĠAl ko
Ġschw ed
ĠPir aten
D arf
e z
h as
l etzte
Ġb ange
in or
sch rie
et tes
Ġwo hnten
nde ten
ĠSchw ein
teil ung
ĠÃĦ l
ĠWander er
ĠGenugt uung
u be
ĠA eu
Ġk napp
ĠL Ã¶ffel
ĠÃ¼ber trieben
ĠUn t
ĠVor hÃ¤nge
ĠSchl uck
umm t
ende ten
Zu erst
frei en
Ġerl angen
ĠZeug nis
k Ã¤me
Ġs al
st ieÃŁ
Ã¶ den
Ġf au
Ã¼r gen
âĢ ¯
eck ten
ĠKa hn
ĠEhr furcht
lot ilde
Ġaufger ichtet
ĠTrÃ¤ um
ĠFrank f
ĠStÃ¤d ten
Ġ- -
K amer
e w
ar ius
ĠW achs
ro te
ick ter
ĠBe hagen
ĠVor fall
ĠgrÃ¼ ÃŁen
opf er
ĠHar ald
ĠGal opp
ĠUe brigens
f rucht
l ar
es chen
Ġauf einander
Ġr itten
Ġhin reichen
ĠC al
Sch ritt
tw ald
ett a
hol ung
Au ge
gr imm
Ġrau h
ĠTor heit
bew uÃŁt
ĠKat astrophe
versch wand
schÃ¼ttel n
ge holt
Ġz ittern
em p
ĠL inden
ĠR od
ĠAn h
imm y
ell i
ĠGed icht
wir k
Ġverm ocht
ĠBeg a
ĠDi otima
Ġmel anchol
ĠWel ch
Dien er
p Ã©
v ett
Ġa hn
Ã¤ hmt
Ġzu gegen
ĠZ Ã¶gern
Ġum gekehrt
wei ÃŁe
Ġbel aden
ĠSpr ich
ĠGefÃ¼hl en
Ġfl achen
Ġgr inste
Ġvert eidigen
antin opel
C lau
ĠM y
ĠM esse
ste llten
rÃ¤ te
inn ern
hau ch
Ġhei ÃŁer
Ġse el
ĠMÃ¶ glich
ĠDorf es
ĠVerlo bung
Kar l
N u
j edes
ĠM eile
Ġunter richtet
ĠGel de
An gst
ĠHÃ¤u p
ĠglÃ¤n zten
ĠKan al
ĠMel odie
ĠInter essen
Fel d
betr achtete
ĠFack el
ĠKilo meter
n ein
en en
ĠA fra
ĠD ah
ag nie
eu en
ĠZ ul
ne un
ĠJ acht
onn te
Ġja mmer
Ġschwer es
klÃ¤r en
ĠWe h
Ġlust ige
ĠBemÃ¼ hungen
Ġklin gelte
Jeden falls
beu tel
ĠSchuhm eier
c an
h ase
it us
ĠH od
ĠD unkeln
Ġl at
ĠK reisen
Ġan gestellt
Ġun willig
ĠP os
he llen
ĠVer dienst
Ġab seits
Ġerf r
Ġantwor tet
Ġschle un
Ġfreund licher
ĠglÃ¤n zte
D amen
Ġ Ã¤ch
Ġg Ã¶n
ĠH Ã¶ren
Ġk nÃ¼
ĠW ilson
Ġge qu
Ġab sichtlich
Ġfr ischer
gew onnen
ĠZu stimmung
ĠBes atzung
Ġen ger
ĠMond es
schrei ber
schwer en
ĠSchÃ¼ sse
ĠSk andal
sech zig
ĠWicht igkeit
L ou
M erk
Ã »
Ġd el
ei hen
ie ÃŁe
Ġder artige
ĠC Ã©
ges prÃ¤ch
ĠAus bruch
Ġverst ohlen
ac o
ĠAnd acht
ĠTru pp
Ġausgest reckt
ĠPa gel
G rÃ¤
ie de
on ika
ter ie
Ġauf geh
ĠZ us
lei de
ĠGes tern
ĠBer ges
th eilen
Ġind ischen
ĠJa wohl
Ġ1 1
rist an
ĠSchwieger sohn
Ġschlie fen
ĠVi ktor
Ġheul te
ĠVen edig
K an
ĠW onne
ken s
rÃ¤ ume
Ġber ichtet
rat hen
ĠPl ane
neu e
wirt schaft
ĠgemÃ¼t lich
Ġabsol ut
M at
W ein
d arf
Ġm ild
st reckte
it Ã©
and o
Ġauf zunehmen
Ġbe zeichnet
Ġre chter
Sie hst
Ġbr ut
ĠHo tels
Ġbel eidigen
meister s
Ġpf eifen
ĠhÃ¼b scher
Fr itz
blei bt
Ġnot h
Ind essen
Pr inz
ĠVermut ung
Ġvermut lich
B en
B rÃ¼
M ond
Ġw agt
ĠG abe
ĠL ornsen
se y
Ġj ub
ft asche
ĠU hlig
ĠVer lassen
Ġkl a
Ã¤u se
fl asche
Ġbesch reiben
ĠOber l
ĠSpr uch
Ġrau s
Ġanges tr
Ã¼nkt lich
tro pfen
D ich
R Ã¼cken
k reu
Ġd onner
an bruch
Ġf Ã¼gen
ĠH atteras
ĠB etten
Ġsch Ã¤tzen
Ġdem nach
ĠR unde
Ġunter dessen
tw a
Ġber ufen
Ġschl ummer
zie mlich
ĠPfer des
Ġdre hen
ĠFlag ge
b leich
ĠE wald
ĠF etzen
ĠL eg
ann ehm
ick eln
urch dring
kommen den
fr Ã¤u
ĠÃ¶ff neten
ĠAlle e
Ġeinge troffen
Ġpro b
Ġdumpf e
Ġfla mmen
Ġeind ring
Ġveranl aÃŁt
mmerzien rat
D onner
K ampf
ĠK Ã¶chin
Ġver tragen
br and
Ġkl u
Ġerf unden
Ġlau te
gest orben
ren z
Ġzehn tausend
Am or
ĠFrem der
ĠOn nen
ĠLa ppen
Gew alt
mein te
ĠÃ¤hn liche
verschw unden
Ġein ig
ĠM ach
ĠSch lau
Ã¶r ter
ger s
Ã¼t zten
kl am
zÃ¤hl t
ses sel
ĠerzÃ¤hl e
utz ten
ĠSchu ft
Ġdro hen
ĠSchauspiel er
ĠWÃ¼n schen
ĠHelm stedt
k ins
p at
ge ber
st Ã¼tzung
Ã¶ scht
ĠH uld
Ġun ges
Ġent gangen
Ġerst icken
mer kt
ĠBr Ã¼cken
ĠerzÃ¤hl ten
Ent sch
ĠFe br
H ein
L es
u fer
w olke
Ã¤ fl
ÃŁ igen
ĠM ik
Ġver treten
Ġver fiel
ĠR um
ĠEr ben
Ã¼t tete
ĠVor gang
ĠSo us
Ġschw anken
ĠKa j
ĠGen au
umm ern
Ġerwar teten
aur er
Ġschrei be
Ġversich ern
Ġbehand elte
S a
U hr
m s
Ġw ith
ĠM usk
Ġbe y
Ġent kommen
Ġent blÃ¶
ĠStr Ã¶
ieren de
freund schaft
Ġverabschie dete
N ieder
Ġw echseln
ĠA hmet
ĠG aul
ĠB ata
Ġaus sieht
Sch wer
Ġe chten
ĠMar ches
ĠGer Ã¼
bin off
bur y
ĠKlein igkeit
ĠungewÃ¶hn lich
ĠJacqu es
B erg
l Ã¤nger
as so
ad rat
amm t
ĠTon i
ud i
hÃ¼ llte
Ġschwarz em
ĠKÃ¶n nen
yen burg
J ose
f rÃ¶
j elt
j agd
s ige
ei gef
st einen
ĠS l
it o
Ġge malt
Ġwar nen
pr essen
Ġlie fer
ĠJu wel
Ġwider stehen
Ġbeh ag
Ġerl itten
ĠbeschÃ¤ft igen
ĠDort h
gesp errt
b lieben
Ġd is
ein iger
sch eibe
ĠA yrton
ĠG anzen
Ġsch Ã¤nd
Ġan gegriffen
ĠZ it
ĠGes innung
Ġfr agten
ĠSp ieÃŁ
ĠSp eisen
kl einer
men de
ĠRei che
heim lich
ĠRo ug
Ġjem anden
ĠfÃ¼ llen
ĠWien er
ĠfÃ¼rchter lich
Pol izei
ĠDoll ars
Ġsogen annte
ĠBrig g
ĠJust iz
Lang sam
Ġstot terte
V erk
Z eichen
c ul
on ius
Ġst eiger
ĠJ acke
lieben s
ĠLe op
ĠKn oten
ĠBur bank
ĠdÃ¼n ne
geboren e
Ġrech nete
SchÃ¶n heit
ĠBalk on
l ampe
v ie
v Ã¤ter
Ġw achen
an at
Ġm ilder
ĠA hn
Ġge kr
ra ÃŁe
il ch
Ġkomm and
ĠKl ara
gn Ã¤d
schm ied
ĠSchÃ¼ ssel
dre hte
hÃ¤ng ig
Ġgeschn itten
sied ler
E twas
H abe
g locke
j ahre
ĠS eigneur
au be
mm ten
ĠR ingen
is ca
Ġdurch dringen
omm e
Ġle ge
ack er
Ge fahr
hand el
ĠÃ¶ den
ĠWider willen
ĠTem p
ĠAg gie
d eine
j ut
p a
Ġ Ã¤nderte
or nen
Ġg ha
Ġf ahl
ĠE ich
et tete
ĠSie ges
ĠVor gesetzten
zwei g
Ã¤ub chen
Ġbrei ter
ĠReisen de
Ġgeschm Ã¼ckt
Ġzweif elte
Ġsamm elte
ĠMitg lied
Ġplau dern
Ġharm los
ĠMet all
ĠGou verneur
Min uten
ĠVer anda
Ġdurch zu
Ġdu ften
Ġges orgt
Ġwill ig
Ġschl en
etter ten
vol ution
ĠReden s
ĠBegriff e
G ute
d Ã¼n
n Ã¤mlich
Ġh assen
am ten
ĠV eit
Ġbe wies
Ġwieder kommen
ed der
ast anien
gesch ichten
ĠGl Ã¤ub
ĠUm r
eid el
Ġwunder lich
ĠfÃ¼ llten
eig nete
gehÃ¶r te
ĠBeu tel
S oldaten
Ã¤ fte
ĠA hnen
ĠH ung
Ġk ol
ĠT oll
ĠDie sen
Ġbis weilen
Ġgest attete
fol g
Ġunbe kannte
sinn ige
achsen en
ĠÃ¤uÃŁ ern
such ung
ĠFa ir
Ġschne e
Mich ael
Ġverdamm t
H ei
ie ft
Ġn Ã¼chtern
sch ienen
Ġzu g
ĠW end
ĠSch Ã¶ne
Ġall m
Ġr aten
Ġre ckte
ĠWir bel
dig te
So mmer
Ġro hen
ĠFei nden
ĠErw Ã¤
ĠMode ll
M or
an walt
Ġf lie
ĠD Ã¼n
ĠO ri
ĠUn mÃ¶glich
auer ten
ĠUm gegend
ĠHa ken
man chmal
ĠGeist lichen
Ġinteress ierte
ĠSitz ung
H Ã¤tte
W illen
f ind
i ot
ĠG olf
ĠD iv
ĠR is
ĠfÃ¼r chtet
Ã¶t ter
Ġgem einen
ĠBet rÃ¼
bet h
erg us
ĠVerw undeten
Ġwicht iger
Ġpro test
ĠHan sen
ĠEntw icklung
ĠRechen schaft
ĠOkt ober
b orn
i ar
r Ã¼cke
at teten
ĠB lech
Ġr och
ĠVer sch
ĠO m
ĠAn nahme
ĠAuf sehen
ĠSo f
ĠlÃ¤ch er
ĠlÃ¤ ge
Kl aus
schwei gend
strÃ¶ m
gehÃ¶r igen
D inge
h uÃŁ
v in
st age
ĠK ass
ĠL arry
ĠR Ãª
ĠWir th
ĠBr enn
Ġbew ahrte
Ġklar er
ĠHeil ige
Ġbeh utsam
Bl umen
klei dete
ĠEll bogen
ĠPist olen
ĠStÃ¤ mme
Ġunbesch rei
ĠBut ler
ĠgefÃ¼r chtet
Ġm erkt
ĠG nÃ¤d
ĠH asen
tr ock
be vor
be wohner
ĠEr nte
Sch icksal
ĠSon ja
Ġrau schte
ĠWo od
ĠhÃ¶her e
ĠNa gel
ĠBetr achtungen
ĠHeiter ethei
ĠVerk auf
ĠPrÃ¼ fung
ĠEff i
ĠEntr Ã¼stung
F ahr
S onn
n isch
ĠS i
ĠK andid
ĠSch ale
ĠV est
ĠGe drÃ¤nge
Ġnie manden
Ġbef riedigen
Ġerwider t
frau en
gra fen
Pro fessor
Ġunsicht bar
Johann a
ĠNik ol
D on
H ab
r Ã©
Ġl Ã¼gen
Ġver lie
ĠSch eck
aus einander
ĠWas ch
gef Ã¼gt
ian o
Ġleben s
Ġerk enn
deut lich
Ġunab lÃ¤ssig
ĠSchlÃ¤ fen
k issen
o ser
ĠH eller
ĠP redigt
ges etzte
Ġbes eit
Ã¤u che
gew endet
ander er
egen heiten
ĠAl m
ĠPro p
ĠBrie fen
haupt mann
sol cher
ĠSeit dem
ĠprÃ¼ fte
asc al
ĠsÃ¤m tlich
ĠGeschick lichkeit
ĠArg wohn
ĠLok al
Ã¤sch chen
an Ã§
ĠT ief
ag ert
ĠSch eine
Ġaus geschlossen
ĠEin s
Ġgegen wÃ¤rtig
nehm er
ĠGewehr e
einz ige
ĠHum or
ĠOct ave
J u
ĠB alt
ĠL ene
Ġver zog
Ġan sehn
ĠSch iffen
be te
Ġlie st
Ã¤hl ten
ĠKr on
Ġfehl ten
ĠUnglÃ¼ck liche
bem erkte
Ġgehor sam
Ġschimmer te
pap ier
N ehmen
W ohnung
d icht
p hin
Ġ enden
ei ste
ĠB eicht
ĠB lock
Ġge fehlt
ĠT ob
ĠC z
leich terung
Ġgem essen
Ġgeb l
Ã¤um ten
we cken
ĠGeh eul
ĠRau me
ĠBest Ã¼rzung
Ġvertrau lich
Ġbrennen de
pfl anzen
wechsel nd
Ġschweig sam
ĠCoupe au
B ai
Ġi ndeÃŁ
ĠA kadem
ĠG il
ĠE tienne
Ġver lei
Ġan g
ĠR asch
ĠN imm
unter gang
ess ilian
Ġverd orben
iet te
unk ten
ĠVerw alt
Ġblo ÃŁe
ĠgnÃ¤d igen
ĠWill iams
ĠRes ult
ĠFÃ¤u sten
Trotz dem
ĠBegrÃ¼ ÃŁ
Aug ust
g ieb
Ã¤ le
ĠSch Ã¼tzen
ĠZ aun
Ġnach mittag
he bung
Ã¤t her
Ġher ank
ĠEin em
dr Ã¼cke
ĠEnt tÃ¤uschung
Ġverst orbenen
ĠSchm idt
ĠBetr achtung
Richt ig
ĠStrau ÃŁ
1 5
Ġ lichten
sch Ã¤tz
ĠR inge
wie g
Ġversch m
ĠMa il
schw e
Ġwunder bare
ĠDr agon
ĠItalien er
asc on
ĠMau rice
lÃ¤ch elte
ĠGre te
jelt ing
k Ã¤m
s wÃ¼rdigkeit
Ġn aÃŁ
Ã¤ b
Ġder er
ĠG iebel
ĠB itter
ĠW este
ann ter
Ġj ubel
Ġr iesen
Ġgew ahr
Ġkl etterte
Ġab gerissen
Ġeigen tÃ¼mlich
ĠTh eile
Ġeinige m
Ġverg rÃ¶
Ġempf ahl
for dern
Ã¼tter ung
ĠGei ge
Ġknurr te
f lat
f ieber
z zi
sch eine
sch arf
Ġzu wider
ĠD orn
ĠE cho
ĠK uchen
ĠL uther
ĠSie gel
chen d
ges essen
Ã¤d t
dr Ã¤ngten
So fort
Ġruh ten
ĠTages licht
Ġentsch uldigte
komm st
ĠFor st
ĠSchm etter
Ġdro henden
Mar k
Ka iser
Me er
ĠBÃ¶ ses
Ġbefehl en
ĠFebr uar
k Ã¶pfe
s ser
z ier
ĠS qu
Ġh m
Ġf ingen
Ġun erklÃ¤r
ul kan
Ġre gen
ist ische
th Ã¼m
ampf te
Wir d
Ġverb inden
ĠKir cht
Ġpr Ã¤chtige
ĠUr sel
mar k
ĠDar Ã¼ber
ĠLÃ¶ we
ĠGet Ã¶se
ĠFa hnen
Ġ3 0
s Ã¤tzen
Ã¤ lle
gen ten
Ġver achten
Ġbe kÃ¼
Ġaus gegangen
pf eife
ĠO eff
ĠBe handlung
Er n
ĠStr ei
ĠkÃ¼ mmert
Ġheut zutage
Ġwein end
ĠVerr at
ĠglÃ¼hen de
Wahr scheinlich
ĠPil ger
ĠEmp Ã¶rung
d chen
j emand
n itz
p ut
Ġn Ã¼tzen
it tet
he er
Ġab gef
Sie ben
os p
ĠSp oren
ow e
Ġfro mme
Ġbede ut
ĠMad onna
Ġ2 5
riet te
ĠeuropÃ¤ ischen
K Ã¶rper
L a
W il
Ġge drungen
Ġver bringen
Ġver sprechen
Ġun e
ĠSch orn
ĠSch eibe
Ġges enkt
Ġgl itzer
ĠUm arm
Auf merksamkeit
ĠDr achen
Ġehr liche
ĠGlas berg
ĠDon iphan
Ġeingesch lafen
ĠrÃ¶m ischen
On kel
ĠBay ern
ĠVersicher ung
bour ne
e p
j edem
Ġbe denklich
ver hei
Ġab warten
Ã¼t zer
ed y
Ġsp anischen
fe hls
ĠVor fahren
An n
ĠDr ang
ĠFest ung
aller dings
brÃ¼ der
ĠGeschlecht s
Char akter
ĠAth em
ĠBefrei ung
E ure
K Ã¶nnen
T eil
l Ã¤uf
t Ã¤glich
el ia
Ġk Ã¤men
ĠE ÃŁ
ĠE rober
Ġan mut
mit einander
nis mÃ¤ÃŁig
Ġrei zende
Ġblick t
ĠsÃ¼ dlichen
ĠUl rike
herz igen
ĠstrÃ¶m te
M ill
m u
n Ã¤
w uchs
Ġs ingt
Ġk or
Ġk ehrt
ĠD ache
ĠT her
Ġver fehl
ĠN ad
oll Ã¤nd
ĠSt illen
Ġr unde
Ġweit hin
ĠRo y
Ġwand ern
ĠHeil igt
liegen de
sog leich
Ġerfol gte
ĠAra ber
Klo ster
K om
T agen
W and
f al
p te
t u
el ang
Ġtr inkt
stand es
ĠAb neigung
Ġbl uten
ĠSchr anken
ĠCh ante
Ġlangsam en
Ġbed Ã¤chtig
Ã¼cht ige
unk le
schm uck
ĠLad ung
ĠEben so
ĠErfol ge
Ġaugen scheinlich
ĠGemÃ¼ se
E hr
F urcht
g ast
k ul
ein igen
un mÃ¶glich
ĠG ond
ĠW ul
Ġauszu fÃ¼hren
ĠEigen schaft
Augenblick e
Ġunn Ã¼tz
Ġwes ent
Eind ruck
ĠWurz eln
J im
S and
Ġ Q
an o
ĠG ir
ag u
Ġhatte st
le bend
Ġlie fern
ĠC omp
ank ten
sicht iger
sk a
Ã¶s ser
Ã¶pf ung
ĠKrie ges
yr in
Ġc on
Ġel enden
ĠLau be
Ġhell es
ĠsÃ¼ nd
Ġdre ht
ĠfrÃ¶h lichen
ĠVersuch ung
Ġhilf los
Ġanvertrau t
W orten
b us
st Ã¤r
ar akter
it ut
ĠL aÃŁt
Ġbe zeichnen
Ġp acken
Ġsel igen
ĠBe weg
art iges
Ġber ech
gew issen
Ġbesch leun
id a
eist ern
hand elte
Ġkurz es
ĠÃ¤uÃŁ erlich
ĠRÃ¼ck zug
ĠbÃ¶ ser
klei der
frem den
Ã¶ ffen
oll es
uch er
Ã¼n schte
wer ken
ke ten
In ter
ĠTr unk
Ġange ht
ĠGest ein
Ġverz ehrt
Ġsan fter
ĠgeÃ¶ff neten
ĠLat ernen
ĠHÃ¤nd ed
R es
Ġh Ã¤n
ĠG umm
ĠK el
re ll
ĠR Ã¼gen
Ġst Ã¶rte
Ġr ichteten
Ġher gestellt
ĠSchw eine
ĠGew Ã¤sser
Ġschw ierig
ĠBeg rÃ¤bnis
Ġlangsam er
Ġanders wo
off el
ĠDienst boten
Bar on
ĠVeran lassung
ĠNim is
ĠStrÃ¶m ung
F ast
b ut
b itten
f eier
Ġi k
ar be
au ne
Ġ.. ..
Er d
Ġspr Ã¼
spr uchs
bl er
Ġeinz eln
ĠTon y
ĠEur es
Ġabzu warten
Ġgemein samen
ite kt
ĠPo esie
ĠFig uren
Ġeleg anten
Ġschlepp te
Ġtaum elte
M ath
n atÃ¼r
Ģ âĶ
Ġh istor
at sch
Ġf euer
Ġge deckt
ĠT eich
ĠN emo
il f
Ġhin gegen
ĠO hm
br achen
Ġfort an
Ġgel ehrt
Ġschl Ã¤
ech ter
zurÃ¼ck zu
Ġqu Ã¤lte
such ten
ĠY ork
Ġtrocken en
ĠflÃ¼cht igen
Ġblitz ten
usk ri
ĠAnk lage
ĠGesp enster
Ġh inger
as k
un sche
Ġk Ã¼nstler
Ġsich ere
ĠL Ã¤ndern
ĠV Ã¶
Ġbe gehen
ĠFr Ã¶h
ass an
Ġro h
ĠLe o
Ġheim lichen
Ġniemand em
brau chen
ĠMond schein
Ġentr Ã¼stet
ĠpersÃ¶n liche
ĠTau ben
ĠLÃ¤ den
ĠÃ¤lte sten
Leiden schaft
g old
h eid
Ã¼ brigens
ĠS ur
ĠK Ã¶pfchen
ĠL ak
Ġaus gehen
ĠSt imm
Ġman chem
her auf
ĠBe zir
ist ern
ĠHo se
ĠKl ingel
Ġstr eiten
iv id
fr ig
Ġbetr achteten
ise lle
Ġentw ickelte
ĠKnie e
ĠRos se
ĠAut or
Ġverf lossen
Ġunerwar tete
ĠKerk huÃŁ
ĠApothe ker
j ord
k ru
Ġh inderte
ĠB und
ĠK unden
ĠK alk
Ġun gesch
ĠR aben
Ġt ote
heit s
ĠSe c
ĠNach druck
ass ans
ĠDien sten
Ġverg leichen
fiel d
Ġbek amen
Ġangenehm e
Komm t
ĠSchwei z
Ka mmer
K ur
st ro
at tel
Ġver haftet
ĠSch eitel
ĠN oten
Ġgew Ã¤hrt
Ġsp Ã¤r
Ġger inge
Sch u
Ġeinz ut
ĠTr inken
ĠHil fs
grÃ¼ n
ĠDro hung
ĠMosk au
eigef inger
D unkel
b auern
f ei
j o
as tet
Ġb and
sch ter
sch ickte
ĠA llen
ĠB lack
ĠC oll
Ã¤u sche
Ġsp ot
ik as
ic o
richt ungen
ud d
Ġoben drein
Ġkr anken
ĠFrÃ¼ her
dar um
ĠPoliz isten
ĠKor ps
Ho tel
ĠJahrh underte
ĠDrosch ke
ĠD et
ĠF ab
Ġauf geschlagen
ĠEr geb
Ġvor kam
pp chen
wer be
ĠStr af
Ġviel fach
Ġgem eldet
ĠBer tram
Ġange zÃ¼ndet
Ã¤ger in
ĠKampf es
ĠLeiden schaften
Famil ien
h abt
m uÃŁten
s ilber
Ġs u
es ung
ĠS amt
Ġer blickt
sch recken
Ġk rat
ĠF Ã¤hr
Ġent ging
Ġunter brechen
fe der
Ġrei zenden
ĠhÃ¶ ll
ĠMe x
Ġverd iente
Ġwand elte
Ġentsch lieÃŁen
ĠFrÃ¼ he
Ġhol e
ĠwÃ¼ ÃŁten
ĠMel itta
arbei tete
Ġentf liehen
ĠerwÃ¤ hnte
ĠRepu blik
f anten
m ochte
ein zel
Ġw ehren
ar ischen
Ġver gehen
ĠSch utze
se hung
ĠJ Ã¶r
Ġhin gehen
auf tr
Ġunter sch
ĠhÃ¤t tet
Ġeben sogut
hÃ¶r ten
Ġhalten d
Ġgek Ã¼ÃŁt
ĠNeu e
ĠJe anne
Ġstatt finden
ĠSelbst mord
Ġfinster e
Mr s
Ġentsetz lichen
Ġverbr annt
ĠKri minal
ĠAkt ien
y ker
st off
Ġf ri
Ġge drÃ¤ngt
ĠP rediger
Ġab geschnitten
Ġzum eist
ĠmÃ¼ den
Ġdich te
Ġgel ingt
ĠGr ant
ĠLei der
Ġkommen den
Ge org
ĠCh ampagner
Ġfl immer
ĠVerwand te
tÃ¼ mer
ĠDÃ¶r fer
ĠkÃ¼n ftigen
Ġentflo hen
Ġsitz end
e h
f indet
au nten
sch aut
ĠM ang
Ã¼r mt
Ġan t
ĠN o
Ġuns inn
ĠHand schuhe
Ġdr Ã¤ngen
Ġschl ang
St urm
Ġerste mal
ĠChrist oph
ĠZusammen treffen
ĠUrs ula
ĠRÃª nal
D am
N ord
a it
b ie
s em
s org
Ġd al
st o
st all
ĠS ing
ĠL eitung
Ġun fÃ¤hig
imm tes
lau der
ĠEin treten
Ġgut mÃ¼tig
Ġbef Ã¶r
Ġerh Ã¤lt
ĠSchul th
ĠNeu em
Ġunver sch
ĠChrist us
Ġwor Ã¼ber
ĠMittag essen
Hil fe
Ġdehn te
ĠTraur igkeit
ĢâĶ ĢâĶ
1 0
A mer
B ahn
f ell
au re
Â« ;
Ġl eugnen
ĠSch ade
Ġgew eint
Ġp u
Ġsp Ã¤hte
ĠSp inn
Ġerw achen
des halb
Ġro llten
ĠÃ¼ ben
fr isch
Ġempf ehl
Ġzie he
spiel er
ĠRÃ¼ck weg
Ġauszu sprechen
Ġerb aut
ĠLang sam
hÃ¤n genden
c ol
Ã ±
on y
Ġk eck
ĠD al
ĠB uchen
ĠW achen
ĠT Ã¶nen
lei b
Ġt Ã¤te
ĠVer gessen
Ġgeh eiÃŁen
ĠHand lungen
voll stÃ¤ndig
St ock
Ġbl Ã¤u
zei ge
ĠGeb iete
Ġbew ohnt
Ġirgend einer
recht s
Ġuner bitt
ĠWo her
ĠKomm t
ĠRie se
Ġzerst Ã¶ren
ĠWÃ¼r den
ĠTats achen
Ġfeier lichen
' !
S eid
V aters
g heit
g leiten
Ġs on
ĠB rad
ĠW elle
fen bein
Ġum w
Ġgew echselt
ief el
St irn
Ġben ahm
ĠKom pl
ĠgefÃ¤hr liche
ĠKas par
ĠwÃ¤l zte
T ri
d Ã¼
o tes
v aters
Ã¶ ÃŁ
ber uh
Ġso mit
Ġan stÃ¤ndig
se ele
mal igen
Ã¤t zte
ĠUn fall
reu te
ĠSo fort
Ġbl ank
ĠBrie ftasche
ĠNe hmen
ĠDiener in
ĠÃ¤uÃŁ ere
Wo zu
Ġru in
Ġbeh il
Or d
ĠErf indung
V o
W ochen
j Ã¶rn
ĠB ub
Ġun unterbrochen
ĠAn fall
sp ar
ĠGesch Ã¶pfe
Ã¶ff nung
ĠÃ¤uÃŁ er
pfl anzt
ĠVal entin
Ġelektr ischen
ĠFranzis ka
H als
K o
Ġn assen
Ġf am
ĠT Ã¤uschung
tr inken
Ġvor kommen
ĠGe halt
ĠHerr scher
ap fen
Ġdr unten
ĠBr uno
Ġblei b
klÃ¤r ungen
ĠMittel n
Gew issen
ĠdÃ¼ster e
Ġtanz ten
Ġbeherr schen
1 9
B on
E is
b itte
Ġzu sehen
Ġun gern
Ġj itz
Ġbe antworten
ĠZ elte
le bten
ĠO laf
eil ten
om it
Ġger echnet
Sch uld
qu is
Ġblei che
Ġerh ielten
Ġgenau e
ĠhÃ¶ch ster
ĠGener als
hei ÃŁt
Ġheiter en
ĠÃ¼berw inden
Ġniedr ig
ĠAbt eilung
plat ze
II I
ĠFlei ÃŁ
ĠBos heit
Ġentt Ã¤uscht
U e
k ragen
s los
Ġd auert
Ġs enk
st ark
em pel
Ġan nahm
tr Ã¤t
be kannten
Ġr Ã¼hm
fel de
durch aus
ĠHÃ¶ ch
Ġeinfach er
ron skiy
Ġarbei teten
ĠtÃ¶r icht
s d
st olz
Ġer qu
sch lecht
Ġau st
Ġg o
al isch
Ġver lief
ĠSch all
lo hen
Ġkl Ã¤glich
ze pt
ĠBe fÃ¼rcht
Ġgesch oben
ĠGr and
uld et
ĠEn g
Ġerk enne
opp el
ĠFeind es
ĠLis a
Erinner ung
Ġbesp rechen
ĠgekrÃ¤n kt
ĠAustr alien
ĠBehaupt ung
Ġbehil flich
n ischen
t ier
ie geln
ein igt
sch i
ĠB ah
ĠT rot
Ġnach mittags
ĠJ ur
br uder
ĠAr r
ĠAuf bruch
ĠSchw indel
Ġne hm
Ã¶ff nen
ĠPh otograph
ĠHeim kehr
beg rÃ¼
brau cht
ks and
ĠPrÃ¤siden ten
Ġerfol g
ĠVerein igten
ĠBir ken
* *
1 7
Z ou
z in
ĠD icke
ĠW ett
ĠSch immel
ĠV eilchen
Ġdar nach
Ã¤u ter
Ġgesch Ã¼tzt
ĠGel ehrte
ĠGr ase
ĠStu mm
Ġverm ied
ĠstÃ¼r mte
ĠKur s
ĠKon rad
Ġzahl reiche
sy ch
ĠzÃ¤r tlichen
ĠResiden z
t eils
st chen
Ġauf wÃ¤rts
Ġst immen
ver br
om ent
ha ck
Ã¤u des
ĠBo is
kann tlich
ĠAb hang
qu al
Ġversch loÃŁ
Ġverw enden
ĠPol en
Ġph ys
part out
ĠKost Ã¼m
Geheim nis
P art
S inn
d ein
Ġs onnen
ich ette
st Ã¤tten
ĠD Ã¤mmer
ir a
ben de
ĠF ichten
ĠT rieb
ĠSch eide
ĠUnter schrift
Ver gnÃ¼gen
uldig ungen
ĠHof es
ĠDurch laucht
Ġtau chten
hÃ¼ gel
ĠGleich gÃ¼ltigkeit
Ġheiter e
ĠÃĦr mel
ĠblÃ¼hen den
d o
f il
t her
ĠS ed
Ġg a
ĠM ole
am pfen
Ġvor ne
lo g
Ġr ast
Ġmein ten
ĠVer druÃŁ
ĠUn er
gesch ritten
qu ip
irgend wo
erzÃ¤hl t
ĠBlei stift
Ġgelo bt
Ġverbrei tet
lÃ¤ch elnd
Ġsieb zehn
Ġkopf schÃ¼ttelnd
ĠRoug on
H or
w Ã¼
st recken
au sch
Ġwie gte
ĠSch ill
chen k
ĠZ ehen
Ġwei gerte
br unnen
Ġgro ben
ĠVor trag
Ġspr ingt
legen en
ĠUnter gang
gest alten
Da zu
rist all
Ġklein ste
Ġ18 5
ĠRest aurant
ĠFro st
ĠHex en
ĠGab riel
Ġfunkel ten
ĠArz tes
Z un
k unde
ie hen
ein te
Ġw endet
ge wiesen
ĠS aÃŁ
ĠF aÃŁ
Ġsch rift
chen den
Ġges ammelt
ĠAus einanders
asse partout
ĠTr unken
ib al
ĠSpr Ã¼n
ĠKar ls
ĠBur sch
Ġru ht
ĠOb wohl
Ġtreu er
ĠStamm es
ĠverstÃ¤nd igen
Pap ier
ĠFack eln
ĠLaz are
W al
g yp
st rÃ¤
Ġer gehen
ĠH underte
il ie
ĠO ffic
ger aten
ĠC ow
ĠGel Ã¤nder
geb ot
zw ingen
ĠOr ts
ĠMo or
ĠMon ats
Ġei tel
ĠSonnen strahl
ĠberÃ¼hm t
Krie gs
d agegen
k nÃ¼
Ġw agten
ĠG aben
Ġge ahnt
ĠL etzter
Ã¼r n
kl ingen
Ġbeg ierig
ĠKor poral
Ġwe he
ĠÃ¤hn lichen
klei de
Ġverzweifel ten
Schne e
ĠElemen te
k Ã¶r
k osten
z ettel
on ien
Ġzu gebracht
it ann
ĠZ immern
Ġst ummen
ĠEin bildung
qu artier
reck end
sehen s
ĠWar nung
mÃ¼ de
ersch einen
ĠMel dung
Ġgeist lichen
fÃ¶r ster
Ġkost bare
ĠGeschen ke
en kel
ge drungen
Ġn enne
em el
Ġk ochen
ĠD iner
ĠD agegen
Ġun kl
Ġt ollen
ĠRe bellen
Ġverl iert
Ġverl Ã¤ÃŁt
ĠRei ches
ĠhÃ¶ f
land s
zweif elt
Ġblut ige
schÃ¼ttel te
ĠKanz lei
Ġder maÃŁen
ĠB ase
ĠP app
zu cht
ĠÃ¼ber fallen
her an
ant ische
th un
ĠKa te
Ġleben den
will st
Ġgeist ige
ĠDel hi
Tr Ã¤nen
Selbst verstÃ¤ndlich
Par is
beschÃ¤ft igt
ĠnÃ¶r dlichen
ĠKennt nisse
dun klen
ĠAeu ÃŁer
T a
Ġa rab
Ã¶ ÃŁte
Ġge ordnet
ĠF ur
Ġsch Ã¤men
Ġver laufen
ĠR el
eu se
Ġo pfern
Ġvor s
Ġt hr
pr ien
ĠEin wohner
Ġhier mit
ner in
ĠWei ÃŁe
ĠAuf klÃ¤rung
Ġdr Ã¼ber
bl Ã¼t
Ġbl anken
Ġverm ochten
Ġentw ickelt
iko sch
Deut schland
K u
f ing
Ġs enden
ur em
Ġl and
ĠSch ach
ĠP reise
Ġbe bte
ĠC ons
Ġdar ein
art h
ĠGew Ã¶lbe
opf te
uldig t
ĠÃ¤r gern
ĠRie men
ĠOt t
ĠVermÃ¶gen s
B em
W ild
x e
Ġb aum
sch laf
rei hen
Ġwir kt
ab te
ĠDie le
ald in
ĠSe ht
geben en
Ġbef unden
ĠWor tes
ĠWe ber
ged anken
Ġhol t
wend et
ĠBrau sen
ĠzurÃ¼ckge legt
ĠSer binoff
ĠMÃ¶n che
Ġberau bt
ĠSog ar
Ġlat ein
b ast
l euchtete
ĠA xt
Ã¶ bel
ĠE duard
Ġsch ossen
ĠT sch
ĠZ igarren
Ġim pon
Ã¤r z
Ġgesch leudert
ink ten
Ġuner mÃ¼
mÃ¼ sse
ĠSonn abend
Zwei fel
Ġph ilosoph
ĠKÃ¤ fig
Ġentsetz liche
ĠWander ung
ĠKab inett
ĠBesonder s
Ġgre ll
ĠStrÃ¼m pfe
R at
S onst
V erst
W affen
w Ã¤hr
un ehmen
ig by
ĠL av
ĠT it
ĠV e
is ion
ĠÃ¼ber sehen
zen tr
kt ionen
ri k
Ġro th
ĠFel ic
Ġverlassen en
stet ten
Ġerl euchtet
buch er
Ġstamm te
wÃ¼n schte
FrÃ¼ hl
ĠbetrÃ¼ bt
Ġfeind lichen
ĠeigentÃ¼m lichen
ĠAuft reten
f ange
m auern
ie ster
an che
ĠB ai
Ġge denken
Ġsch ildern
ver mÃ¶gen
rie be
ĠDie bst
sel t
Ġab gesch
wir ken
na he
zogen en
Ġgek reu
Ġherr scht
ĠEngl Ã¤ndern
Ã¤s ern
ĠBon es
Schul ter
ĠhÃ¶lz ernen
ĠDra ht
B erl
o fen
t halb
st isch
Ġk alter
ĠE hem
Ġges prungen
ĠSp eck
Ġgef eiert
ĠFre ud
halten d
Ġwahr es
th um
Ġstr afen
Un sinn
Ġverw egen
ĠTages anbruch
ĠSter benden
ĠHÃ¼ te
ĠbÃ¶ ses
flÃ¼ sterte
Ġsonder lich
ĠSamm lung
ĠDoz ana
B litz
K lein
g ien
m Ã¼hle
r is
ĠD Ã¤cher
ĠI t
ĠP ie
ĠSt Ã¶hnen
ĠC onst
Ġhier zu
Ġste h
itz ig
Ġzusammen ge
Ġblei bst
pfer d
Ġunver wandt
Ġwunder baren
Ã¼ch ern
ĠJohn son
gewÃ¶hn lichen
sl ust
blau e
Pf arr
pfl anz
Ġzier lich
ĠHerk unft
Ã¤ ÃŁen
sch lich
ĠK ater
Ġj Ã¤hr
Ġvor gefallen
Ġunter einander
ĠHand schrift
ald em
sp e
gef Ã¼
Ġversch wiegen
Ġverg raben
ĠBei chte
umm ten
Ġgelang ten
ĠSand oz
ĠTra b
ĠErfahr ungen
Ġord nete
Ġbewaff net
Zou f
F inger
er bt
Ġzu kÃ¼n
ĠM ute
ĠK Ã¼nst
Ġan gehÃ¶rt
tr u
Ġwo fÃ¼r
ĠVer haft
la w
Ġre deten
Ġgleich mÃ¤ÃŁig
ĠWir k
ĠFreund lichkeit
ches ter
Ġro ter
Ġehr licher
Ġstatt gefunden
Ġzitter nder
Ġabge brochen
ĠCar ter
ĠWinter s
Freund schaft
erklÃ¤r te
Ġbegrei flich
Unser e
ĠDur oy
ĠschrÃ¤ g
H atte
s seln
w ann
ĠS ul
Ġk ehren
ĠF und
ĠF ak
ĠF rist
ĠF esseln
ĠT um
ĠT opf
Ġver nehm
rÃ¤ um
opf ert
Ġverste cken
ĠY vett
ĠWillen s
Ġengl ischer
ĠBel ieben
ĠGleich gewicht
Ġvertrau te
ĠAnfang s
Ġarbei tet
Ġbescheiden en
Ġstein ernen
ĠSult an
Ġd auernd
Ã¤ llen
ĠJ erg
ĠzurÃ¼ck gekommen
arr iere
rÃ¶ te
Ġbrau ste
ow en
ĠÃľber all
inner k
twort lich
Ġverh ielt
Ġzer trÃ¼
Ġentsch lÃ¼
Mein ung
unk ul
dien ste
Ġdunkl es
geschlossen en
ĠChin a
Wahr haftig
ĠfÃ¼rchter lichen
ĠVeran twortung
Ġtele graph
Ġangst voll
ĠhartnÃ¤ck ig
vÃ¶ llig
1 2
K ol
f abrik
h Ã¤ngt
ĠS uchen
ĠA mal
Ġsie he
Ġda gewesen
Ġso zi
mmer ten
Ġsei den
Ġgef or
mut zig
Ã¼b de
ĠRitter s
Ġinteress ieren
Ġverwand t
ĠUnbe kannte
ĠGab riele
Ġbedro ht
ĠschlÃ¼ pfte
Hen ry
ĠAnh Ã¤nger
d adurch
h aglich
i ften
ĠH ing
ĠH olk
ĠD ap
ĠE un
Ġsch reiten
Ġmit tels
Ġdem Ã¼tig
ĠI da
ĠP latt
eu s
ent iment
ĠVer h
ver ab
Ġlei b
Ġrei ÃŁt
ĠLand sleute
ĠUnter stÃ¼tzung
Ġtief ste
ĠHÃ¶ llen
ĠKr ank
len ken
Ġverh Ã¤ngnis
Ġerk ennt
Ġrau nte
Ġbeste llen
Ġc o
ita in
ĠMÃ¼n ch
besonder e
Ġwander ten
Ġird ischen
ĠProje ct
E hren
V err
b uche
f este
k Ã¤mpfen
t ze
Ġk euchen
ĠD eich
Ġun heil
rei ches
Ġunter gebracht
Ġbes iegt
bes itz
ler in
Ġbel Ã¤st
Ġeinf Ã¤lt
Ġerste s
ĠRaum es
ĠJÃ¼ngl ings
ĠglÃ¼hen d
Ġscheu en
ĠFern rohr
ĠSchwier igkeit
ĠAlex ander
ĠSy stem
Ġangeb oten
ĠVert eidigung
K rÃ¤
M usik
un en
be geg
ĠN i
Ġbe glÃ¼ck
ĠVer gnÃ¼
ĠO ben
Ġbes aÃŁen
ĠRe ktor
ĠLu di
ow n
ĠLe bt
ĠEx empl
of ft
ĠdÃ¼n kt
Ġschlie ÃŁt
ĠÃĸff nung
ĠDonn erst
c on
r one
st ich
Ġf ahr
ĠW elten
Ġge die
ĠF liegen
ĠC lotilde
Ġvier te
ĠLe hm
ĠGeist liche
ĠDienst mÃ¤dchen
ĠKrÃ¤ mer
quem lichkeit
Ġ18 6
ĠBetr acht
F all
K reuz
L euten
S ech
w ing
Ġz au
ĠP ed
be haup
ĠN ich
zu cken
anz a
Ġwer th
Ã¤nd ige
ĠUn ordnung
Sch recken
ĠWei de
fÃ¼hr ten
Ġoffen em
Ġgr und
ĠTrÃ¤ ne
ĠdÃ¼n kte
ĠtÃ¼cht igen
Ġungest Ã¶rt
Zur Ã¼ck
ĠHug o
ĠBern hard
ĠklÃ¼ ger
ĠProphe ten
D ampf
P rÃ¤
T or
l Ã¤uft
r um
s Ã¼chtig
Ġw undert
ĠS Ã¤tze
Ġh ager
Ġer t
el a
Ġda stand
Ġaus gew
rie gt
sel iger
Ġsel b
ĠKo hl
unden en
ĠZu frieden
fl Ã¤chen
ĠLei cester
Ġget reu
ĠQu ellen
Ġzehn mal
fahr ten
ĠCo usine
Vier tel
Ġhern ach
Ġgei rrt
Ġgerau bt
ĠschÃ¤r fer
S ilber
l ig
Ġn ackte
Ġer werben
ĠM echan
Ġl ist
Ġl enken
Ġsch ick
ĠT ot
Ġver besser
Ġan kommen
ĠR umpf
is sa
ick end
ĠVer treter
her zog
ver schl
br ig
Ġgeh offt
bei tern
Ġgef l
eich elt
Ġzer schlagen
Ġbeste llte
eig ungen
ĠWerk zeug
brau chte
Her zog
ĠLa ird
Ġbra ver
ĠverstÃ¤nd lich
ĠLange weile
ĠGod frey
Reihen fels
E hre
Ã¶ stet
ber ts
ber echt
ĠG Ã¶n
ĠH uf
ĠW es
Ġge liebte
ig k
Ġihr erseits
ĠZ ungen
ĠSt Ã¼cken
Ġr Ã¼st
Ġges etz
hal m
gesch aut
ĠAus sage
ĠDa mm
ĠSchw ung
ĠFel dern
ic a
Ġleben digen
ĠÃ¤uÃŁ erste
ĠMond licht
trÃ¼ pp
rÃ¤t in
ĠGall ia
ymb ol
ĠVictor ia
ĠKÃ¼hn heit
F alk
L ady
T oten
z ige
ein fl
ĠS or
ĠD at
al ph
Ġl ocken
ĠF ri
Ġso dann
Ġauf hÃ¶ren
ĠSch le
eu ter
ĠZ ahlen
ĠÃ¼ber ein
pf eifer
aus gest
Ġwieder zu
lau bten
ĠUn ten
ank end
ob wohl
schl ugen
Ġdr Ã¼ckt
Ġrei se
Ġbef angen
Ġbef indlichen
ĠSaal es
ĠÃĦr zte
Ġsilber ne
ĠGere de
ĠHÃ¶r er
ĠErw achen
F ragen
b ischof
g Ã¤ste
n ungslos
s ur
ĠS Ã¤tzen
ÃŁ ler
Ġb oten
un te
ĠW enigstens
ir rt
ĠSch ieÃŁ
ĠEr g
ĠEr barmen
ĠÃ¼ber gab
rau cht
ĠBe f
ĠDu ell
Ã¶ff neten
ĠStu art
Ġverg ol
ĠkÃ¼ hne
ĠDiener schaft
Ġstarr ten
ĠBesch reibung
Ġgewalt iger
seit igen
Ġtausend mal
Ġbedeuten de
Ġplau derte
ĠWim pern
1 4
T ier
r et
ĠM Ã©
Ġsch t
ĠN uÃŁ
Ġp urpur
lau ter
ges ell
Ġdrei zehn
Ġged ruck
ĠWe hm
Ġrau he
ĠSchu ster
red it
bau ten
ĠGefangen schaft
Ġbege hrte
ĠLehn ert
Hein rich
F eind
P ri
b uck
f esten
r unde
w Ã¤nden
Ġm utig
Ġh asse
as sa
on i
on el
Ġauf get
anz igtausend
Ġr iet
err y
ill y
ĠVer hÃ¶r
ĠVer handlung
br eit
ob gleich
ĠSp yker
ĠVor satz
Ġschw Ã¶ren
urm el
Ã¤ÃŁ chen
Ġerg ing
Ġerg Ã¶t
ĠKÃ¼ ssen
Ġaufge halten
ĠMittel punkt
ĠBel ohnung
Ã¤rt yr
ĠLes lie
Ġhoff nungs
ĠVerschw inden
Ġzeich nete
Ġmus ste
We ge
G et
O ffen
S ag
k elte
es tem
Ã¼ ben
ĠW iel
den s
ĠF ergus
hm te
be kannte
Ġp Ã¼nktlich
ĠwÃ¤ hlte
Ġfort zu
ĠGel des
ĠBl itze
Ġverb and
bo te
Ġanzu fangen
ĠGast hof
Ġpol itische
ĠNieder lage
Ã¶ck chen
ĠGeburt stag
ĠZerst reu
Tod es
H abt
a il
z Ã¤
z itter
Ġd eckte
Ã¼ brigen
Ġk Ã¼hle
ĠL enz
tr enn
is tel
ĠBe vor
Ġgesch eiter
ĠPf iff
Ġzw eck
ĠDa von
sicht ige
Ġbew ohnte
Ġbesonder es
iss im
ĠNobody s
Zu kunft
Ġfor schte
ĠMeister s
Ġbek lommen
ĠBest immung
ĠSat an
ĠSpei ses
Ġeig ne
ĠSyl v
B urg
U fer
e en
m eisten
t anen
w achen
w Ã¶hn
Ġf liegt
Ġl oder
Ġwie wohl
ĠP av
Ġaus ges
Ġum kla
angen ehmen
Ġbes sern
ĠBe ge
kl agt
Ġgesch afft
art iger
ĠGl etscher
ett s
ĠZu ges
Ġverw orren
ĠÃ¶ff net
hundert tausend
ĠKn all
stra ÃŁen
Ġlieb lich
flÃ¼ cht
Re de
Ġkrie ger
ĠKauf leute
Ġsinn end
Eigen tlich
T ante
b ord
x is
Ã ®
Ġzu stimmen
Ġg Ã¶nnen
ĠG elt
ĠM aus
ĠL einen
Ã¼r zen
ĠR oll
ste ckte
Ġwieder zusehen
ast le
geben heit
ĠÃ ©
Ġvier eck
offen bar
eig nen
Ġfl ach
Ã¼tter t
ĠNachbar in
Ġstol zer
Ġehem als
ĠNation al
R ichtung
r agte
z ung
ĠH ad
ĠB an
ĠE h
ĠK isten
be er
Ã¶r leÃŁ
Ġverg iÃŁt
Ã¤h igkeiten
ĠEngl isch
ĠEd in
ikan ischen
ĠPart eien
schiff e
Ġstud ieren
Ġunterst Ã¼tzt
ĠJes us
Ġunglaub lich
i form
t te
Ġer kannten
sch Ã¼tzen
Ġg rat
Ġsch Ã¶pfen
Ġauf stand
ĠR em
ĠAn s
br unst
ĠDie twald
ha hn
ĠStr ich
bes sern
ss igen
Ġirgend einen
ĠDe z
ĠSchla mm
ĠTe xt
Ġbek ennen
gefÃ¤hr ten
ĠDies mal
ffentlich keit
brÃ¼ ll
ĠgÃ¼nst igen
Ġbeherr scht
ĠWern euchen
b inden
r ige
y y
ie llen
Ã¤ gern
ĠB reiten
ĠW unsche
Ġge jagt
ier in
Ġbe komme
ĠZ eigefinger
Ġaus drÃ¼cken
Ġst ach
ĠÃ¼ber schw
ges elle
ĠEin sicht
ed i
gef ahr
Ã¤ng lichen
ĠPar lament
ĠEl ement
Ġsuchen d
ĠWeil chen
Ġunsicht baren
ĠstÃ¼rm isch
ĠvÃ¤ter lichen
ĠMuse um
ĠergÃ¤n zte
1 3
T aschen
d liche
ĠK asse
ĠT ieren
ĠSie hst
Ġaus gel
ĠEr ste
wei ch
err ten
pr engt
ĠC av
ges ang
la y
Ġrei f
ĠBer uh
Ġnieder geschlagen
ĠTr ank
ĠMo hammed
ĠPap st
eich el
Ġverloren en
Ġausge de
ĠLa ster
ĠbestÃ¤t igt
Ġeleg ante
ĠTar ascon
ĠvermÃ¶ gen
ĠÃ¼berflÃ¼ ssig
ĠOze an
b und
in ie
em at
Ġge le
ĠL em
und sechzig
ĠSch jelting
ĠR Ã¤umen
ĠAu ges
Ġr unzelte
!Â« ,
fall enden
Ġe chter
bl Ã¼tig
zwei ten
ib i
Ġkr achte
Ġben ommen
yl fe
Al ten
ĠGren z
Frei heit
schwei fen
Ġwort los
ĠDau men
D i
F in
N imm
a ien
Ġver Ã¤nder
ĠSch aren
Ã¤n nern
Ġdurch bo
ru ss
Ã¤u schte
ĠSp ilett
Ġgesch l
ĠStr Ã¤fl
Ġgel Ã¤hmt
ĠAl ice
fol genden
ĠGlÃ¼ck e
ĠSpr ach
ĠTro mmel
Ġqu e
Ġaufge fallen
zÃ¼ ndete
essel te
Ġerre gten
ĠStand punkt
Dar Ã¼ber
ĠDick icht
ĠÃ¼bern ommen
ĠZwer g
owen iger
Ġk onst
Ġauf gest
Ġver der
ĠR eim
ier n
ier igen
ĠEr leichterung
ĠPf affen
Ġerst arrt
ĠFl uten
ph et
ĠnÃ¤ch ster
mÃ¼t iger
ĠOffizier s
olog ischen
fÃ¶rm igen
Ġhau chte
ge kr
st ud
ar ken
Ġunter drÃ¼ckte
ĠEin fach
ug ger
Ġsp Ã¤ten
sp ann
geb ildet
kann st
Ġerw ecken
ub s
ĠPap ieren
weil t
Ġmerk e
Ġverwand elte
ĠfÃ¼rchter liche
ĠAngel ika
ĠprÃ¼fen d
Ġverurs achte
ĠChaus see
J Ã¼n
m ent
t reu
en g
Ġw Ã¼t
Ã¼ mmel
Ġein sehen
ĠH unden
ĠF ett
ĠL er
Ġan bet
ĠSt ad
Ġst aunte
ĠGes indel
Ã¤u erin
ĠVor gÃ¤nge
ĠPf Ã¶rt
ĠMan uskri
ĠSchl uchten
wand ern
ĠBar m
ĠDir e
ĠSinn es
Ged anke
Spr ich
Ġord nen
Ġfeur igen
entfern t
ĠPont us
ĠGond el
G ru
st ige
Ġh Ã¤r
Ġz eu
in spektor
Ġge lau
ĠF arm
Ġun zufrieden
Ġbe kÃ¼mmert
ĠSt ange
ra hmen
leich te
ĠSchw Ã¤rmer
ĠRo de
ĠKr onen
Ar beiter
ĠReg ierungs
Ġgeste he
ĠDi wan
Ġnachzu denken
Ġirr te
ĠNab ob
ĠBlo nd
ĠermÃ¼ det
Ġwuch sen
g y
nd l
ll ter
sch merz
ĠW uth
ĠK iel
is c
Ġaus fÃ¼hren
Ġher zu
ĠAn fÃ¼hrer
ĠC ost
auf gang
Ġent hÃ¤lt
Ġges penst
schen ken
Sch utz
alt ar
ss igkeit
Ġschle ppen
Ar men
bew ahrt
undzwanzig stes
ĠAnder es
versch lossen
ĠzÃ¤hl t
ilos ophen
ĠverkÃ¼ ndete
ĠkÃ¶st lich
Ġrat los
S er
g eister
y e
or glich
ĠH elle
ĠK au
ĠSch arf
ĠÃ¼ber morgen
ĠAn zeichen
gel ben
Ġkl ass
wand lung
Ġen dete
ĠMe hl
Ġverm utete
wÃ¤r en
ĠLi se
ĠBank noten
schuld ige
Ġober sten
ĠCol onisten
ĠBann er
Ġw ind
Ġh inder
ĠM Ã¤d
ĠB ienen
ĠW ehr
ĠK Ã¶l
Ġbe an
Ġvor der
Ġum r
Ġst o
Ġst utzte
Ġt astete
ĠVer trag
Sch rift
Ġlang te
Ġversch n
Ġverd Ã¤chtig
ĠTod ten
viel mehr
Be fehl
ĠWind es
ersch ienen
Ġstren ger
Ġzerr iÃŁ
ĠtÃ¼cht iger
Ġchrist lichen
geord neten
Hal b
D orf
H Ã¶re
r r
u es
u tr
st urz
sch ale
ĠZ ier
pr acht
wir kung
auer nden
ĠGer da
Vor wÃ¤rts
Ġheim liche
Ġengl isch
ĠGar der
ĠEv angel
Ġnah te
Ġerkund igen
ĠZurÃ¼ck haltung
ĠLaz ar
Ġunbew uÃŁt
Ġdonn erte
W Ã¤re
k al
m Ã¶rder
p acken
Ġm ahnte
ĠB jÃ¶rn
Ġge endet
Ġl ehren
ste ts
Ġt ags
all enden
Ġander thalb
Ã¤u bern
schl eu
ĠGel egenheiten
Ġerw achsen
bl aÃŁ
ĠBr ut
sk ar
ĠWerk statt
ĠSchn itt
ĠTier es
Ġblo nd
Ġras end
Dar um
Ġunangenehm e
ĠHindern isse
ĠDun can
ĠLeucht turm
ĠZufrieden heit
G o
T e
s ank
Ġs etz
an tes
Ġh ollÃ¤nd
Ġein laden
Ġer richtet
Ġf eines
Ġf lieÃŁen
ĠSch enk
ĠZ iegel
Ġum b
ĠVer ab
ĠAn trag
ĠSp ar
Ġste hlen
Ġgegen wÃ¤rtigen
ord nungen
ĠSte ch
Ġro tes
Ġsonst igen
Ġstehen de
ĠMon tag
ĠBeg ierde
ĠPr isca
Ġbed auern
mÃ¤ÃŁ iger
Ġqu Ã¤len
hem d
kla pp
Ġgr insen
res po
Ã¶ch tern
ĠImmer hin
zweifel haft
Dies mal
ĠRen ate
dest oweniger
Engl Ã¤nder
ĠÃ¤lte ste
Ġunverm eid
ĠLom bach
annehm lichkeiten
l ach
s ver
u fl
Ġw ehen
Ġn ume
ĠD arf
Ġo ff
lei tete
Ġnach lÃ¤ssig
ĠAn walt
eil er
Ã¤hl te
ĠGl ase
ost rom
ĠPl assans
ĠDar an
ĠBrÃ¼ dern
Ġend losen
ĠHu bert
wÃ¼n sche
ĠMarsch all
dÃ¼r fen
Krie g
farben en
jeden falls
D ick
w ed
Ã¼ d
Ġn atur
Ġer setzen
Ġg ast
Ġf euchte
ĠW itterung
ĠK amm
Ġver trauen
Ġr einer
ĠO p
ĠKo mmerzienrat
ĠGr imm
asch inen
ĠTon nen
will ige
ĠEx c
ĠKon zert
schrei en
ĠAut om
ĠwÃ¼rd ige
ĠRot h
strÃ¶ mte
Ne e
ĠAlb recht
Ġscher zte
prÃ¤ sent
Ġitalien ischen
Ġchines ischen
D or
G nÃ¤d
d rÃ¼ben
Ġw ehr
ar ne
Ġer bl
ĠM is
ĠW ipfel
ĠE uern
ĠF ang
Ġsch lage
Ġaus zur
ĠEr scheinungen
Ã¶n t
ab l
Ġunter schied
dem selben
ĠÃĦ gyp
ĠflÃ¼ chten
ĠstÃ¼r zt
ĠFlÃ¼ geln
ĠKlei de
Ġseuf zend
Ã¤hn lich
ersp itzen
ĠSchilder ung
ĠMusk eln
B ah
H Ã¼
W etter
h lich
v re
Ġs orgte
Ġund eutlich
Ã¶ ver
Ġver sie
Ġun gen
ier tes
Ġst a
ert h
os sal
Ġlei tete
voll stÃ¤nd
ĠRu ine
ungs mittel
ĠGeb ot
Ġoft mals
Herr gott
Ġbel euchtete
kÃ¶n nten
Unter haltung
fangen heit
ĠKlo pfen
schr itte
F la
m aschine
p reis
w ach
z elt
Ġund urchdring
Ġf ett
ĠT ristan
Ġj Ã¤mmer
ĠAuf seher
sie b
ĠMar ien
wieder holte
Ġwiederhol ten
Ġehr erbiet
ersch rocken
ĠhÃ¤lt st
ĠTru ppe
dam er
vel and
ĠHindern is
h ingen
n el
t ot
ge drÃ¼ckt
ĠS elt
ĠS ara
Ġb ang
ĠH assan
Ġsch auer
Ġr Ã¼ttel
um pe
Ã¤r gert
Ġtr unken
ver sich
ĠEin bild
ĠKo g
Ġgesch ieden
ĠRe al
Ġje her
Ġschl immen
unge he
Ã¤ng ern
ĠSpr achen
besch eiden
ĠBel ager
Ġsehn te
ĠJose pha
Nie mals
ĠDonner wetter
Ġhu schte
fÃ¤ll igen
ĠAlko hol
Ġschleun igst
k sey
s Ã¤ule
Ġa ÃŁen
ĠS ande
Ġh immel
in st
Ġg ierig
ĠB atter
âĢ ĺ
Ġvor gestern
lei dig
Ġhier Ã¼ber
hin weg
ĠVor zug
Ġdr itter
Ġdr Ã¼ckten
ĠÃ¼ blichen
Ġneben bei
mÃ¶ glichen
viel en
ĠBrief es
Ġbed ient
ath an
iss ion
pfer keit
ĠDen ise
olle ge
Ġ2 4
heil ung
ĠVo gt
ĠerfÃ¼ llten
ĠLÃ¶ cher
Ġvorzu stellen
trei ft
Wel ch
ĠtÃ¼cht ige
ĠFil z
k ley
m pfe
w idr
st eigt
Ġder lei
Ġb liebe
Ġzu ckten
el es
Ġk ir
Ġk euchte
ck s
ĠB aÃŁ
Ġver kehrt
rei he
le hnte
ĠÃ¼ber d
ĠO le
ĠC ho
ĠC ity
ĠAr ten
ĠSe pp
ĠAus flug
dig ten
ĠSchw Ã¤gerin
ĠBer nd
ĠArt iller
op ft
ĠBank s
Ġversich ere
Ġklat schte
ĠAdvok at
ĠSchlimm ste
Ġknir schte
Ġbegn Ã¼gen
ĠgenÃ¶t igt
G ib
h unde
l Ã¶sung
Ġm ass
ĠM ike
ĠW ladimir
ĠSch Ã¤r
lo ckt
Ġschon en
ief ern
Ġfr Ã¶stel
Ġger itten
ĠVor wÃ¤rts
ĠAus sichten
Ġe urer
ĠTag s
ĠLand smann
ĠOr gel
ĠgroÃŁ artig
Ġbed auerte
je de
ĠOnkel s
Ġat men
Ste llung
ĠdÃ¼n n
sl euten
ĠFe h
ĠErei gn
Ġfla cker
Ġglat ten
ĠErleb nis
ĠHon or
ĠUmarm ung
P riester
b old
b Ã¼nd
n Ã¶t
Ġf Ã¤nde
Ġk leidete
ĠF inn
tr aum
Ġbe zeichnete
Ġvor gegangen
Ġr Ã¼
est ier
vor steher
Ġbef inde
ĠFl inten
Ġgeb raten
Ã¶hn lich
ĠEn ten
ĠSchrei en
Ġhundert tausend
irr te
bis her
Haus es
ĠSchwer e
Ġschlimm sten
verne hmen
HÃ¶ he
ĠVerk Ã¤ufer
ĠZige un
ĠglÃ¼ hte
ĠTele fon
ĠVest al
K leid
L eider
f anden
k Ã¤
o ge
Ġw at
ĠS ha
Ġb itt
sch ub
ĠA genten
Ã¶ ser
al es
ĠF ein
ĠJ ane
ĠJ erem
Ġr agte
Ġbes orgte
ffen s
ed a
Ġja mmerte
la v
Ã¤d lich
ĠPf ennig
Ġschw Ã¤cher
wir st
Ġvers agen
heim lichen
Ġbl itzenden
ĠPro blem
gra d
gezogen en
Ġselten er
jÃ¤hr iger
ĠhÃ¼ llte
bef and
ĠÃ¼berras chte
Ġverein igt
bein ahe
Ġverschl ungen
Ġersp aren
ĠAle ksand
ĠHÃ¤nded ruck
w Ã¤
ch se
Ġw imm
ge pf
ĠS achsen
or ges
au bt
sch ob
sch eck
ĠA gnes
Ġge bt
ĠE iche
rei ses
ĠSt ift
Ġbei ÃŁen
ĠAn ast
ĠC as
gel angen
Ġp ochte
ug h
ĠBe kannte
ĠVor sitzen
spr ochen
Ġvers agt
Ġvers etzen
Ġverm uten
atur en
da her
ĠÃľber legung
ĠBet tel
Ġqu Ã¤l
ĠSchn abel
ĠGang es
bew uÃŁtsein
ĠAbschied s
Ġstamm t
ĠFÃ¤ den
ĠTrÃ¼ mmern
ĠPet ro
ĠSchur ke
gebe ugt
ĠSab ine
Sicher heit
ĠFrancis co
M ama
a ce
n utz
z orn
Ġ Ã¤rm
er hob
Ġs ach
Ġm essen
sch leichen
Ġzu teil
ĠW at
ĠP Ã¤chter
ĠP ascal
ĠV irg
ĠZ ent
Ġst aunen
Ġr ut
Ġab wÃ¤rts
wer ker
ĠIn nen
ĠHaus herr
ĠBlick es
rÃ¶ ten
gem Ã¼t
ĠKr am
werk s
ĠLo is
Ġliebe voll
Ġmerk wÃ¼rdiger
ĠKon tr
ĠTrÃ¤ ger
ĠAnn Ã¤her
Bes itz
unt her
ĠMah eu
ĠGeschw Ã¤tz
Ġzier lichen
sta at
ĠVar ney
Kamer aden
H am
M ord
S c
f assung
f Ã¤higkeit
er a
on ische
ĠK ardin
hn end
Ġauf treten
Ġst Ã¼nde
ĠJ enn
all end
Ġent stehen
kl agten
im und
Ġfort gegangen
ĠGesch Ã¼tz
Ġschw ind
Ver mÃ¶gen
ĠKn ei
ĠHil f
ĠBel eidigung
ĠEurop as
Ne un
ĠDÃ¼ nen
grÃ¤ ber
ĠJahrh underten
ĠCons eil
V iel
un tern
ĠB uÃŁe
de w
ĠT ischen
ĠSt ick
Ġvor dem
ser v
Ġwei cher
ĠVer fahren
auf s
om ie
Ġdann en
sp ro
ĠHer aus
Ġunser s
nach lÃ¤ss
ĠBar nett
hei ÃŁen
ĠGeh il
ĠgefÃ¤hr licher
Ġbezahl te
Ġstud iert
ĠFeier lichkeit
Ġus w
Ġunersch Ã¼tter
ĠBitter keit
B in
L ust
Ġw Ã¶
sch lei
Ġg ot
al ia
ĠW urst
ĠR asse
le der
Ġwei ss
ver sp
kt Ã¼re
Ġschl imme
ĠwÃ¤hr te
ĠTÃ¼r me
Ġbew underte
Ġwider sprechen
ĠLieb kos
ĠPu ls
ĠLondon er
Kr anken
wÃ¼n schen
ĠSpan ien
ĠgÃ¶t tlichen
ĠwÃ¼ten den
ĠStill schweigen
ĠSl im
edder sen
b itter
l igen
Ġh is
Ġh egte
Ġauf re
ĠN Ã¤chsten
rei de
ĠEr satz
Ġst Ã¶ÃŁt
rau en
ĠC ent
Ġander mal
Ġgesch eit
Ġfort gehen
wir bel
Ġschwer fÃ¤llig
Ġro tem
urm eln
ĠPro men
ĠLicht schein
ĠTisch es
ĠBÃ¼ sche
Ã¼nst ig
Ar beits
ĠZug leich
Ġaufge tragen
ĠSonnen strahlen
ĠY anke
ĠMord aunt
gru be
ĠGebÃ¤r den
Ã¤uÃŁ ert
ĠAdvok aten
ĠunglÃ¤ub ig
F Ã¼
J unge
n ennen
u hl
er ien
Ġer se
sch oÃŁ
Ã¶ schen
Ġf rech
ĠB eil
ro d
ĠVer ehrung
Sch merz
gew ohnt
schl Ã¤gt
Ġe hel
bl ein
ĠTr essilian
ĠGeheim niÃŁ
ĠHÃ¼ lle
ĠKÃ¤ se
ĠTÃ¶chter lein
Ġnimmer mehr
okrat ie
T reppe
k unden
k reuz
Ġm ilden
Ġer holt
Ġer zeugt
Ġzu stande
Ã¶ teten
Ġk Ã¼rz
Ġun wir
le eren
he te
Ã¤n kt
Ġges ichert
Ġab wehr
Ġrei tet
ĠBer echnung
ĠKap it
Ge ht
Ġbew ill
ĠHa ft
Ġunbe quem
ĠWar wick
fÃ¼ llen
Ġliegen de
hafte m
ĠErzÃ¤hl ungen
ĠGesichts ausdruck
einz igen
fro h
ĠÃ¼berwÃ¤lt igt
ĠJen er
f Ã¼hlen
Ġ &
ei gten
au chen
un ker
ĠW ucht
Ġso daÃŁ
Ġver zei
ĠP om
ĠV ol
Ġaus weichen
Ġvor wurfs
ĠJ er
ab ak
Ã¤t sch
Ġunter nommen
ges etz
ĠzurÃ¼ck kommen
ik us
ĠFl usse
na c
wÃ¼r f
Ã¶hn end
richt ige
ĠĠĠĠĠĠĠĠ Ġ
Se ht
bin sel
ĠThÃ¼r en
Ġentr eiÃŁen
ĠEntsch lossen
Ġunheim lichen
ĠGemein schaft
osa ken
ĠOri ent
R os
m Ã¤chtige
ch rist
Ġm uth
Ġg sch
Ġf aul
ĠH ild
de on
ĠR usse
ĠN il
ĠÃ¼ber einander
ster ten
Sch ade
ĠSchw anz
rat s
ĠKÃ¼ he
Ġlieb ten
Ġklein sten
ĠKnie en
ba hnen
Ġvollen dete
ĠOl d
ator ium
ĠZigar etten
low na
Ġbele bt
ĠKenn edy
ĠApoll onius
L is
P hil
g Ã¤
w ahl
Ġ eit
ch heit
ĠM inna
der ungen
Ġdas te
Ġsch icke
ĠN eck
Ġt Ã¤glichen
Ġt obte
he lle
Ġwo hne
eil i
Ġges andt
Ġab wechselnd
Ġsp Ã¤te
Ġschw at
Ġfest halten
Ã¤h ten
Ġzei ge
ĠwÃ¤r st
Ġdeu ten
besch w
ĠPaul ina
wenig sten
ĠEngland s
ĠBÃ¼ch sen
ĠSchauspiel erin
Ġleidenschaft lichen
ĠSil be
ĠErl Ã¶sung
Offiz ier
Ġberecht igt
Ġeinzut reten
' !Â«
D ro
I de
t he
u hen
Ġw ucht
ÃŁ chen
ne cht
il a
ĠVer pflicht
Ġent sprach
ĠGes te
Ġlei stete
ĠSe er
ĠHaus halt
Ġar t
ĠZwei g
ĠOber fÃ¶rster
zimmer s
ĠBet ragen
enk ins
Ġster be
freund lichen
schwer e
Bes uch
Ġverbr ennen
ĠmÃ¤nn lichen
ĠOce an
ĠGymn as
ĠLeop old
. Â»
A g
B art
D ur
F Ã¼hr
M einen
f reunde
te ste
Ġein gew
ĠA llt
ĠL ore
ĠT imm
ĠR etter
ĠSt Ã¶rung
zu ges
zu ziehen
ĠÃ¼ber flog
Ġeinem mal
rie s
ger itten
Die sen
das selbe
Ver zweiflung
Ġhervor ragen
Ġbed iente
ĠRicht ungen
ĠAnst alt
ĠTru he
ĠFer ien
ĠHÃ¤nd ler
Ġfle hte
Ġbeunruh igen
ĠPant her
Ġunend lichen
Ġstat tlich
ĠgerÃ¤usch los
ĠTÃ¤nzer in
b rechung
Ã¤ ul
Ġein fl
ĠA mme
Ġf at
ĠW Ã¼sten
Ġbe fallen
Ã¤t h
ĠO x
rie fen
rÃ¼ hr
ĠSp ir
ĠHer berge
Ġerst ickt
aar en
mer ken
Ġne hmt
Ġempf ind
Ġhand le
ĠPal m
ĠRot hen
ĠBra he
Ã¶lk chen
ĠOeff nung
Ord nung
b lock
e f
h ind
r ande
Ġs ym
Ġb inden
Ġge zie
ben der
ĠSt Ã¼hlen
ĠÃ¼ber schritten
ff ung
ĠSp uk
na k
Ġhinter einander
att ung
immt heit
zug reifen
Ab schied
Ġinteress ante
Ġniedr ige
Ġkost bar
ĠhÃ¤ÃŁ lichen
Ġwechsel ten
ĠFried hof
Ġveranl aÃŁte
Engl and
P ost
R eisen
R iesen
k Ã¼nstler
o ir
p re
st illen
ĠV ig
is ieren
lei tern
ĠÃ¼ber nahm
ĠAn sprÃ¼che
auf ger
ĠKo hle
nis on
Ġfrei em
rat h
Ġschle chtes
we bel
Ġgrau er
ĠBet rieb
alen a
ĠEx per
ĠBed ien
Ġstark es
ĠNeben bu
ĠBau me
Ġverab redet
Ġneuer dings
ĠEle fanten
ĠÃ¶ffen tliche
Pfl icht
ĠDez ember
F eder
R ich
Z auber
d ick
l ehrer
s aÃŁen
Ġw immer
Ġn Ã¼chter
Ġh old
Ġh eilen
Ġb ogen
Ġb ittet
Ã¶ ge
ter nden
ĠB ast
zu erst
Ġsagte st
ha ken
Ã¼n schten
ist isch
Ġste uer
sp unkt
gew isser
im p
gef Ã¤llig
ĠMe yenburg
ĠlÃ¤ch elt
ĠMon ika
fÃ¼ er
ĠAd mir
ĠDeut scher
ĠOffiz ieren
ĠKlei st
ĠBel euchtung
ĠHen riette
ĠPa w
hil fe
ĠEle ktr
Franz osen
Ġma jestÃ¤t
schle ppen
ĠStud ium
ĠverhÃ¤lt nismÃ¤ÃŁig
ĠBlu tes
Ġverlie h
W ohn
g al
g il
it we
ĠA gent
al ier
Ġl Ã¤rm
Ġsch am
ĠL iss
Ġan wesend
Ġaus genommen
ĠJ immy
ver an
hal tes
geb oten
ĠSchw al
iz ont
ĠKl inge
Ġnieder en
ĠUeber zeugung
Al t
ros igk
herz ige
schwei g
Kir chen
ĠIwan owna
ĠToil etten
omot ive
Ġgequ Ã¤lt
R ed
Ġein tr
ĠK lat
Ġsch ilderte
be cken
Ġgef lohen
Ġe uren
ĠGel Ã¼bde
ĠGef lÃ¼
ĠGed ichte
ungs losen
ĠSchiff brÃ¼ch
Man chmal
Ġseltsam er
Ġseltsam es
pl an
Ġ2 3
ĠDem ut
Ġschar fer
Ġdumpf es
ĠAlex and
iat ra
ĠKaval ier
ĠBegrÃ¼ÃŁ ung
F leisch
b on
b lÃ¼hen
i sen
s zeit
st ation
em mte
el z
Ã¶ cken
ĠB raten
ĠK onnte
ĠSch ilf
ent setz
Ġgew ar
ist in
Sch wieger
ĠAus flÃ¼
ĠKopf es
Ġbet raf
ĠThe orie
ĠKon kur
ĠfranzÃ¶s isch
ĠFrie der
ĠPri or
Ġblitz schnell
Ġunbest immte
ĠNÃ¤ gel
ĠHus aren
ĠInstr ument
ĠHom unkul
Ġentbe hren
L achen
l achend
s eien
sch icht
ĠM ilde
ir kt
Ġauf fallen
ĠR este
ĠN Ã¶t
ĠSt ier
le er
Ġunter hielten
ĠAr beitern
ĠFr ische
ĠLie benden
iff ern
ĠGott lieb
Ġbew acht
Ġverd anken
Ihr er
ĠMÃ¼ h
ged reht
wohn ung
str on
ĠgehÃ¶r ig
ĠKloster s
ski j
Ġschne lle
strÃ¶ men
Ġerz Ã¼r
ĠMast on
Ġzahll osen
R eich
st aub
st Ã¼nd
Ġzu liebe
ĠH ieb
ĠW und
ĠL ock
Ġver schlagen
ĠN Ã¤chten
ang esch
Ã¤r ger
ĠAn spiel
pp ich
lau ten
ĠUn gar
Er scheinung
Ġsei denen
lÃ¼ ssig
Ġgem eine
ĠAll ah
Ã¤her t
ĠSa iten
ĠNe apel
lÃ¤ den
Ġnahe zu
ĠGrÃ¼ ÃŁe
Ġverz ehren
ĠBoot smann
zut un
Ġvert ieft
ĠGo ethe
Ġliebens wÃ¼rdigen
ĠUnbe kannten
ĠTu genden
ĠCour t
ĠLebe wohl
ĠmÃ¼r risch
ĠFreit ag
ĠEdin burg
H und
K auf
h eut
st rei
sch atten
ĠG eigen
Ġan stren
ĠSch enkel
Ġaus schlieÃŁlich
ut sch
ĠÃ¼ber tragen
il dem
her Ã¼ber
ĠAn schlag
Ã¤l ig
ĠAuf tritt
ĠMar s
ho sen
Ġwahr nehmen
ĠUr wald
mÃ¤ÃŁ igkeit
Ġstatt liche
ĠGroÃŁ es
ĠBeam ter
ĠWÃ¤r ter
Ġunheim liche
groÃŁ es
ĠKart offeln
ĠNotiz buch
ĠTirol er
Ġschmie gte
G ordon
H annes
m es
m essen
er reichen
Ã¼ bte
ĠA ur
ĠM uÃŁ
ĠM Ã¼hl
ĠT ale
Ġan legen
ĠI ren
Ã¶n ne
war te
pp is
ĠEin bruch
ĠVor sehung
Ġdr Ã¤ngt
Ġwahr genommen
Ġbl Ã¶d
ĠHe ere
Ġlieb lichen
berg s
Ġstatt lichen
Ġvorn herein
verm ochte
ĠStaats anwalt
Ġstrahl enden
ĠSchÃ¶pf ung
Ġklu ger
k uchen
p lau
an fall
Ġm ene
ĠA ffe
ĠM ine
Ġf abel
ĠT inte
ĠZ insen
zu lassen
ĠGe hÃ¶
geg raben
ĠfrÃ¼ hst
ĠKÃ¼ sse
fÃ¼ llt
Ġunver kenn
ĠDoktor s
Fr anken
ĠSonnen untergang
ĠbeschÃ¤ft igten
Ġkleiner en
ĠKloster bauer
Ġgep reÃŁt
Schl acht
En tw
ĠdÃ¤mmer te
ĠAnnemar ie
Ġgewar nt
M ut
in ent
Ġzu kommen
ĠE nden
ĠF ahren
Ġver ge
Ã¼r zten
tr Ã¤ge
ĠâĢĵ ?Â«
ent ine
acht zig
Ġgew Ã¶hnen
ĠC ont
auf merksam
ug s
Ġsp ar
og gen
ĠRe h
ĠGl anze
Ġvers uchten
An stren
af eln
ĠdÃ¼r ren
ĠInd ustrie
ĠFlÃ¼ stern
best and
ĠPrinz ip
Ġrot hen
ĠDumm heiten
imen te
verschieden en
ĠkÃ¼r zlich
ĠMargar ete
ĠHage bucher
ĠBarm herzigkeit
N Ã¤he
b og
f amil
u pft
Ġw age
an ia
Ġb Ã¼ÃŁen
Ġk ap
Ġver ziehen
Ġver weilen
Ġver nachlÃ¤ss
be wahr
ĠGe bete
ĠAr kad
Ġger aden
Ġerst ickte
voll em
Ġgerade aus
ss ern
Ġoffen er
Ġget anzt
Fr anc
ĠTa ille
ĠOb gleich
amp as
gewÃ¶hn liche
ĠAuff assung
ĠMarqu ise
kor b
ĠunzÃ¤hl ige
ĠkÃ¼r zer
ĠMÃ¤g de
ĠZul etzt
ĠDragon er
fehls haber
W a
a hnen
h ein
l ist
u ste
ĠM ahr
ĠM aterial
ĠK Ã¼nste
Ġver bracht
Ġver liehen
ft igem
Ġst eifen
ĠAn lage
ĠUn wetter
ĠVor stadt
ĠVor zÃ¼ge
gef aÃŁt
ĠLei p
Ġsprach los
Ġbesch Ã¤mt
Ġgest immt
Ġde cken
Ġzer mal
Ġdre hten
Her mann
Ġflo t
ĠÃ¼berzeu gte
Ġdopp elte
Hel m
Ġtrock nete
ĠEvel ine
ĠtÃ¼rk ischen
Dam als
R osen
gen eigt
Ġein geschlagen
sch merzen
Ġk ok
Ġsch alt
Ġsch uf
and ant
se uf
Ġt on
wei b
pr iesen
ell ner
Ġgleich wohl
ĠAuf sicht
Ġvoll enden
ĠEnt schl
ĠOr igin
An blick
teil ten
get on
Ġteil nahm
Ġstumm e
ĠJo an
ĠPlat te
Ġvertr ieben
wÃ¤rt ige
Ġsowie so
ĠIl da
Ġunend liche
Fle derwisch
Ġverstrich en
ĠBehÃ¶r den
Inter esse
W in
b ande
u sen
Ġd Ã¤chte
ie th
Ã¼ le
st atten
el st
Ġver geb
eben falls
Ġgew and
Ġp as
Ġfr isches
Ġger athen
ĠVor mund
ĠFl inte
gleich gÃ¼ltig
ĠHoch mut
gier ig
vers uchte
Schw ier
ĠLeiden s
Ġunaus gesetzt
ĠIsa ak
ĠbemÃ¤cht igte
ivid u
ĠMang les
M itte
t agen
ĠH ohl
Ġk auerte
ĠW urm
ĠE quip
Ġl Ã¤nd
Ġan vertrauen
Ġan gemessen
Ġtr aute
Ġfr essen
Ġgel tend
na ppen
Ġbest ieg
Ġbel ieb
ĠKar s
Al te
Ent fernung
ĠGas te
leu m
Ġehemal ige
ĠeigentÃ¼m liche
ĠgÃ¶t tliche
ĠKÃ¤m pfe
hÃ¤lter in
B Ã¼
G ei
d urfte
o pe
s etzten
s ign
Ã ¡
Ġu p
Ġh ies
Ġz ert
sch nur
Ġsch mutzig
ĠSch riften
Ġr issen
ĠGe orge
all mÃ¤hlich
Ġgew innt
Ġunter sucht
ĠBe au
iger en
gl ein
im edes
ĠGef Ã¤ng
ĠSchw ur
ĠMan che
ĠAm az
Ġjeder zeit
Ges tern
zeich nungen
ĠReg ung
ĠLau nen
ĠgnÃ¤d iger
ĠHar em
Denn och
El tern
yt hm
Wirklich keit
jew itsch
ĠMam sell
ĠGÃ¤n se
sbur ger
ĠAnnÃ¤her ung
n icken
ich in
Ġer weiter
ĠF allen
ĠF eddersen
Ġsch Ã¤um
ĠL iv
Ã¼r gt
Ġgew Ã¤hrte
gl ut
ĠGef Ã¤hrte
ĠNach folger
na be
ĠKa ffe
ĠPl Ã¤nen
Ġacht zig
Ġkennen gelernt
Ġhell em
if orn
ĠGeh Ã¶lz
ĠMat th
ĠPaar e
ĠVerwand tschaft
Ġverzweif elte
ĠPla teau
ĠWur zel
ĠSeel eute
ĠWoll ust
ĠWÃ¶l fe
ĠflÃ¼ster nd
B au
er ische
Ġder einst
on ach
Ġf ra
tr ig
Ġj agten
ing ungen
ien st
hal s
Ġab geben
gl itten
ĠmÃ¶ gliche
ĠRei ze
Ġschw and
ĠBoden s
Ġfor schend
ĠJul ia
ĠSchrift steller
ĠHoriz onte
ĠBa ja
Blick e
Gra fen
ĠProv iant
ĠbewuÃŁt los
ĠMax ime
hÃ¤ng igkeit
Ġjugend lichen
Bet r
Ġunruh igen
Sol che
ĠFranzÃ¶s isch
C y
L ande
P at
f aÃŁte
k us
en ger
it ur
ĠH ig
ĠH amm
ĠH aldin
ĠF ra
Ġsch roff
ĠR atten
Ġum gehen
Ġst immten
wei ht
auf ten
ĠGes elle
Ã¤u fe
kl eines
Ġgar nicht
ĠGew Ã¼hl
Ġgeb orgen
ow s
ĠPal ais
Abend s
Ġsonn igen
Ġelektr ische
ĠProz ent
fla mmen
ĠgedÃ¤m pf
Ġsteiger te
1 6
O ho
S y
w l
er reicht
ĠS eg
ĠT ausenden
Ġun um
ĠSch afe
ind est
Ġt Ã¼ck
ver lieÃŁ
br ust
kl at
Ġbr ing
ĠWir r
Ġvoll es
Ġrei chten
fl ein
ĠUm weg
af ur
Ġmag eren
Ġzer reiÃŁen
Ġwider sprach
ĠKu ck
hÃ¶ flich
Ġalt mod
rech nen
ĠBart hold
ĠJungfrau en
Ġvertr eiben
Ġeleg ant
ĠKonst antinopel
ĠFrankf urt
F els
K naben
ĠS ingen
sch lÃ¼ssel
ĠG abel
Ġun merk
Ġaus sprach
lei deten
ver wand
Ġunter halb
ĠGel eit
ĠMar sei
Ġbl inden
Ver zeihen
Ġeinz ur
Ġfest stellen
Ġverd utzt
Sp Ã¤ter
verl ieren
empf angen
Ġumf aÃŁte
kÃ¼n fte
Ġunterst Ã¼tzen
Pap a
ĠTrompe ten
ĠAkadem ie
Ġert app
' re
g le
er hoben
Ġh arrte
em me
Ã¶ ster
ĠH abt
Ġan halten
ro llen
he ftig
ĠO etsch
ĠBer ichte
ĠUnter halt
ĠKa i
ĠTh Ã¤tigkeit
ĠnÃ¤m liche
ĠHeim weh
ĠFar mer
ĠGast haus
Ġschreck licher
ĠEhren wort
ĠSchrift stÃ¼ck
ĠfrÃ¶h liche
ĠKol ben
ĠFer sen
ĠkÃ¶nig liche
ĠtÃ¤t ig
Christ ian
emo iselle
Ġhimml ischen
Verb indung
Ġbos haft
ĠFau jas
) :
f lieÃŁen
n y
Ã¶ ls
ĠB lat
lich tete
ĠK le
Ġan gest
rei fe
Ġr Ã¤us
ĠC ro
Ġsp Ã¼ren
ĠVor bei
ĠSe kt
Ġdr eitausend
Ġgel ehrten
Ġerw eckt
Ġgl itten
Ġbl Ã¤tter
ĠUm fang
ĠEnt deck
Ġen or
Ġfol ge
Ġverm utet
ĠKu pfer
Men ge
Ġdro hende
ĠWohl wollen
fert igt
ĠHann ah
Ġvornehm er
ĠHaup tes
Ant litz
blÃ¼ te
Ġfind est
ĠQ uer
J agd
h Ã¼llt
m as
s eid
ĠS eid
ĠS ympath
Ġein gelassen
au ben
ĠA e
ĠM Ã¤rtyr
ĠB ug
Ġl Ã¤rmen
Ġwar nte
re unden
Ġauf gesucht
ĠT ann
ĠP in
ĠP insel
be eren
ĠZ ylinder
Ġwir bel
Ġst Ã¤nde
ĠÃ¼ber lief
onn anz
ĠUn end
ĠIn zwischen
Ġfort zusetzen
ĠAl p
Ġbesch affen
eiden heit
Ġnieder gelassen
Ġange halten
ĠGro schen
wo hin
ĠBed u
Ã¤s iden
ĠHol ten
Ġangen ehmen
Ġleuchten de
ĠDro hungen
ĠBeob achtungen
ĠMet ho
Ġzeit ig
Herzen s
ĠMillion Ã¤r
ĠbÃ¼rger lichen
Ġjahr elang
Ġzerk n
ĠPyr am
ĠGerÃ¼ chte
B ein
F abri
K ath
c ar
l etzter
Ã¼ tet
sch ers
ĠH Ã¤n
ĠD eines
ĠD iana
se gel
ĠP urpur
br annte
ĠGes ichtes
ug te
Ġste ckten
Ġwohl woll
Ġgef reut
ĠZu weilen
mann es
Ġerf reuen
Ġgeb ieter
ĠMa sten
umm el
ĠWar te
kr ampf
War en
Ġdro ht
ĠFar ing
ĠKur fÃ¼rsten
ĠEmpf ehl
ĠgnÃ¤d igste
ĠRos alie
ĠLauf bahn
ĠSc ene
ĠZwischen fall
Schul tern
ĠPor z
Ġtriumph ierend
ĠWahn fred
ĠPhilosoph ie
ĠFat ime
S il
b ay
ie hlt
au bert
Ġg ru
ĠB Ã¤cker
ĠF loÃŁ
Ġun b
ĠSch Ã¼tz
ĠSch lÃ¼sse
tr ud
ĠP ein
ent um
gel enk
Ġger eicht
Ġger ades
ĠAus sprache
ĠGesicht chen
Ġschw acher
Ġerf Ã¤hrt
reich s
Ġgrau samen
Ġfreund liches
ĠWohl gefallen
Ġselten en
Ġbek leidet
ĠMu sch
Ġgelei tete
ĠHÃ¶r ner
Ġbeunruh igte
Ġfeier liche
Ġbele bte
Lei b
ĠLeon hard
Ġverscha fft
Zun Ã¤chst
B raut
I s
b ilde
j em
j unger
k ob
p eit
ĠM ol
ĠK astanien
ĠSch a
ĠR och
Ġum sp
ĠJ on
Ġwieder gefunden
Sch auspiel
schein lichkeit
Ġirgend welche
ou d
Ġunbe kÃ¼mmert
Ġverh indert
ĠFei ert
Ġheil iger
ĠjÃ¼n gsten
Ġfried lichen
Ġbege hr
ĠBedÃ¼rf nisse
ĠVerfol ger
blo nden
Ġbemerk ten
ĠZun Ã¤chst
ĠKreu ze
Ġkaiser lichen
Ġgriech ischen
ĠResult at
F Ã¼ÃŁen
P a
l ider
s h
t ums
Ġh euch
Ġb enehmen
ĠW ronskiy
re ben
Ġver achtet
hl eg
ĠN ell
Ġaus gesch
Ã¤t scher
ĠAn erk
Ġges unde
wer ten
zlich keit
Ġbew undert
ĠLicht ung
will igung
Ġverh ung
ager olles
ĠgewÃ¶hn licher
Ġwiederhol e
ĠSpiel er
ĠSand ers
ĠKammer diener
Ġglei cht
ĠLÃ¼ fte
dir ektor
ĠbeschrÃ¤n kt
ĠJap an
ĠFrÃ¶h lichkeit
ĠSchulth eiÃŁ
I hren
d Ã¶
Ġm usik
ĠS itze
Ã¤ schen
Ġg reift
Ġsein igen
ĠL amm
ĠSie ge
Ġbe jah
ĠGe ben
Ġ... ?
ĠUn mut
arr end
Ġhei ratete
ĠZu cken
ĠTh urm
Ġgeworden e
Ġverm ute
ĠKr achen
schw ester
Ġverw endet
ĠLe w
Nach richt
ĠHe cken
wohn t
Hier auf
Mar ia
ĠIr ren
ĠDurch einander
que z
trotz dem
ĠIndian ern
Ġmann ig
ĠZo fe
ĠMail and
respo nden
E ing
H ou
st ru
st ange
Ġein nehmen
Ġb allte
sch einen
Ġzu getragen
ĠM einen
Ġge prÃ¼
ĠF Ã¤higkeiten
Ġauf gesprungen
ĠT Ã¤ter
ĠSch Ã¤fer
is ierte
ol i
Ã¤nd chen
la pp
Ġlei det
vor wÃ¤rts
ĠAuf schrei
erst raÃŁe
ĠBr on
fr essen
ĠPh Ã¶
ĠWahr haftig
Ġhundert mal
ĠBank ier
Ġeinge zogen
pl Ã¤tze
Ġru fe
ĠErd geschoÃŁ
ara dies
ĠZusammen kunft
ĠfranzÃ¶s ischer
ĠTra wies
ĠLou ba
ĠgÃ¼nst ige
Ġbemerk bar
Ġdum pfer
ĠUnternehm ungen
Sta ats
Hall o
ĠSpeises aal
i j
Ġw us
it ionen
ĠÃ¼ber fiel
Ġtr aum
Ã¤nd iger
Ġbes Ã¤n
vor handen
od ore
Ġfort setzen
Ġvoll zogen
Ġle erte
ĠRu fen
ĠSchl inge
ans i
kam p
ĠÃĦ n
hÃ¶ her
Ġfei ge
Ġmerk lich
ĠLa w
ĠUeber raschung
grÃ¼ nden
Ġerhe llte
ĠKleid ungs
erb ieten
ĠverstÃ¤nd nis
mensch lichen
ĠInst inkt
ĠKanz el
ĠSib ir
ĠSid onie
Ġaufgef ordert
ĠTele phon
ĠSech s
ĠCle veland
ĠhÃ¤uf iger
ostrom o
K ennen
f aden
g or
k od
ge kl
Ġh um
ter nd
Ġl ose
Ġl ese
Ġsch erz
ĠL euchten
Ġver klÃ¤r
Ġver teilt
ĠI ls
ĠP iatra
be hagen
ĠZ y
Ġst ampfte
ing ung
Ġunter irdischen
Ġbes onnen
tern ation
Ġweiter hin
Ġrei z
ĠKl assen
uld ige
ĠOr ten
ĠnÃ¤her e
ĠDar in
Ġfl uchte
ĠTa pferkeit
Ã¶st lich
ĠMag az
ĠKat he
gewÃ¶hn liches
hÃ¤u schen
ĠLot her
Ġzweif le
unz eln
Gem Ã¼t
anst alt
A p
G ab
f Ã¤nger
g re
w ilden
Ġd ient
ge arbeitet
Ã¤ tern
ĠM Ã¶r
ĠB Ã¶sen
ir o
ĠF lotte
Ġj Ã¤hen
ier ungen
Ġha ar
Ġbeg Ã¼nst
ĠGesch ehen
ĠBer at
ĠNach her
ĠkÃ¼ nd
ĠEi de
gn Ã¼gt
zahl ung
Ab sicht
ĠâĢ¦ Â«
ĠGrau samkeit
unz elnd
ĠKann st
Ġfunkel nden
ĠRam bin
ĠWur f
Ġwa ere
F ing
S mith
g on
r in
Ġk u
ĠB at
ĠW eit
Ġge denke
Ġsch leichen
Ġver haften
ĠSch inken
âĢĵ Â«
Ġaus sch
Ġst Ã¼tzen
ste hn
Ã¤n emar
Ġtr Ã¤ge
br inge
sa y
ĠWei sen
Ġzw Ã¶l
ant isch
ĠFl uth
bl es
ĠsÃ¼ ÃŁer
ĠGei z
ĠKol onie
ĠBrand ung
fÃ¶rm ig
gewiÃŁ heit
The ater
ĠLieben swÃ¼rdigkeit
ĠGun sten
ĠSchub lade
Ġgrat ul
T u
T asche
V ern
f chen
h ige
Ġs erv
ĠA dieu
ĠH ang
Ġbe zog
ĠÃ¼ber zogen
rau chen
Ġnach denk
Ġt olle
ĠGe ht
Ã¤t igung
lie ÃŁe
ĠO ester
Ġab sonder
issen en
ĠMan ieren
Ġzusammen zu
Ã¤ng liche
ĠÃ¼ bte
ren zte
Ġwand eln
ĠSpr ing
Ã¼l t
ĠFranz l
ĠHof rat
ĠRat haus
fahr e
Ġabge legt
schÃ¶n er
ĠRÃ¶ cke
ĠGewissen s
Ġarm seligen
ĠPort al
ĠFin anz
ĠBegleiter in
ĠErleb nisse
Ġgepf legt
ĠIns assen
Ue brigens
M au
V ert
b ter
ch ard
ĠS od
ĠS ascha
Ġb rÃ¤
ĠA ehn
ĠH agen
ĠH ipp
ĠD Ã¤nen
ĠK osaken
Ġan hÃ¶ren
tr ich
ĠEr em
Ġst ahl
Ġr ichtet
Ã¤r kt
ha i
ri d
ĠEin gewei
ĠGesch Ã¼tze
ĠSte hen
ĠBer eit
ĠSchl achten
ass ar
ĠStadt pfeifer
Ġfest gehalten
ĠTisch chen
ĠPr esse
ĠHoch lÃ¤nder
ĠHoch wÃ¼rden
orben e
ĠSpiel zeug
ĠKaiser in
Ġbedeuten den
Ġwack ere
ĠGewohn heiten
ĠScher ze
ĠSchwe fel
And re
Ġschott ischen
Ġtade llos
K nie
i fe
m unter
st imm
ĠS aum
Ã¤ mmern
gen de
ÃŁ ige
ur ft
ĠK Ã¼r
Ġbe zogen
ser and
ĠAn gestellten
ert igt
Ġho hes
Ġnieder tr
Ġletzten mal
Ġbed Ã¼r
ĠTrau ung
Ġwunder voll
ĠFor derung
Sp iegel
ĠBaum es
Ġwenden d
fÃ¤ll ige
ĠDicht ers
ĠVerf asser
ĠJens eits
schÃ¤tz ung
H oll
W eile
Ġs achte
Ġmit leidig
ĠL anze
ĠAn erbieten
br ugger
Ġab gemacht
ĠBe wohnern
ĠSe bast
Ġverl asse
Ġfort fuhr
bel s
Ġ...Â« ,
Ġfest gestellt
schie de
hei rat
Unter dessen
rech nung
Ġgehe ftet
zi aldem
Lie bl
irr ten
ĠhÃ¼ tete
ĠStief eln
ĠZerst Ã¶rung
emm ung
ĠSilv io
ĠUmr isse
F ern
G eben
S teuer
Ġw eint
an stÃ¤nd
Ġder artigen
ĠW olle
ĠK etz
ĠT Ã¶chtern
ĠSt Ã¼bchen
Ġst Ã¤ndig
ĠJ ene
ff ern
ĠAn rede
Ġab reisen
Er ich
sp latz
ĠHau be
geb ilde
ĠGew andt
ĠPro gramm
ard o
rot ten
Ġjung frÃ¤u
ĠBet tes
ĠMitt eilungen
Ġfor m
Ġabge geben
Ġte ufl
Ġbitter e
ĠMitg ift
Spr ache
ĠVen us
Ġlebend ige
Ġnamen s
n or
z err
er wartet
Ġw ankte
Ġi ck
Ġf ass
ĠF ix
ĠK alt
ĠK atz
ĠR Ã¼stung
ĠP assepartout
rei ter
ĠSt angen
zu weilen
Ã¤t igen
Ġimmer zu
ĠSp ekul
Ġber euen
gew ohn
ĠOr tes
ĠKr itik
Ã¤ÃŁ lich
ĠHa gel
ĠLebens mittel
Ġrau ben
Ġgegeben en
ĠvorÃ¼ber gehen
aff in
Ġ2 2
ĠLord s
Ġheiter er
ĠFing erspitzen
Ġbege hrt
Ġgestr igen
Ġverdamm te
Ġflat terte
Ġschme cken
echs lung
Ġbez auber
Ġjub elte
ĠEntschlossen heit
I talien
O l
R aum
p reuÃŁ
Ġa pp
sch ild
sch uldig
at mend
Ġk rÃ¼
ĠB loÃŁ
ĠK lÃ¼
ĠT yp
ĠP fe
ĠP Ã¤ckchen
kommen heit
ĠwÃ¼r det
ĠHer den
im es
Ġfort gesetzt
ĠGesch lechter
Ġlau tem
Ver trauen
ĠKa v
wÃ¤r ter
herr schaft
Ġschau derte
Ġentgegen gesetzten
Ġunver zÃ¼glich
ĠAd jut
Wei ber
ĠEind rÃ¼cke
Ġerl euchteten
Ġungehe urer
trei bt
ĠErsch Ã¼tterung
ĠErsch Ã¶pfung
Ġregel mÃ¤ÃŁigen
Ġtrost los
Heim at
ĠhÃ¤us lichen
ĠHuld a
hind urch
S tern
S ehn
m aterial
z a
Ġw ett
Ġg reu
ĠB re
Ġsch lichten
Ġver kehren
tr Ã¤gt
Ġbe zÃ¼glich
Ġbe auftr
Ġaus wendig
Ġwir r
Ġst reckten
Ġgew ichen
iger e
ik ul
Ġschw enkte
ĠNeu igkeit
Ġverste ckte
Ġwunder lichen
Ġverloren e
ĠBet rug
ĠBrau n
ĠTodes angst
ĠKas tell
ĠvernÃ¼n ftiger
ĠVaterland es
Ġumf assen
kne chte
gru ppe
Ġschluch zend
marsch all
ĠDavid s
ĠlÃ¤u tete
akte ur
ĠGend armen
ĠAnerk ennung
K Ã¼nstler
te u
Ġb ild
em men
it iker
Ġk rau
ĠB Ã¤uerin
Ġl oben
ĠF Ã¤cher
ĠK raut
ĠP erg
ste he
Sch los
Ġgef Ã¤r
ĠFre d
ĠAus land
so fern
ĠUnter tanen
Ge gend
ĠBild nis
ĠPh ilosophen
ĠschÃ¼ttel ten
ĠVern ichtung
maÃŁ regeln
Ġsinn los
entr al
ĠÃ¶sterreich ischen
Ġeindring lich
ĠFair ford
Ġs uch
Ġi de
ĠG reu
Ġf aÃŁt
Ġge achtet
Ġl aden
ĠP ud
ĠÃ¼ber tÃ¶n
Ã¤r n
ĠAn zeige
war teten
Ġsp aren
los ion
sp l
Ġle der
ĠMan uel
Ġgl Ã¤ub
Ġir onisch
ĠerklÃ¤r ten
ĠdÃ¼r ften
Ġpf legten
ĠVerb indungen
ĠPoliz ist
wÃ¼rdig es
Ġjemand em
ĠKarl udi
Ġstrahl end
ĠkÃ¶st lichen
ĠkÃ¶st liche
ĠMerk er
Ġschmutz ige
ĠTemper ament
ĠSto ffe
GrÃ¤ fin
a kel
j ene
m urm
st ungen
ĠS uche
Ġein nahm
Ġer eignet
ĠD ichtung
ĠL ungen
Ġver ehrte
Ġver Ã¤nderte
Ġr um
ill o
ad in
Ġab nehmen
Ġhier in
sp Ã¤t
ĠPf ade
ĠKl ippe
ĠMal erei
ĠDien ern
geste llte
ĠPerson al
aunt let
ĠProfessor s
ta in
krie gen
Ġersp art
ĠErz bischof
hÃ¶ch sten
Ġmittler weile
g auntlet
k elt
k arten
en gten
ĠS orte
Ġv iol
Ġsch rak
ĠL eine
ag es
ĠSch lo
ĠSch utt
ĠR achen
Ġvor m
ĠJ ochen
Ġr isk
wei ÃŁt
Ġman ch
Ã¤r risch
Ġuns Ã¤glich
Ġsp eisen
gl itt
Ġzwei en
Ġgen Ã¤hert
Ġvoll bracht
zÃ¤hl en
ĠFl ora
ĠAm arin
Ġbew ahre
ĠHe y
ĠPh ys
este llt
ĠAd els
str eit
essel ten
Ġwe ht
ĠGru ben
ĠGru ft
aller ie
Ġ18 4
ĠPat ron
Ġend los
Ġunsch lÃ¼ssig
ĠSche une
biÃŁ chen
j acke
n at
Ġw ickelte
ĠS h
at isch
ĠM aurer
ĠH ak
ĠP ia
ĠZ er
Ġha ften
ĠfÃ¼r st
ank bar
ĠHand schuh
ĠSp alten
ĠSe en
ĠSchl Ã¤gen
Ġstr om
ĠEl fenbein
ĠÃľber fall
ĠLe ktÃ¼re
Ġerg oÃŁ
Ġkr anke
Ġunver mittelt
Ġwider fahren
Ġblau er
dien te
Ġabge halten
ĠSat ze
ĠKlein igkeiten
ĠbemÃ¼ hen
Ãª me
ĠAdel heid
Ober st
ĠAlex ei
Ġungest Ã¼m
ĠSpeise zimmer
ĠLeicht igkeit
gelegen en
ĠTop ler
Ġverdrie ÃŁlich
ĠRedens arten
ĠJÃ¶r g
ĠAleksand rowitsch
gil tig
ĠGewandt heit
M ach
T ru
a x
f ungen
t aschen
Ġein ges
Ġein fallen
ĠH enn
ĠW eder
ĠSch achtel
ĠP re
ĠSt iche
Ġr Ã¼hrt
pf ad
Ġtr Ã¤
imm ter
ĠGes tr
sp iels
Ã¤l ern
qu ellen
Ġrecht schaffen
ĠSte g
Ġbesch rieb
Ġseit her
iv o
zeu gte
ĠCh em
Ġbesser es
ĠSa ff
Ġheim at
mÃ¼t hig
ĠSchm ug
ĠwÃ¼ sten
ĠHeim weg
ĠWol fs
unk elt
Ġfl ink
pl iz
Ġbeob achteten
Ġkleiner e
ĠSchmerz es
ĠMir ja
far bigen
FÃ¼r sten
ĠEing ange
Ġdumm es
ĠLis te
Ġfla mmte
ĠRen Ã©e
Ġschme ckt
Ġumschl ang
ĠpreuÃŁ ischen
Ġblinz elte
ĠNich oll
! )
A lex
P lat
d amm
m ischen
o eur
Ġw ag
Ġw ette
Ġi ÃŁt
Ġb arm
on ung
ĠD in
ĠE imer
ir gt
Ġauf brechen
ĠL yn
am pen
ĠR y
ĠR ippen
ĠÃ¼ber reichte
ĠGe gn
Ġunter lassen
ĠFr Ã¤nze
ĠHaus flur
sicht bar
St immung
Ges ichts
ĠUr sprung
bo ote
Ġel ende
ĠHal binsel
Ġverschieden er
ĠPat ienten
Ġpol it
Ġur alten
schÃ¼ sse
ĠSÃ¤nger in
ĠMÃ¼tter chen
ĠWehm ut
B riefe
c te
g inge
m ine
n Ã¤chst
Ġi l
ĠS itzen
Ġh ohlen
Ġein gehen
in kte
ĠW art
ĠW ollte
Ġl ernt
der lich
ĠP hr
ĠP Ã¶bel
isch end
Ġbe weist
Ġuns ich
Ã¤ch ste
ief eln
gesch mack
ĠZu tritt
th eile
ĠPro t
Ġged Ã¤mpft
ĠPol ster
ĠWohn ungen
schn eider
ĠFeld webel
Ġzerst reuen
ĠDor ette
Gr unde
Ġverhei raten
grÃ¶ ÃŁten
anges ehen
ĠCy prien
Ġunerwar teten
ĠHon ig
ĠJap aner
AuÃŁer dem
ĠAndeut ungen
ĠKuck uck
p erson
y th
Ġw ildem
Ġm ind
st reicher
Ġdie ÃŁ
Ġder ben
ĠD igby
ĠB reuer
Ġge liefert
ĠE ber
Ġun geschickt
rei teten
anz ow
Ġher zustellen
Ġgesch wind
Ġeigen s
ĠBer gst
ĠNach mittage
Ġgest alten
ĠGeb ote
Ġhe ftete
ĠfrÃ¼her er
ĠZug ang
ĠReg ina
seit ig
ĠGu y
Ġgeist ig
ĠPu ppen
Ġangenehm er
Ġverwand eln
hil m
ĠErk und
ku geln
ĠDÃ¶r fern
ĠVerein igung
swer te
gu ter
ĠEb be
ĠKreu zer
ĠursprÃ¼n glich
K er
es el
Ġm ischen
Ġz auber
Ġz ischte
Ġf re
ĠW itze
Ġge Ã¤uÃŁert
Ġbe her
ien g
ĠAn gehÃ¶rigen
ger ei
Ġgro ssen
Ġhier bei
ĠSp alt
Ã¤d igt
ho he
ĠGew Ã¶lk
iff ord
ĠGer ichte
Ġverm ieden
Ġgetr ost
ĠDen ke
gegangen en
ct ion
Sp azier
schm eich
ĠCar men
ĠEigen tÃ¼mer
Ġverz ehrte
ipp te
ĠSk iz
frÃ¼ h
ĠUnbe hagen
fri kan
ĠGau ner
Ã¤ll igkeit
Pfer d
ĠZucht haus
Ġdam pfen
L o
L age
W Ã¤r
k eines
l aÃŁt
Ġw Ã¶l
Ġw usch
Ġb aute
Ġge teilt
ĠL etzte
ĠN onnen
Ġaus ging
ĠSt Ã¼tze
ĠEr klÃ¤rungen
Ġr agen
ent lang
ang t
all el
ĠRei chen
ho ffen
ĠZu dem
Ġbet raten
th Ã¼r
Ġtief ster
Ġhinaus zu
ĠGem urmel
ĠLi ppe
alle e
wen dete
Ġbed Ã¼rfen
ĠFrei herrn
beg leiten
ĠRicht ig
ĠOhr f
wider ung
grÃ¼ ne
gewÃ¶hn t
ĠZorn es
Ġbitten d
ong o
ĠAng aben
Ġzahl te
ĠLat ein
ĠGau kler
springen den
Mon sieur
ĠUntersuch ungs
ĠÃĦhn liches
ĠunzÃ¤hl igen
ĠzÃ¤r tliche
Frie drich
ĠVestal innen
k in
k reise
as sel
Ġz ag
Ġer pro
ĠG ier
ĠM urmeln
re kt
ĠSch enke
is p
ĠN az
ĠSt aff
Ã¤n zen
ĠVer onika
ger Ã¤t
Ġseiner zeit
Ġsp iele
Ġgesch Ã¼ttelt
Ġbr enn
Ã¤hl ings
fÃ¼r chter
Ġschwer em
Ã¶hn ten
ĠMe eren
ĠAm el
ren ze
ou x
fr ische
Ġempf indlich
ĠWar e
ĠFest igkeit
Ġerl Ã¶sen
ĠKom eten
Al ter
ĠVo gels
Ġkalt blÃ¼tig
zweif eln
ĠEv ans
irt u
ĠgÃ¤ hnte
Ġeilig st
ime ter
Ġbefr em
Ġzerrissen en
ĠKoll eg
ĠWeihn achten
Ġspiegel te
Ġkathol ischen
ĠprÃ¤ sent
ĠSchal uppe
O hr
r aschen
er he
Ġs auer
Ġg riffen
ĠG ylfe
Ġge opfert
ĠF err
ĠF Ã¤r
ĠK Ã¼hle
ĠK Ã¤mpfen
ĠL anzen
ĠL ehren
ĠSch lepp
ĠP aten
ĠN eigungen
ver samm
Ġent spr
Ġro llen
ĠEn ge
ĠlÃ¤ch elten
ou verneur
Ġkr Ã¤nken
ĠBÃ¼ schen
off er
wohn te
ĠSchÃ¶n en
Se elen
grÃ¼ nd
ĠSchwar m
Ġte urer
ĠGewissen sb
Ã¼ste te
grau e
ĠBra hm
ĠSchwieger vater
ĠPor trÃ¤t
ĠFlÃ¼cht linge
ĠAnschau ungen
M ister
h h
i pfeln
y ne
ie ssen
in et
or ien
sch ir
ĠW erne
Ġver stÃ¤ndig
ĠSch owe
tr age
Ġum armen
Ġaber glÃ¤ub
ĠGe werbe
Ġganz em
Ġent zog
im s
Ġversch lei
Ġhinter drein
ĠTage buch
ĠJu p
ĠwÃ¤r est
ok ol
Ġherr schen
ĠHoch achtung
offen en
hei raten
ĠGast freundschaft
Ġfor dert
vers etzte
Land es
Ġveran st
augen blick
ĠSkla ve
Ġleidenschaft licher
ĠsÃ¤m tlichen
ĠThor de
ĠIwan owitsch
Ġgerau me
ĠLeicht sinn
Ġwid men
Frem den
engl ischen
ĠGarder obe
Ã¶ls ick
J ungen
M achen
b ildete
d ra
i wen
i ale
Ġer holen
sch mer
ĠM aÃŁen
Ġf uer
Ġge zÃ¤hlt
ĠF o
Ġauf gewachsen
Ġun ster
ĠSch acht
ĠSch aff
ĠP ascha
Ġbe drÃ¼ckt
etz ungen
Ġum stÃ¤nd
Ġwas chen
ad o
Ġab holen
so mmer
dr ingend
Ġgleich mÃ¼tig
ĠMar io
Ġverw ickelt
Ġch arakter
Ġerl Ã¶st
vo us
Ġversp reche
reg ungen
Ġwack eren
ĠMax e
ĠBeob achter
ĠPassag ier
ĠMarg ot
R eiter
k chen
Ã¼ din
it scher
un sten
el ius
ĠH Ã¤rte
ĠB ahre
Ġmit zunehmen
Ġaus geh
ĠJ ess
ab ten
onn ie
Ġgef ahr
ĠmÃ¼ ÃŁig
Ġhal tet
Ã¤hl e
Ein zel
gem eine
ian ischen
Ġverh Ã¼llt
ĠHe eres
ĠSpr unge
ĠKar in
pfer de
mÃ¼t ter
ĠHier auf
brau ne
ĠgrÃ¶ÃŁer es
Ġschwei fen
Ġta gelang
Ġte ure
ĠRa imund
abend s
ĠSchau der
ĠfÃ¼n ften
Ġtapf ere
ĠKaj Ã¼te
C ol
D enk
P ass
a ir
l eutnant
Ġl iter
ĠK rosigk
ĠL ass
Ã¼r ten
ĠR alph
Ġbe denk
Ã¼ck ung
Ġum kehren
Ġal ber
Sch lÃ¼ssel
Ġlei de
ho se
ĠZu ck
ĠAbend brot
ĠBei spiele
wen igen
Be vor
ĠSchm iede
ai sen
ĠWinter halter
ĠPfarr ers
Ġmensch licher
ĠCap itÃ¤n
ĠRes erv
Ġbeu gen
Bes onder
Ġbequem en
ĠhÃ¤ÃŁ liche
ĠKra w
ĠRob in
ĠOper ation
Ġbelust igt
erinner te
ĠBuck el
ĠVerwalt ung
Wil helm
L Ã¶
W arten
v atter
x el
al z
den noch
Ġsch afft
ĠN an
ĠÃ¼ber g
Ġre dlich
ĠBe haus
ange legenheiten
Ein samkeit
gef r
ĠBo u
ĠLu ja
Ġbef iel
ĠBl anken
oren e
Ġlag erte
zur eiÃŁen
Ġbel euchtet
ok raten
ĠMÃ¼ ll
fÃ¼ g
Ġunver sehens
hof es
hÃ¶ chst
ĠRÃ¼ck seite
Ġaufzu halten
hei ter
Ġtau b
ĠberÃ¼hm ter
ĠErzÃ¤hl er
Gegen wart
ĠHein z
ile as
krÃ¤ ftig
ĠbetrÃ¼ gen
Ġkla mmerte
ĠErgeb nis
H undert
M ac
V etter
b ildern
r ischen
y k
Ã¼ ssen
Ġh eulen
Ã¤ der
ar z
on er
re te
Ã¼ber zeugt
Ġbes e
os ition
kl ettern
Ġfol gend
ĠBild hauer
Ġwunder liche
beg riff
weil ig
ĠChrist i
Ġverschieden sten
ĠGesprÃ¤ch s
ĠOb hut
Ã¨ s
eins dorf
Ġober fl
hÃ¤nd ig
ĠWert h
ĠGespr Ã¤chen
ĠHeiligt um
ĠPlatt form
iwen hack
W olf
p ul
Ġd et
ĠS eren
Ġg lichen
Ġg Ã¼t
ĠG unther
Ġf estem
Ġge lieb
ĠL ach
ĠL ump
eu le
Ã¼ber ras
ĠJ enkins
sp erson
Ã¤l fte
lat erne
ĠGr am
Ġgeb ieten
fÃ¼r chten
lieÃŁ end
ĠUm schlag
Ġstr aff
Ġgest eiger
Ġverm eint
lang er
ĠInd em
Ġwider stand
ĠHals et
ĠTa x
FÃ¼r st
ĠzurÃ¼ckge halten
aun end
ĠAp o
Ġeng ag
betr achten
fle ck
wÃ¤l der
ĠgegrÃ¼ ndet
brei tete
Mill ionen
D ichter
E le
K Ã¶n
l uÃŁ
l ige
n annte
t ut
Ġm et
ar o
icht igte
ĠM uÃŁe
ĠD adurch
ĠW ollt
de hnung
ĠL eck
Ġan treten
ier st
isch Ã¶
ĠZ au
ĠSt eig
Ã¼ck ter
Ã¶r end
Ã¼t zend
Ġgeh Ã¤ngt
ant ier
ĠGesch irr
fel dern
Ġgeb ogen
Ġgeb annt
St ille
Ġalte m
Ġerg angen
Am b
ĠnÃ¶t ige
ĠIr onie
ĠSturm es
ĠBest immtheit
far b
Bo ot
bÃ¼ cher
Ġschla fe
Ġhar ter
Ġverrie ten
Ġero bern
ĠVerhaft ung
Ġwus ste
E rei
p aÃŁt
Ġm atten
ĠS m
Ã¤ ut
Ã¤ uÃŁer
ĠG lÃ¼
Ġge Ã¼bt
Ġun fehl
ĠP op
ol ze
Ġha ÃŁt
ĠÃ¼ber standen
ĠO hl
Ġsel ige
Ġbes traft
Ġre ge
amen te
ĠSte ffens
lieb sten
heim er
Un ten
ok oll
ĠQu adrat
ĠNeu en
du ft
erg riffen
Ġ2 7
ĠErn est
ĠTri bÃ¼
ĠÃĦr m
Ġausgest attet
ĠSchau platz
ĠfÃ¶r m
Ġarg wÃ¶hn
ĠCou pÃ©
Ġausgeb reitet
verhÃ¤lt nisse
ĠBjÃ¶rn arne
B esser
d ame
g schaft
v ant
ich erte
ĠS enn
Ġein geh
ur i
Ġauf kommen
Ġan gerufen
ĠR achel
be ugen
Ġst aub
Ġnach trÃ¤glich
ĠGe fecht
um pfen
ĠO pf
Ġp eit
ĠBe quemlichkeit
Sch lÃ¤
gew irr
ĠGr Ã¶
Ġvers agte
ian e
Ġstill es
enk tem
ĠEind ring
ĠFort schritt
Ġblut ig
ĠKÃ¤ stchen
Ġanf Ã¤nglich
ĠItalien s
Ġverschlossen en
part ie
ĠAnk Ã¶mm
Ġtele fon
Paul ine
ĠPra xis
ĠlÃ¤u ten
ĠKe gel
ĠAven el
ĠfÃ¤r bte
Ġverweil te
Ġschlen derte
! Â»
B al
S eien
w Ã¼ch
z auber
ĠM alle
ĠB och
ĠK ies
Ġbe achten
Ġbe zeichneten
Ġbe kanntlich
ick elten
sten d
Ġgew isses
rie sen
ĠUn ab
Ġgro sse
Sch ein
Ġgleich viel
Ġeigen em
ungs vollen
Au ff
ĠBild es
for schen
ĠPl anken
ĠZw anzig
ĠTro pen
lÃ¤ ne
mÃ¼ ÃŁte
ĠPoliz eim
Ġfl uchen
ĠGei ÃŁ
schieden heit
ĠBest ie
ĠjÃ¼n gste
ĠerwÃ¤ hnen
ĠApp ar
ĠOheim s
Ġplau derten
Ġversamm elten
Ġflat terten
beam te
ĠSchicks ale
Ġgi bst
Ġkol ossal
2 0
P u
R en
S age
f Ã¤hrt
Ġs ympath
Ã¼ mm
ge eilt
ĠS zenen
Ġh im
Ġein richten
ur los
ĠB esen
Ġl euchtet
ĠF Ã¤higkeit
Ġun schuldigen
ĠP age
be cher
ĠZ eile
Ġst eile
Ġlie gend
ad ly
Ġab w
ist rat
Ġbeg reif
Ġbr ingst
Ġkein s
gesch leppt
ĠHa fer
ĠTon es
Ġhinein zu
ĠBÃ¼ ffel
ĠFrÃ¤ulein s
hÃ¶ hung
ĠFle cke
selbst verstÃ¤ndlich
ac c
Ġober e
Freund in
Beg leiter
isk y
haar ige
Himmel s
erm ah
Ġschla ff
ĠanstÃ¤nd ige
Ġempfehl en
Vo gel
ĠPhÃ¶ be
e de
f ische
k y
v ieh
y le
st rau
ĠS tet
in ens
ĠH euch
ĠD anke
ĠW isch
Ġauf gegangen
isch a
Ġher gekommen
ver such
ĠVor sprung
gew isse
ĠOr kan
Du mm
ĠGen Ã¼ge
Ġged auert
ĠOber kÃ¶rper
ziehen den
ĠBesch Ã¼tzer
Ġzitter nde
ĠBu de
hÃ¼ llen
ĠGar nison
versch Ã¤mt
ĠZauber er
Ġversp Ã¤
ĠberÃ¼hr ten
ĠFels wand
Ġleidenschaft liche
Ne bel
ĠGebir gs
lust ig
ĠgrÃ¤ ÃŁlich
Ã¶lk ern
Ġzier liche
Ġlock te
ĠOrden s
Donner wetter
ĠKircht urm
ĠZerstreu ung
Ã¤nemar k
H arr
H offen
Z eiten
Z orn
y g
Ġf ert
ĠW oh
ig ter
Ġauf gefunden
ĠL ina
Ġver kehrte
Ġan heim
Ġals dann
ro se
anz te
ent halten
ĠVer a
Ġtr inke
ĠAugen lider
ĠIn se
ap a
Ġschl icht
ĠBr ill
ĠOr angen
ĠÃľber mut
ĠDir nen
Ġblick end
Ġbed achte
iss in
Ġherr licher
ĠÃ¶ st
Ġaufzu stehen
ĠSonnen licht
Ġentw ickeln
ĠFort setzung
pro mitt
Ġreg nete
ĠSan ft
Ġbescheiden e
erkl Ã¤ren
sy stem
Kann st
ĠWacht meister
On nen
Ġauftau chen
Ġwinz igen
A bt
F aust
L ager
T raum
e y
g itter
l ud
er warten
Ġw etten
sch lepp
Ġzu einander
ĠD Ã¤chern
Ġl ach
ĠSch otten
zu vor
ĠGe brÃ¼ll
Ġhin gegeben
Ġtr ink
ĠDie be
Ġwohl er
alt in
ant ik
ĠHaus hÃ¤lterin
kann tes
Ġvers Ã¤umt
zur echt
zur eden
fr ischen
ĠÃľber legenheit
sinn iger
ĠlÃ¤ stig
Ġqu i
ĠWerk zeuge
Ġaufge bracht
je kt
Ġbeh arr
Ġschwei gt
Ġkn ister
geworfen en
ĠRand al
Ġentf altete
ĠEll iot
ĠTabak s
ĠJos serand
Ġtapf eren
ĠHung ers
ĠGelt ung
Rich ard
G ere
N or
P o
R uh
T hr
f ett
h ange
s orgen
Ġd Ã¶
ĠA ff
ĠH innerk
et ischen
ĠN r
Ġaus sp
Ġaus drÃ¼cklich
ĠU fers
lo hn
lo pft
end a
Ġgew aschen
Ġlie ss
auf wÃ¤rts
sel igkeiten
ha mmer
ahm e
Ġspr engte
schl ummer
Wie viel
ĠAm eisen
schw eben
Ġei sk
fÃ¼ llte
ĠGrund sÃ¤tze
Ġzer sch
gr uÃŁ
hÃ¶ re
deut sche
Ġliebens wÃ¼rdige
ĠStrand vogt
ĠEle ph
Ġdul dete
Reg iment
gebr achten
Ã´ tel
ĠSchwe de
ĠEvel yn
ĠVerf assung
lÃ¼nder t
ĠChante au
Berl in
ĠrÃ¤us perte
1 1
E ll
F ieber
M iss
h Ã¶lz
i des
n ische
un willkÃ¼rlich
ĠB Ã¤nke
ĠW anza
ĠE twa
Ġsch att
Ġsch Ã¼chter
Ġmit leid
am ont
ĠP as
Ġbe achtete
Ġbe klagte
Ġnach gedacht
ĠJ etti
Ġr ann
ĠGe deon
end orf
ĠVer samm
rÃ¼ nden
hal ber
ell a
Ġohne dies
ĠStr umpf
aum el
eite ten
Un s
ĠBar geton
mÃ¼t igkeit
Ġfro he
Ġtraur iger
deut sch
Ġheut ige
Ã¶rder ung
Ġlachen den
ĠFÃ¤ hn
ĠOl ymp
Ġveran twortlich
plat ten
urra y
ĠHart mann
ĠVis ion
imen ter
Ġsau ste
Ġschim pfte
ĠDiebst ahl
ĠAnast hase
Hou se
C he
P ort
l eit
l euchter
n Ã¤cht
w esten
Ġd ans
te le
Ġm in
Ġein gestellt
Ġauf gesp
Ġver eint
Ġun regel
Ġdes gleichen
ol gen
ĠZ Ã¼nd
ĠSt und
ĠAu st
zu letzt
ĠGe ber
sel iges
om te
Ã¤u bung
Ġsp annte
ĠSe Ã±
bend es
ĠAuf stand
ess or
Au fent
Ġro sa
ĠMa is
ĠMÃ¤n tel
ĠglÃ¼ck licherweise
sein s
for derte
Ar ch
ĠSchu hen
ĠHal bert
Gesch lecht
rad scheck
ĠGefangen er
ĠEben en
ĠSchÃ¼ sseln
Ġversp Ã¼rte
ĠTrÃ¼ b
Pol iz
Ã¼nde ten
ĠkÃ¼n ftig
Min ister
Ġmoder ne
Ġumschl ungen
Ġentsprechen d
ĠKandid at
ĠPhotograph ie
D eshalb
F er
M itten
T re
g au
k ing
k ok
o hnen
p aÃŁ
Ġa h
ĠS om
sch Ã¤t
sch me
Ġzu trau
Ġg seit
ĠB inde
ir ektor
et ische
be ge
Ġbe teuer
Ġst ammen
Ġeiner lei
Ġent fÃ¼hrt
ges ichts
Ġab halten
Ġja p
ĠLeben den
Ġe kel
ĠBo otes
ĠMar ten
geb iet
orn y
schw ung
ĠQu ai
Ġmag ere
Ġlieb liche
dar unter
ĠKan inchen
ĠVetter s
yp not
Ġfurchtbar es
Fl ucht
glÃ¤n zenden
Ġerleich tern
Mitt ag
ĠrÃ¼cksichts los
Ġnoth wendig
ĠSchorn stein
ĠVerab redung
A tem
a ine
d unkle
h arm
m ed
s bild
ie lle
Ã¤ fel
Ġein schlagen
ĠH m
ĠB ass
Ġl obte
ĠL inde
Ã¼r zte
am bo
Ġvor kommt
ĠJ ag
Ġhin geben
ĠfÃ¼r stlichen
Ġgro be
ob el
ĠAb ra
ĠAb schluÃŁ
ĠAl bert
ĠLand rat
ker l
ĠDo pp
ĠGen esung
Ġfest hielt
ss ige
ĠEl k
Ġse y
amil ton
ĠKam el
fin spektor
Ġwor de
ĠDienst ag
ĠSta ates
ĠEmpf inden
Ġzweiten s
ĠMusik anten
ĠAnst alten
Den ken
Ġschr ill
Ġents ann
ogra phen
ement s
auff Ã¤llig
ĠHeu len
hell o
ĠGou vern
Ġwest lichen
VerhÃ¤lt nisse
ĠEhem ann
ĠjÃ¤hr lich
ĠDonnerst ag
D ach
L ehn
L eutnant
P ersÃ¶n
S Ã¤
c ile
g ilt
t heit
w olf
el tern
at ische
ĠM es
ĠE ar
Ġsch oll
and re
Ġso g
ĠL egen
ĠL ichtes
Ġan ging
eit h
ĠSch auf
Ġbe end
ĠZ opf
Ġaus reichen
ger ung
die selbe
ĠUn willen
ĠzurÃ¼ck ziehen
Ġviel em
Ġeigen thÃ¼m
ĠKl in
Ġvers ah
Da von
ren zt
ĠgrÃ¼ ner
ĠgrÃ¼ nden
Ġverste h
hof meister
ĠBesch eidenheit
ĠHund es
ĠGet reide
hÃ¤u pt
indesten s
Ġend lose
ĠVerlo bten
iÃ¨ res
ĠKont or
telligen z
Ġbeur teilen
Ġhag ere
s au
z itterte
Ġs at
ĠM od
ter re
ĠK Ã¤mmer
Ġsch adet
Ġauf nahm
Ġver th
ĠR ind
eu sch
ĠSt im
Ġmein igen
br uchs
ges etzter
ĠEin k
Ã¤u el
Sch reck
geb org
ech nungen
ĠBl as
St and
wir ft
ĠGer Ã¤t
ub ur
ĠgnÃ¤d iges
bew egen
Ġur teilen
brÃ¼ che
Ob gleich
ĠGebir g
ĠtÃ¶d lich
ĠInstr umente
Ras um
ĠMÃ¶glich keiten
knÃ¼ pfen
S echs
V ort
r itter
r Ã¤uber
Ġs anken
ge lei
ĠB anden
al em
Ġauf hielt
Ġauf gelÃ¶st
Ġhat t
Ġes t
ĠN onne
ĠZ Ã¶
Ġo ffiz
Ġr asche
ĠVer mitt
Ġgew ohn
Ġgew Ã¶l
Ġdurch schnitt
ver gangen
Ġab gem
fe chten
wie se
geb l
ho ffte
ĠZu stÃ¤nde
ĠBes itzt
Ġho ckte
Ġro he
Ġro sigen
rat zen
Ġbem Ã¤chtigen
Ã¤ÃŁ lichkeit
Ġverg iftet
Ġfrem des
yr ill
Ġbeglei teten
Ġmei ste
ĠAt l
kn opf
ĠFahr zeuge
Ġneun zehn
ĠVoll mond
row na
ĠSkla vin
Ġschwe bten
Ġerle bte
Ġerlo sch
ĠVert eidiger
Dan iel
ĠAutor itÃ¤t
ĠBeruh igung
ĠHomunkul iden
K at
L ip
z igen
in ar
Ġer mut
Ġg w
ĠM yr
Ġin t
Ġver ges
rei z
Ġaus drÃ¼ckte
ĠGe br
br ich
Ġab gest
sa bend
schl imm
ĠSchl upf
ust ern
zie he
halt sam
Ġleben de
fÃ¼ m
Ar n
ĠSta ate
ĠAnst oÃŁ
Ġverfol gten
Schl ag
Ġme h
Ber ge
kan er
ĠAufent halts
ĠBlei ben
fle cken
Ġauftau chte
ĠMÃ¤nn chen
A ut
L ond
f ein
g ottes
i alen
k at
k rates
r und
s olle
Ġs inkt
Ġm urr
Ġn ette
ĠS ub
gen annt
Ã¶ ses
ĠH eut
ĠL ilien
tr as
ol in
ent f
ĠAn ne
ver sammlung
Ġent nahm
ĠEin zug
ĠVor rÃ¤te
Ġdr ingt
des selben
ĠGew irr
ust r
Ġeinz unehmen
Ges undheit
Ġgek n
alen der
ĠHÃ¼ hn
red igen
ĠBaron et
Ġ2 8
gefÃ¤hr lich
ĠVort eile
ĠTur n
Ã¤tt chen
ĠverhÃ¼ llte
ĠCre we
ĠDÃ¤m on
ĠStÃ¼r me
L at
f Ã¤l
f eln
h Ã¼r
k enne
n chen
n adel
s obald
w ay
Ġd ru
sch in
Ġf unkelte
ĠW Ã¶lsick
ĠE go
den selben
ĠK ot
Ġan geben
Ġun angenehmen
ĠSch el
ĠSch elm
be ben
ern es
le hnung
wei ten
Ġdurch gemacht
Ġp atri
Ġbes prochen
ĠSp rech
ĠStr icke
Ġber echnet
Ġerst aunte
ĠSte ward
ĠNacht ig
bl Ã¤ttern
ĠEnt behr
pe ter
Ġbel egt
Ġeinf iel
ĠKÃ¼ ster
Ġgek riegt
lein s
ma jor
ĠGei er
jen em
Al bat
Ġteil nehmen
aute u
ĠbestÃ¤t igen
Ġfle hen
part ei
Ġbefest igte
blÃ¶ cke
Ġhung rig
ĠTim ur
ĠMess ing
ĠErwÃ¤ hnung
ĠTum ult
ĠGÃ¶n ner
ĠIren e
H u
R auch
b or
d ing
h assar
s Ã¼chtigen
Ġb y
Ġer Ã¶ffnet
ĠM eg
Ġk ar
Ġk ochte
Ġsch ul
and et
Ġso fern
Ġnach denken
Ġmehr fach
Ã¤ch lichen
tel ang
sp alt
Ġber aten
ĠFr on
im pfen
Ġzw inker
sicht igkeit
ĠRu bel
fÃ¼r chtete
Ġbl inde
ĠBar ke
mehr ere
ib us
Auf regung
dies mal
ĠSonnen aufgang
vers uchen
Ġzerst reuten
.âĢ¹ Â«
Ġwirk licher
ĠHu sten
Ġtanz t
Kir ch
Ġverdamm ten
ĠSamm et
ĠVertrau ens
Ã¼chter t
Ġabger eist
Ange legenheit
ĠProp st
ĠNad ia
Ġkrat zte
ĠOld buck
G od
I V
W olken
f loÃŁ
Ġu ff
Ġn Ã¼tzt
ĠS ad
Ġein gefÃ¼hrt
Ġein gesperrt
at men
ĠF estes
be hÃ¶r
pf orte
pr inz
ĠVer gehen
ĠAr dan
Ġab legen
Ġab weisen
ĠUn g
sp en
Ġgegen einander
Ġspr Ã¤che
Ġerw eckte
Ġse e
Ġempf ohlen
Ġhe ftiges
ĠZwei kampf
ieb ter
Ġlos zu
Ġth ue
ĠHel dent
ĠÃ¶ stlichen
Ġdro hten
if ix
Ġverschw indet
Ġ2 6
ĠAtem zug
wissen heit
Ġgeschm ack
Ġerfuhr en
verb orgen
empf and
ograph ie
Ġschwe bt
ĠnÃ¤cht liche
Ġjugend liche
ĠPeit schen
ĠBie gung
franzÃ¶s ischen
ĠGetrÃ¤n k
ĠPlane ten
m ometer
o o
r este
w orfen
ge Ã¶ffneten
an as
Ġb al
Ġer ziehen
it alien
Ġge glÃ¼ckt
rei st
ĠEr le
Ġr asen
ell enden
ĠUn annehmlichkeiten
ĠBe finden
Ġger ad
Ġalle zeit
ĠPf ahl
ke te
ĠVater stadt
ĠSte ppe
Ġbl utr
So nder
fol gt
ĠMo nde
Ã¼ge ls
Ġeinst igen
ĠDar stellung
ĠEigen sinn
Ġfolgen der
Ġleid lich
ĠFe c
ĠHalb dunkel
lÃ¤ss igen
swer ten
iplo m
Ġliefer te
Amb ros
R ud
c re
p ein
z eln
en er
Ã¼ bel
ĠB amb
ĠW eine
et able
mm eln
ĠK enner
ĠT Ã¶rleÃŁ
Ġan tun
Ġdem Ã¼t
ĠSch emel
Ġaus nahm
Ġha llte
Ġvor teil
wei ge
her zen
br annt
ĠEin falt
ĠDas h
Ġgef altet
gesch leudert
ĠAus gaben
Ġerw ehren
Ã¤cht igt
Ġschw el
ĠKl ima
Ġvers inken
wÃ¼r fen
ĠGott heit
op ol
ĠGest ade
will kommen
ĠspÃ¤ter en
ĠÃĦ ste
Ġauszu drÃ¼cken
Gesch ichten
Ġzweiten mal
Ġfin stern
Ġ18 7
ĠLieb ste
bem erk
ĠMel usine
ĠPu ppe
ĠVoll bart
Ġverein igen
ĠInner en
ĠMahl zeiten
ĠArch imedes
ĠFal ken
ĠEil and
Ġverurs acht
Mart in
Ġunbeg reiflich
Ġwehm Ã¼tig
ĠTex ar
Ġwesent lich
ĠBrad ley
ĠAuseinanders etzung
Sehn sucht
O ben
P ark
b ette
h Ã¼tten
m ache
v es
Ġs ur
ĠS eien
ĠD ant
ir nen
Ġihr igen
is ierten
ĠZ erem
Ġaus gemacht
ĠEr spar
il itÃ¤r
Ġdurch w
ĠGr anzow
Ġrei zte
Ġins geheim
affen heit
Ġweg zu
ĠWind stoÃŁ
umen ten
ĠÃ¶ ppis
uck er
ĠMaÃŁ regeln
Ġbege hren
ĠBro d
ĠkÃ¶rper lichen
Ġhel fe
sag ung
I hm
M eilen
W unsch
g ungs
t iefen
Ġein treffen
ĠG reise
Ġauf stieg
ĠT alen
Ġver flucht
ĠSch mer
ĠP anzer
be quem
ne tes
ĠO el
Ġent zwei
rÃ¼ hren
Ġuns ag
Er stes
ĠHand werker
Ġsei ten
Ġgesch leppt
Ġstand e
Ġspr engen
so viel
ĠGr insen
Ġrei zen
Ġverb reiten
fahren den
mittel bar
ĠKur fÃ¼rst
Ġerb Ã¤rm
ĠSchlos ser
Le b
Ġunn Ã¶tig
Ã¼chtern heit
Vers uch
Ġunbest immten
Ġschmerz lichen
Ġsieb zig
ĠWen ige
ĠflÃ¼ster ten
Luc ien
ĠInn stetten
ĠKÃ¤t he
ĠRis ler
Ġgedruck t
issim us
c en
g art
m Ã¤chtiger
v i
w ollt
Ã ³
Ġw ochen
Ġa chte
Ġin telligen
ĠD Ã¼r
ĠF ugen
ĠK ob
ne bel
ĠJ Ã¼din
pr iester
che ll
Ġbes org
ed ric
ĠBe zeichnung
Er fahr
Ġger Ã¼ckt
Ġste hst
Ġgesch lungen
Ġverl etzen
Ja kob
Ġgl anz
Ver brechen
ĠCh Ã¢
ĠBar ons
ĠnÃ¤ch st
Ã¼b ten
Ġgrau es
Ġand Ã¤chtig
ĠQu art
Ġfreu ten
aunt on
ĠSchlaf rock
ĠGrÃ¤ ber
Se el
ĠBest ien
ĠRein heit
ĠJack son
ĠSchÃ¶pf er
Ġtreff lich
ĠAnnemar eili
Ġvorwurfs voll
H urra
L eicht
S el
j ub
m pfen
ĠS elten
ĠS Ã¤ule
Ġz it
or ia
ĠG rotte
ĠM organ
Ġan gew
ĠZ art
ut ta
ĠSt achel
Ġgew est
ĠO ster
sp erren
gesch ieden
ĠAb lauf
Da fÃ¼r
Ġfest zuhalten
Wir t
lassen d
Ġhoch mÃ¼tig
ĠLuft zug
ĠÃľber dies
hand on
ĠNeu igkeiten
Ġben eiden
ĠY acht
ĠMusik er
ĠVoll endung
ĠSchwer mut
Ġbar sch
ÃĦ r
Ġbenach richt
Ġseg ne
ĠvÃ¶ll ige
Ġbeabsicht igte
Ġnutz los
berÃ¼hm ten
dampf er
Ġkir ch
ĠPaw lowna
ĠLiss y
A pp
B ri
T ische
j ugend
j orie
w ellen
Ġd Ã©
Ã¼ tern
ĠH ecke
ĠE len
Ġver Ã¶
ĠR eben
Ġr agten
ot tet
ab ung
Ġgew id
ĠAn hÃ¶he
ver gnÃ¼gt
war fen
Ġges amte
kommen d
Ġlei hen
ĠSe geln
gesch ah
im o
ĠKopf nicken
gleich falls
Ġvier hundert
ĠDien ers
ĠMein ungen
ĠauÃŁer ordentliche
gn ade
Ġerwar t
ĠWer ken
fÃ¤ den
Ġunver gleich
ĠNot izen
ĠschÃ¼ttel n
ĠBed ienten
alter s
ĠEd gar
ĠThe e
lot ten
ĠPriester s
Schl uÃŁ
statt ung
theil te
Ġerle digen
Ġemp Ã¶rte
sÃ¤ ulen
beweg te
Ġverfl uchte
Ġerstaun lich
Ġsieg reich
ĠFremd ling
ĠausfÃ¼hr lich
ĠĠĠĠĠĠĠĠĠĠĠĠĠĠĠĠĠĠĠĠĠĠĠĠ ĠĠĠĠĠĠĠ
Ġdal ag
ĠVerh Ã¤ngnis
Ġbean spr
H arry
K leider
N ase
V al
b ack
l anden
n ei
el os
ĠH Ã¤us
Ġsch ieben
Ġwar t
Ġauf gesetzt
ĠSch ang
ĠP unkten
ĠN ix
ern ten
Ġr ennen
Ġr Ã¼cken
pr uch
gel be
bt issin
ĠHand lungs
ĠSp aten
Ġgef Ã¤ll
Ġschw atz
Ġhinter en
gleich sam
Ġne e
Ver g
ĠWeg s
Ġverd rossen
ĠMiÃŁ geschick
Ġeinfach es
dien z
ĠAt ter
ĠKat hol
ĠMor itz
Ġerhoben en
ĠFaust a
ĠStrom es
ĠGesetz es
Ġend gÃ¼ltig
ĠHam burger
Me eres
ĠerschÃ¼tter te
ĠWink eln
Gef Ã¤ngnis
krie g
ĠThom son
tÃ¤t ig
ĠstÃ¤rk sten
Ġgeseg net
ĠKant or
ĠTyr ann
C or
E del
G laubst
H Ã¶rt
M Ã¼n
S og
T at
b ub
d orn
e ht
f lossen
er ing
ei tern
Ġa frikan
ge jagt
un aus
Ġsch atten
ĠL Ã¼cke
ĠT oren
Ġun wissen
ĠR io
rei ÃŁt
rei fer
ro th
ĠJ och
Ġr Ã¤cht
Ġ... !Â«
ĠIn schrift
Ġlei sem
dem ar
ĠGl Ã¶ck
ĠHaus herrn
Ġbl asses
ĠKa ppe
ĠMa in
Ge wohn
ĠGen ick
Ġzie m
ande te
ĠPr unk
ĠMÃ¼ nd
hÃ¶ hle
Ġaufzu geben
ĠHÃ¼ geln
Ġfl ache
ĠOrd onnanz
ĠMu hme
ĠKne chten
Pro v
Ġgebrau chte
ĠHu hn
ĠStÃ¤ mmen
Ġschimmer nden
Ġunsicht bare
Ġnimm st
Heil igen
ĠKennt niÃŁ
ĠGesell schaften
SÃ¼ d
Ġbeteil igt
persÃ¶n lich
ĠÃ¤ch zte
find ig
ĠMÃ¼nch hausen
Albat ros
P en
S pe
j agte
s eiden
w ink
ge drÃ¤ngt
Ġm ark
st angen
ÃŁ iger
ĠM achen
ben ach
Ġnach geben
Ġr Ã¤umen
Ġp la
Ã¤d igung
Ġzw ingt
Ġfort wÃ¤hr
ĠNach kommen
ĠZimmer mann
fol gten
Ġgetr ock
stra fe
eig h
Ġeinst mals
Wer den
ĠMad ge
ĠDank es
sol ches
ĠPer cy
Ġbisher igen
bew ahren
ĠÃĸ ffentlichkeit
ĠAnder er
ĠdÃ¼ p
ĠKammer herr
ĠDor nen
fan terie
ĠFrankreich s
ĠBri se
ĠHÃ¤nd chen
geschnitten en
Ġstud ierte
ĠEntw eder
Ġjetz ige
okrat ischen
mo os
ĠbeschrÃ¤n kte
Ġzweifel haft
ĠBor is
stÃ¤d t
ĠstrÃ¤u bte
ĠProject il
k ter
ĠK assen
ĠK ristall
Ġmit teilte
Ġan geh
Ġun gerecht
ĠSt ark
Ġr ate
Ġt ugend
Ġp our
ad ur
ĠEin brecher
ĠEin siedler
sp uren
Ġgef logen
Ġbr itischen
gew ehr
ĠAus sagen
gef lÃ¼
Ġversch lafen
ĠUnter brechung
ĠGra bst
ĠMa ja
ĠHÃ¶ ll
nach her
reund et
Ġange geben
schw ang
ĠmÃ¶chte st
Ġspiel end
ĠFor derungen
ĠCar dew
ĠWissen s
Zwei tes
Ġgemein same
ĠDon au
Ġverf Ã¼gen
ĠVort heil
Ġ5 0
ĠvollstÃ¤nd ige
Ġfe chten
Ġhinreichen d
Ġgebl endet
Ġbejah te
T al
s ingen
Ã¼ nden
Ã¼ len
or fer
ĠT ell
Ġver deckt
Ġdem Ã¼tigen
Ġj o
Ġvor erst
ick er
ent sch
ent gegnete
ap h
ĠVor nehm
sie hst
ĠBl anche
Ver schw
ĠPro phet
Un mÃ¶glich
ĠwÃ¤r mer
Ġzer brechen
Ġfro mmer
mÃ¼ dung
Ġausge brochen
ĠCar oline
ĠÃ¤hn licher
Ent schluÃŁ
Ġkrie chen
Ġte uren
unser en
Ã¶ch el
ĠfÃ¼rchte ten
Ġschne llte
ĠWeis ung
ĠExp losion
ĠmÃ¤nn liche
ĠDiam ant
Schrei bt
vort reten
Ġherange kommen
Bew uÃŁtsein
Ġkru mm
ĠNÃ¤her es
golden en
ĠCourt ien
ĠApo stel
B ot
G al
g h
o den
z ent
ĠM ie
ĠH enne
ĠE st
ĠT eu
tr ocken
Ġbe glÃ¼ckt
Ġt Ã¤uschte
ĠGe orges
ien er
ĠAn lagen
sp er
ĠRei tern
Ġersch reckte
ĠBl Ã¤sse
Ġdrei en
ĠLei se
Ġlau schen
ĠUm stehenden
Ġbrau sen
ĠMa inz
ĠPro test
ĠTr ansport
ĠWe he
ĠDr ama
schau ten
Ġeinge weiht
gra de
Ġbevor stehenden
bew aff
Ġausgest oÃŁen
Ġdopp elten
ĠMÃ¼n ze
Ġkind lichen
Vers p
Ã¤hn lichen
ĠKurt is
ĠblÃ¼ hten
MÃ¼ he
Bur schen
Ern st
Lip ins
M iene
S ign
n est
r am
u cke
er hielt
Ġd ra
ĠS Ã¶hnen
Ġz Ã¶gern
Ġer eignete
ĠF rom
ĠK ad
ĠK os
de utete
ĠR ings
be geben
ier i
etz el
ent sprechen
her zlich
ver y
Ġbes ichtigen
ank a
la ke
ĠBe kenntnis
ange kommen
ĠZeit punkt
tlich es
ĠMan ier
ak o
ĠMe ÃŁ
ĠKr ach
Ġhalb em
ĠkÃ¼ ÃŁten
ĠGro b
Ġherum zu
Ġuner hÃ¶rt
Ġfro hen
dar aus
ĠStock holm
ĠrÃ¼hr end
jÃ¤hr lich
Ã¼nd igt
ĠGet Ã¼mmel
ĠJungen s
haar igen
Ġbill igen
Reg ierung
gebr annt
Ġpracht vollen
ĠVerst orbenen
Ġerfreu te
ĠgeflÃ¼ chtet
Ġkal tes
ĠAlm osen
ĠhÃ¤n genden
ĠAmal ie
ĠEinbild ungskraft
b acher
n am
ein tr
Ġn ation
Ġzu nehmen
ber eitung
ĠM urray
ĠH i
ĠH ed
ĠD ia
ĠB ichette
Ġauf bewahrt
ĠT Ã¼cher
ĠEr holung
Ġgew ickelt
leich ter
ĠGes inde
tel ett
wer b
ik ar
ord an
kel ten
St immen
bl asen
ĠÃ¼ ble
Ġfest gesetzt
iss ar
nehm ung
ĠBet onung
ure au
ĠBed r
ĠSchÃ¶n es
Ġew iger
Ġed eln
hÃ¼ ter
Zeit ung
Br and
Ġsorg los
Ġvert eidigte
Ġober halb
Le win
ĠPet rowitsch
ĠKal i
ĠArch itekt
ĠSpitz buben
FrÃ¼ hstÃ¼ck
Ġherz lichen
Jahr es
aler ie
ĠObr igkeit
Jose ph
K as
M u
M auer
f rÃ¤ulein
p in
st ufen
Ġn eid
Ġn ischt
ÃŁ licher
hr auch
in tet
au ge
Ã¶ der
Ġge zeichnet
tr et
ĠP utz
Ã¶r tlich
Ġwieder finden
wer te
ĠFr Ã¶mm
ĠSte m
ĠSchl usse
Ġbl itzen
Ã¤nder ungen
ĠlÃ¤ch elnden
da zwischen
ĠÃľber gang
ĠQu ell
ĠFor estier
ĠRicht igkeit
Mann e
aller lei
bem Ã¼
tre ppe
Ġentr issen
ĠMom ente
Ġbequem er
po ol
Ind em
krÃ¤ ften
ĠnatÃ¼r licher
ĠRegiment s
MÃ¶ glichkeit
Ġunersch Ã¶pf
ĠKrei de
Ġbetreffen den
vernÃ¼n ftig
ĠTap eten
ĠknÃ¼ pfte
ĠMarches a
ĠSympath ie
M ah
S am
d Ã¶p
h eilen
k le
p ost
t eile
en ten
Ġs ummte
Ġi ll
Ã¼ me
st Ã¶ÃŁe
Ã¤ mme
Ġf liegenden
der gleichen
Ġsch Ã¼tzte
Ġsch ieÃŁt
Ġwar mer
be finden
is a
ĠN ostromo
ĠZ ipfel
Ġaus gestellt
ĠSt Ã¼nd
Ġvor ige
ent wick
all gemeinen
Ġent steht
Ġsp ann
ĠHand voll
fe dern
Ġste chen
ĠRe x
als und
ĠFl uge
kam er
Ġhervor gerufen
Ġbel ehrte
kr anken
bo y
Ġzer brach
Ġverst immt
ĠNatur en
Sp itze
ĠVerw Ã¼n
yn i
ĠFort schritte
sehr t
ĠzurÃ¼ckzu halten
ĠPort ug
tra kt
Ġschimmer ten
ĠMehr zahl
ĠKra llen
ĠSchlÃ¤ fe
Ġmo dern
ĠGre en
Ġerhaben en
ĠAle ksey
ĠblÃ¼ hte
ĠÃ¼berraschen d
ĠHind u
ĠIll us
ĠJesu iten
ĠStur me
Prinz essin
ĠFelic itÃ©
Offen bar
ĠStech lin
ĠrÃ¼ttel te
B all
H au
S elt
c co
k alt
m Ã¼n
o bt
z ack
ter r
ig i
ĠSch ienen
hm ten
ĠEr zieher
lei sten
zu ckend
Ġum sch
Ġum schlossen
ste hst
ab teilung
ell te
Ġab wesend
Ġgeh eilt
gl Ã¤ser
blick e
ord nen
Ġneu esten
ĠBo oten
ĠAb w
Ġeigen sinnig
Ġbet rieben
ĠBer eich
Ġgeb Ã¼hr
ĠBes p
ĠRo berts
trau rig
ĠGro at
Ġpr iv
ĠnÃ¶t higen
ĠRicht ige
ĠThe odor
ĠJo v
ĠwÃ¼rd iger
klei dern
ĠRech nungen
ĠEle ganz
tief er
Ġunber Ã¼hrt
ĠGard inen
ĠStrÃ¶ men
ĠSprÃ¼n gen
Ġverbesser te
A dam
C ap
H afen
R a
d einen
d einer
p ark
Ġw essen
an f
st ochter
Ġh egen
Ã¤ en
Ġzu bringen
ĠP ru
is sel
ĠEr widerung
Ã¤t ig
achte s
Ġent zogen
ĠGes andten
ĠKo pen
ĠVor les
gesch lafen
Ġgleich em
bes uch
Ã¶rt chen
Ġstr eit
Ġeil t
ganz es
Ġfreu digen
ĠPeter s
ĠEx amen
our t
ĠSter be
Ġlust iger
ĠCl ara
Ġreg los
ĠLou ise
Ġverab schieden
Ġvo us
Ma jor
ĠblÃ¼hen de
Ġrie cht
ĠMun ition
ĠkÃ¶rper liche
rÃ¤t he
Ġabscheu lich
ĠSchlimm es
ĠSÃ© chard
ĠKie k
ĠWilde fÃ¼er
ĠZeich nung
ĠDat um
D el
E cke
J es
f unkel
g Ã¶t
ll osen
Ġder artig
Ġer legen
Ġge llen
ĠK redit
ĠR eine
Ġum gebracht
ste au
Ġhin ge
Ġp latt
kt oren
ĠGes etzen
Ã¤u den
ap arte
ĠSp alte
ĠDu k
Ġdr Ã¶hnte
ĠLand ung
Ġem sig
St att
ĠMa ber
ĠJa c
schw ach
Ã¼b ung
Ġkr Ã¤n
Ġgek Ã¼
ĠHel fer
Ġwunder schÃ¶n
Sp rechen
ĠGeist ern
ĠKomm ode
ĠHeil and
Ġinner er
ĠEllen s
Ġschrei end
Ġmensch lich
rÃ¤n kt
Ġeis igen
fert igung
Ġbitter en
ĠRech tes
iffen en
gru ppen
ĠMoos brugger
ĠGentlem en
Ir gend
ĠTrei b
ĠAfra ja
Ġumr ingt
sieb zig
ĠArtiller ie
ĠrÃ¼ hmen
B rot
F ahrt
M as
O hren
Z igar
f st
o ndern
p ter
p ackt
Ġein gesetzt
Ġg ange
ĠG our
Ġin stin
ĠD Ã¤nemark
ĠB ang
ĠB unde
Ġl eug
ĠL af
ĠL einsdorf
ĠSch iller
Ġj Ã¤hlings
rei bt
Ġaus druck
igen den
ĠVer handlungen
Er b
Sch we
ett o
unge h
Ġversch lieÃŁen
ĠWie b
Ġweil te
ler weile
Ġbest eigen
ĠPar ma
Ã¶pf ten
Ġgrau same
Ġgek Ã¤mpft
Ġverst ummt
kÃ¼ mmern
ĠRom ane
Ġverk aufte
Ġsonder barer
Ent schuldigen
ĠRa jah
ĠRed gauntlet
Gen ug
Ġverborgen en
ĠflÃ¼cht ige
Ġmor alischen
ĠfÃ¼n ftausend
ĠglÃ¼ hten
Ġhel den
Ġkreu zte
liefer ung
Ġgesellschaft lichen
ĠvergrÃ¶ ÃŁ
S cht
T iefe
f lie
t Ã¤n
w inde
z ession
ein gang
Ġn Ã¤rr
ber eitete
ĠF agerolles
ĠK eim
ĠL aufen
Ġan geblich
tr ifft
ĠP acht
ĠP od
ĠP orte
be ute
Ġnach sehen
ĠJ ol
Ġwei den
leich ten
Ġbes ah
ĠBe zug
ers piel
vor zu
pt ischen
Ġgem ietet
Ġbet rug
Ver legenheit
ĠGeb Ã¤udes
ette ten
ĠMal te
nach mittag
ĠLuft schiff
wieder um
fehl te
Ġaufge legt
ĠRom s
ĠlÃ¤nger en
ĠlÃ¤nger er
Bei spiel
ĠunglÃ¼ck licher
Ġklein laut
ĠEllen bogen
Ġscharf es
ĠTem po
Ob wohl
ĠerrÃ¶ tend
Char les
ĠRasum ichin
Gefangen en
ĠBehaus ung
B ord
J ames
O st
R ein
W Ã¼n
i mit
p eln
z art
ei ft
sch la
ĠF as
ĠK ity
ĠL ack
Ġver Ã¼bt
ĠP omp
ro llte
Ġaus de
Ġaus gesehen
Ġr asten
ĠGe vatter
il i
ĠAn ordnungen
ger ichts
onn t
Ã¼t chen
ĠHand eln
Ġger eist
ĠAus dehnung
Ã¤hl ung
Ġbef reunde
âĢ¹ .Â«
Ġversch ollen
Ġdrei st
ĠplÃ¶tzlich er
Ġbew ohnten
ĠCh ic
ĠGem Ã¼ter
Ġget auft
ĠFei gheit
Ġanzu legen
iegel t
ĠWand el
ĠWider schein
ĠKer ls
fÃ¼nf hundert
ĠDeutschland s
ĠNu ll
Ġmu ster
Em il
KÃ¶nig in
Ġmy st
ĠDur kley
ĠStat ue
Ġallm Ã¤lig
Ġzustimmen d
D ingen
K erl
ge zeichnet
Ġein tÃ¶n
ĠG a
ĠM Ã¼tzen
ir es
ĠL ane
Ġver richten
Ġun geb
ĠR Ã¶m
ĠV es
ĠV ettern
Ġaus gesucht
bar em
ade lle
Ġversch ont
ĠGew Ã¤nder
ungs born
wand eln
ĠPr in
asche ff
ens ation
Ġausge zogen
ĠMad d
ĠPer le
Ġselten e
Ġvoraus gesetzt
Ġeinzel ner
Ġras te
ĠÃ¤lter er
ĠJÃ¼ngl inge
mensch liche
De tektiv
lÃ¶ schen
Halt ung
ĠVermut ungen
ĠRats herr
ĠhÃ¶lz erne
HÃ¤u ser
Bra vo
ĠSul aco
ĠHing abe
apa zen
K lei
b rech
k st
r etten
t hat
t ausende
an isch
Ġn Ã¤rrisch
el tes
Ġg eister
ĠM ikosch
Ġf esseln
ĠW alt
Ġsch Ã¤tzte
ĠU t
iel icht
pr Ã¤gt
Ã¤nd igt
tes se
rÃ¤ gt
Ġgef alteten
ĠRe b
men s
ĠMar kte
ĠAb el
Ġrei st
erst aunt
ĠTh em
Ġdarauf hin
ĠGer old
Ġbew achen
Ġverg iÃŁ
Ġth eilte
fÃ¼ llten
Ġwunder barer
mÃ¼t iges
Ġauszu setzen
ĠErn ste
andt schaft
Ġta kt
ĠbegrÃ¼ ÃŁten
Ġpass ierte
ĠInst ru
Ġamerikan ische
ĠrÃ¶m ische
ĠAndeut ung
ĠRach au
Sonn tag
ĠBefÃ¼rcht ungen
blÃ¼t igkeit
Ġfass ungslos
ĠKopen hagen
B ill
R ot
W ell
g riffen
r ick
en ch
Ġw ichen
an it
Ġn Ã¼tz
Ã¤ p
ll es
ĠD reck
Ġge Ã¤rgert
ĠF ischen
Ġauf zur
Ġver fahren
Ġver ungl
ĠN ationen
ind liche
ĠÃ¼ber hÃ¤u
il en
Ġhin aust
ĠVer gebens
Ġges enktem
Ã¤ch liche
ĠUn ion
sp annen
ĠVor mittags
ĠGef Ã¤lligkeit
ĠGew ebe
bl en
Ġlau tet
iert ausend
kehr enden
ĠHÃ¶ fe
Ġverd ankte
ĠdÃ¼r ft
Ġehr wÃ¼rdigen
ĠGroÃŁ m
brau n
ĠAt las
ĠCl aus
ĠWÃ¼r fel
ktiv e
ĠDampf ers
Br Ã¼cke
eucht igkeit
ĠÃ¤ngst lichen
ĠCharakter s
Ġgeboren e
ĠJose f
Ġschwach es
ird ische
ĠVers Ã¶hnung
Ka ffee
Ġgewei ht
ĠFlÃ¼cht ling
mach ung
ĠChaus hilm
kut sk
ĠÃĦuÃŁer ung
ĠSchrau be
ĠKro kod
Ġehrerbiet ig
Dur oy
Schwier igkeiten
W ollt
b liches
b reite
g lieder
s w
s atze
Ã¼ brig
ĠS Ã¤n
Ġb ieder
Ġer Ã¶ffnete
ĠH alten
ĠT am
ĠT we
Ġver zeih
Ġan wenden
Ġun willkÃ¼r
tr ugen
ĠP ausen
ĠZ aren
Ġwo gte
ĠO d
ver ei
Ġwas ser
ger echnet
bar et
Ġbes uchten
Ġsp urlos
Ġger Ã¶tet
Ġger uht
itz ung
geb aut
Ġrecht fertigen
Ġschw oll
ĠMan Ã¶ver
Ver zeihung
Ġro sig
ĠGer Ã¤usche
ĠSchr anke
rot t
Ġbel eben
Ġbed auer
Ġbed aure
Ar mer
Ã¼cht iger
Ġc omme
ĠMad am
ĠMad emoiselle
erg riff
erg ius
Al baret
ĠKan one
bed Ã¼r
ĠRed aktion
Ġdi kt
ĠJeder mann
sprÃ¼ chen
MÃ¶ glich
Immer hin
ĠTer rain
ĠanstÃ¤nd iger
hÃ¼b sch
Ġwid mete
bÃ¼ch se
ĠSchlau heit
Bem erk
b inde
g ter
ĠM ass
ĠK ons
ĠK Ã¤ufer
Ġsch ad
Ġsch Ã¶pfte
ĠL Ã¤rmen
ĠT assen
Ġver achtete
hm ung
Ġbe denke
ĠSt aube
Ġwir kten
ĠJ uss
ab wÃ¤rts
Ġent schw
ĠUn gewiÃŁheit
ĠSp h
ĠSp ital
ĠKo k
Ġste ll
schl Ã¤
licher e
Ver an
Ġbest iegen
ĠMa hnung
id der
iv a
Ã¼ttel n
Be wegungen
iss et
Ġgek rÃ¼
Str om
frei heit
ĠBoot s
lot t
ĠGu ill
Ġents inne
Ġkind isch
ĠRÃ¼ be
ures on
ĠPfeil er
Ġmittler en
schne llen
ĠzÃ¼r nen
Ġzerschm ettert
Ġschwed ischen
ĠBetrÃ¼ ger
ĠFab ian
^ *
f liche
h ans
w och
Ġd on
st Ã¶
Ġb eit
Ġer riet
el ope
ĠB innen
ĠK ollege
ĠR Ã¼st
hl ten
Ġst Ã¤dt
ĠJ ar
Ġr ettete
ra teten
ĠO skar
Ġab zur
Ġger ieten
Ġste mmte
Ã¼hl ten
ĠStr auch
ĠStr eif
ĠPf and
Ġerst reckte
ĠAl c
ĠWie viel
In seln
ĠWasser flÃ¤che
Ġverg Ã¶nnt
Ġoffen es
Ġverh arrte
Be ob
stes ab
best immten
heil ige
zeug ungen
ĠKan on
ĠJÃ¼n ger
Ġbehaup teten
Ã¼ste ten
eiger ung
Dr ittes
ĠHoll and
ĠEls beth
mord ung
Ġstre bte
ĠNebenbu hler
Hoffen tlich
F isch
F ehl
l ass
Ġ organ
Ġ âĢĶ
er ven
Ġh as
ĠA stron
ĠD iplomat
Ġsch lei
Ġaus gelassen
le be
pf eifen
end inn
Ã¤n kung
ver sprochen
los em
Ġgesch ickte
itt ung
ĠAus lÃ¤nder
ĠFr acht
Ġe urem
ĠKopf kissen
Ã¤m ten
bel e
Ġwissen schaftlichen
rat ion
Ġind ische
geh or
nach zu
ĠGem Ã¤cher
Ġse elen
man cher
ĠBrust tasche
ĠDr um
schn itte
Ã¤rm t
ĠBesuch es
Ġbevor zu
Ġerhe llt
Ġvollkommen e
freund liche
ersten mal
van gel
sicher heit
ĠBetr ag
Ã¼rf nis
Ġdien ten
ĠTÃ¶chter chen
Ġgelo gen
ĠNov ellen
ĠMarkt platz
bs lav
ĠKanz ler
izz a
ĠSus anne
ĠGefÃ¤hrt in
ĠGil bert
ĠSeer Ã¤uber
ĠblÃ¤tter te
F rÃ¶
G eister
V iele
e hem
g locken
Ġs entiment
st arken
ar den
ÃŁ igtausend
Ġz app
Ġer teilen
sch leier
un zel
ĠH eidel
ck chen
Ġl ehrte
Ġsie gen
ĠF aul
ĠR inder
hl ung
Ġaus setzen
ĠSt aunton
Ã¼ck enden
Ġnoch mal
ĠVer sen
Ġgew ohnte
eil igten
br ige
ger ettet
gel chen
rÃ¼ ssig
rÃ¼ stung
onn y
Ã¤nd igkeit
ges pr
ĠGes trÃ¼pp
bei ÃŁen
Ġsp recht
arr enden
ĠHo ffentlich
ĠNach sicht
ĠBr itann
gar de
auch zen
ande ur
ĠBett y
Um stÃ¤nden
ix t
Ġ18 3
Ġleuchten d
ĠLÃ¼ beck
Ġpein liche
ĠKommand ant
ĠsÃ¼ÃŁ es
ĠSar ge
ĠDenk mal
ĠUrs achen
Stu hl
Ġhimml ische
Ġschwier igen
Frank reich
schwe bte
Ġgele ert
ĠÃĦgyp ten
ĠPetro leum
ĠWat kins
Ġsteuer te
ĠLeip zig
murm elte
ĠJess y
E h
T rÃ¼
l Ã¶s
t hal
z ers
Ġw elle
Ġer setzt
ĠM all
ĠB ol
ĠB Ã¤nder
Ġsch eute
ĠT rug
Ġver antworten
Ġun wÃ¼rdig
ĠÃ¼ber mann
Ġwo hn
ĠAn wendung
Ġbr Ã¤chte
ĠAus spruch
geb et
ĠAb u
Ġbef ragen
ĠGew immel
ĠBr ettern
Ver stand
Ver trau
Ġantwor teten
iv et
Ġunbe haglich
Ġern stes
ĠLe hne
Ġschm unzelte
ĠwÃ¼n schten
Ġtot al
ĠOn cle
itÃ¤t s
ĠBrÃ¼ stung
steigen den
Ġvertrau ten
zweif elte
Dar an
furcht bar
Ġwack erer
ĠMinister ium
Ġfried liche
Ġbeschw or
ĠAmt mann
entr um
frem d
auÃŁer ordentlich
ĠkÃ¶rper lich
ĠerhÃ¶ ht
jew skij
ĠAbente urer
Ġzar ter
Ġeinzur ichten
B eine
B rau
B Ã¼cher
C o
H ut
L eichen
j ahren
t Ã¼ck
Ġzu dem
Ġg reise
ĠG Ã¤ngen
de au
Ġauf heben
ĠT orn
Ġver rÃ¤
Ġun schein
ĠP ut
Ġst Ã¶rt
Ã¶n te
end el
Ġgesch aut
gef or
Ġhei d
id i
Ġfest zustellen
ĠMal en
ĠFenster s
herr lichen
ĠPol ar
Ã¤ngst igt
ĠBet Ã¤ubung
unkt ion
ĠglÃ¤n zen
ĠPart ner
Ġzerr te
ĠMagd alena
Ġangef Ã¼llt
Kind es
Ġscher zen
gewalt igen
kap elle
ĠLog ik
wal de
Ġbezw ang
ĠGreg ory
dÃ¼ ster
ĠFeh de
H art
M einer
b ucht
e chen
i ogn
un ab
Ġg reisen
ach ar
ĠM etz
Ġf aÃŁten
ur a
ind ungs
Ã¤r mlich
ver ine
ger Ã¼ckt
ĠC ond
Ġbes inn
Ġgro llte
Ġsp anische
Ġkonn t
Ġgesch wiegen
Ã¤l ber
ĠGr et
Ġschw ingen
Ġstr a
net te
Vor der
for dernd
Ġebenso viel
ĠGesellschaft s
Ġfurcht sam
Ġausge zeichnete
ĠTier garten
ac ch
ĠBew uÃŁt
Ġ18 2
ĠdÃ¼n ner
ĠLin col
Ġvert ief
Ġgeschm eichelt
Ġausgest reckten
ĠWil kens
Ind ianer
Bar bar
unbe weg
lÃ¤nd ische
ĠVertrau lichkeit
Ġitalien ische
Ġblenden d
schafter in
Mart ha
Clau de
widr ig
hleg mat
ĠPerg ament
okol ade
ĠStem pel
J an
O pfer
w unden
er ber
Ġh Ã¤u
Ġh Ã¤mmer
ĠM ent
ĠM ischung
ĠB Ã©
ĠW ilder
ĠW aisen
Ġsch ied
ĠP erth
be kam
be deckt
eu e
ol ast
he ber
ĠVer urteil
Ġp ost
Ġunter richten
Ġbes ehen
Ġwohl haben
eigen tÃ¼m
gl inge
iÃŁ te
ĠFre chheit
dr ale
ĠMar ter
ett ungs
licher en
Ġbesch mut
ĠGra zie
Ġschwer sten
ĠPro kop
ĠAm tes
for derung
ĠMund winkel
Ġaufge zogen
Ġerinner ten
kn ochen
Ġgeist liche
wenden d
ĠGatt ung
kur zen
Ġschmer zte
Ġgestr ichen
Ġstein erne
ĠEmil ie
ĠIs abel
Ġfeur ige
stÃ¤ mme
Ġgre llen
erfÃ¼ llt
ĠOce ans
Ġreligi Ã¶sen
Ġfau len
Merk wÃ¼rdig
Ġangestr engt
ĠGnÃ¤d ige
ĠFaring i
G len
d ire
f inger
f jord
k essel
l Ã¤cheln
t aten
u den
gen Ã¼
Ġf as
Ġk auf
ĠB oll
Ġl Ã¶sten
ĠK usine
ĠT av
und achtzig
se el
ĠâĢĵ ?
ĠZ will
rau ben
ill eux
ang s
Ġgew iesen
ĠAn ordnung
ul et
ell t
Ġsoll tet
ĠVor gÃ¤nger
Ġlassen d
gest Ã¼m
Ã© d
ĠPro fess
Ġfol gendes
ĠBar one
eid ias
Ġbesser er
ĠFuÃŁ spitzen
ĠGegen Ã¼ber
kr one
Mit ternacht
ĠflÃ¼ chtete
ok al
ĠPl Ã¤tzen
Ġbeh arrte
ĠGeschÃ¤ft smann
stÃ¼r zten
ign on
ĠSchuld igkeit
ĠJo el
mel den
Ġsamm elten
einst immung
ĠKla pp
Zw anzig
Ġverschl ang
ĠTur me
Ġwachsen den
ĠWicht iges
ĠBÃ¶r sen
ĠanstÃ¤nd igen
ĠStil pe
Ġexist iert
zieh ungs
ĠBom bay
Ã¤ss ern
ĠgerÃ¤um igen
Ġgesell te
ĠArkad jewitsch
ĠErkund igungen
K al
K am
M uÃŁ
M esser
b riefe
h iere
k d
o ver
p ten
v ette
z ifix
Ġs Ã¤chs
Ġer niedr
ĠM ig
ĠT orf
ĠT Ã¤ubchen
Ġan stellen
Ġan gesteckt
ĠSch eich
Ġmein ige
Ã¤r tig
ell meister
iger es
Ġerst aunten
ant i
gef Ã¤ll
Ġgem Ã¤chlich
Ġbef reite
Ġbet onte
Ġschw Ã¤rmer
ĠTÃ¼r k
Ġruh igem
ĠEl enden
ĠFÃ¼r sorge
ĠSa c
ĠKar aw
ĠSÃ¼ damer
Ġverste hn
Man tel
hÃ¶ fe
pl Ã¤tzen
yl on
Ġbek Ã¤mpfen
zut reffen
schrei bt
Ġfinster er
Ġveran lassen
Ġunn Ã¶t
ĠkÃ¼hl er
ĠMed a
ĠTrink geld
Erinner ungen
ĠWh isky
Ġsenk recht
Ġkonst at
ĠKardin al
ĠGymnas ium
ĠJov ita
ĠKaraw ane
M ylord
k einem
k auft
en or
Ġw und
sch Ã¤del
ber ufen
ĠG la
ĠD uch
ĠD eutlich
ĠE u
Ġver rathen
Ġan stoÃŁen
Ġun vor
ĠSch eidung
ĠP ers
Ġj Ã¼d
Ġt umm
Ġt Ã¤gliche
pf laster
ahr ung
est o
ot ischen
Ġander m
Ġja wohl
eigen e
ĠSe hnen
ĠStr eiche
gef ragt
zw eck
Ġwahr nahm
gest reckt
ĠGem Ã¤uer
ow ski
Ġhoch gewachsen
ĠHa cken
ĠkÃ¼ hner
ĠgrÃ¼ belte
fÃ¼ lle
ĠNeu jahr
ĠVerb and
Ġanzu hÃ¶ren
Sp itz
ĠOhr e
Ġhing est
ĠHin rich
ĠÃ¼berw achen
Ġarbei te
Ġhoff nungslos
Ġvorn Ã¼ber
MÃ¤dchen s
ĠCo y
ĠSol ange
Ġpl umpen
ĠBand iten
ĠGÃ¶t zen
Ma x
Ġerkund igt
Ġberau scht
verst orff
schÃ¼ ler
ĠgefÃ¤llig st
Clau d
Ġkeuchen d
ĠFinn land
ĠFrieder ike
Win kel
C on
K ra
L Ã¼
R ock
a ire
b raten
w elle
Ġb usch
ĠD ielen
Ġmit tag
ĠL antier
ĠV ulkan
Ġbe eilen
chen tlich
Ã¶r ungen
Ġtr abte
ĠC ic
hal f
ha fen
ĠEin willigung
ĠBe wer
hin ten
Ġgesch ehe
Ġgesch ildert
Ã¤l ten
gew andelt
gew Ã¶lbe
ĠSte egen
Ġgeb ildeten
ĠGra bes
gest immt
ĠKr ater
Ġverd Ã¤chtigen
ĠBeg leitern
ĠÃľber haupt
ene z
ĠLo vel
Ġehe dem
Ġel ast
Ġallgem eines
jen es
Ġrech tes
Kr ankheit
KÃ¶nig s
ĠTepp iche
Ġzweifel nd
Ġglat te
ĠÃ¼pp igen
Dir ektor
Ġunent behr
BÃ¼rger meister
ĠBab y
Ġunerme ÃŁlichen
Ġpreis gegeben
Ġbeauftr agt
Ġverges se
B Ã¼ch
G ang
k riechen
er wartete
Ġs ahe
ein halb
ar ische
sch Ã¤tzen
it s
it ha
ĠG ula
Ġf u
ĠH acke
Ġge priesen
Ġda maligen
Ġsch Ã¤me
re ÃŁten
Ġauf ging
Ġver geht
ĠSch affen
ĠSch aufen
eu ers
Ġaus ruhen
Ġum hin
Ġum wandte
ĠAn halt
ver steht
Ġdu mmer
Ġkl ettern
iger weise
Ġgef Ã¤l
Ġber ed
tlich keit
ĠAus stellung
ĠFr Ã¶
ĠGl Ã¤sern
ĠDa vis
Ġgem einer
ĠFl Ã¤schchen
Ġvers orgt
amm ung
ĠUnter offizier
Ġbl asen
zei gten
ĠRo h
ker zen
durch einander
Ġverw under
ĠPol e
schau end
ĠHei raten
ĠChrist abel
stu ben
Ġwillen los
Ã¶ger ung
Ger Ã¤usch
Ġzahl reich
ĠKut sche
Beg riff
ĠLÃ¼ ften
glÃ¤ub igen
Ġumf aÃŁt
Ġtoll er
ĠVertrau ten
Ġeind ringen
ĠSar ah
ĠNik ola
ĠGÃ¤rt chen
Ġverfl uchten
ĠEg on
Ġschim pfen
ĠAnschau ung
ĠTyr annen
ĠgÃ¶n nte
Pfarr er
famil ie
ĠgedÃ¤mpf ter
Ġbeteuer te
D ol
d ale
f lex
p lÃ¶tz
r Ã¼ckte
z ip
st at
Ġn ack
Ġer ober
un auf
ĠM Ã¼hlen
ĠF i
ĠF ord
Ġsch oben
Ġver fÃ¼hrer
Ġun zweifelhaft
ĠR anges
ro ht
ĠZ ermah
ĠSt umpf
ĠVer stehen
auf genommen
ĠAber glauben
ert a
Ġsp otten
ĠSo krates
qu ator
ĠMa ppe
ĠMe tern
ĠMal o
ub al
Ġgek lopft
ĠschÃ¼ttel t
ĠBesch luÃŁ
ĠglÃ¤n zender
Ġblo ndes
laufen den
Ġverlang ten
ĠStaats rat
Ãª ne
Gem ein
ĠRad scha
ĠElend s
Ġharm losen
Ġharm lose
ĠHarm onie
hÃ¤n glichkeit
Ġunend licher
ĠConn etable
Kath arina
ĠLincol n
+ +
B i
M ale
l Ã¤rm
Ġd auer
Ġw onach
ge zwungen
Ġund er
ar mer
Ġder b
Ġder jenigen
ĠH Ã¼r
Ġk ei
Ġk noch
ir re
ĠF Ã¤hrte
ĠF Ã¤sser
ĠK y
re et
Ġan kommt
Ġan gerichtet
ĠSch lÃ¼
ĠN ena
ut zig
ĠSt or
ne chte
Ġt hÃ¶r
Ġt oben
pr Ã¤siden
Ġwenn gleich
pp eln
die selben
Sch wert
ĠLand streicher
Ġgl or
gleich zeitig
Ver gangenheit
ahn ung
tem pel
ĠGer trud
An gel
Ġnieder gelegt
ĠCh anc
ĠMon k
ĠEl ise
Ġde ÃŁ
hof ft
our s
ĠBaum stamm
ĠSand s
Ġteil ten
Ste fan
co x
Ġbleich er
ĠHem den
ĠGÃ¶t tern
Ġpein lichen
ters leben
Geb ir
ĠverkÃ¼ nden
ĠAbst and
Ġbele bten
Ġnord ischen
ĠÃ¼pp ig
erbiet ung
ĠApothe ke
ĠJournal ist
ĠDok ument
ĠBata ill
liebens wÃ¼rdig
strau ÃŁ
C hin
z aun
Ġz erl
in ette
el ette
at o
ĠM aller
Ġk reuz
ĠD ahl
Ġsch recken
Ġver zogen
Ġan blickte
Ġan mutig
Ġun klar
am pft
ĠN athan
ĠâĢĵ Â«,
rei chten
ĠZ innen
Ġvor stellte
lo h
Ġt ad
eg net
mal er
Ġwo g
Ġp art
ĠEin Ã¶de
ĠGes inn
Ġre dest
sp annung
St amm
In s
Ġbesch ieden
ĠhÃ¶ flichen
gem eister
Ver langen
ĠHÃ¶ re
ĠTr itte
ffe kt
ĠLi ver
ib a
licht er
ĠWohn stube
ĠwÃ¼ ste
Ġausge geben
aff ten
if ic
Wei hn
Ġeinge drungen
esser t
ĠAut os
ĠViertel jahr
Ġrech ne
ĠHast ings
ĠFranc oeur
ĠDetektiv en
Ġentz Ã¼ckend
vat ore
ĠVaterland e
Ġleichte m
Th Ã¼r
ĠStre ben
Ġklapp te
ĠstrÃ¶m ten
cl iffe
ĠMus kel
ĠNikol aus
ĠWul f
ĠÃ¤uÃŁer ster
ĠKrank heiten
ĠManuskri pt
ĠSchÃ¤r fe
Ġhies igen
ĠBerat ung
E ugen
F rou
G rÃ¶
G ustav
K indern
g Ã¼nst
k rug
Ġw inter
ĠS ymbol
Ġh aus
Ġh ielte
Ã¼r mten
Ġan sichtig
ol ogen
Ġaus richten
ent schieden
sel zuckend
Ġunter lieÃŁ
ĠDer wisch
lÃ¼ ndern
ĠFr ag
ĠwÃ¼rde voll
ĠMenschen leben
Ġschw atzen
ĠBes tes
ĠBr anden
ĠKa at
ĠPro du
ĠÃľber fluÃŁ
inken den
ĠHe ctor
immen den
Ġverste ckten
leben den
Ġch ly
best immte
Ġinteress anten
ĠMart ine
Ġschmal er
ĠÃ¤ngst licher
Ġna iv
ĠĠĠĠĠĠĠĠĠĠĠĠĠĠĠĠ ĠĠĠĠĠĠĠĠĠĠĠĠĠĠĠĠ
ĠThat sache
verd y
ĠMas ken
Seit dem
ĠDom in
glÃ¤n zte
lÃ¶ cher
ĠDep ut
Ġfeind liche
ĠRÃ¤ dern
Ph antasie
Wider stand
ĠverhÃ¼ ten
unglÃ¼ck lich
ĠFuhr werk
Ġtrock nen
Person en
WÃ¼r de
Ġverwirr te
ĠVas quez
FrÃ¼hl ings
ĠBatter ie
ĠSchwal ben
Erei g
ĠgekÃ¼ mmert
F ro
K ut
L eder
T elegra
l inks
w ille
Ġ che
ch s
Ġu se
ge than
Ġh Ã¤ngte
Ġer laube
ĠM eier
ck el
ĠW em
ĠF enn
ĠT eilen
ĠT iser
Ġver kr
be deckten
Ġbe einfl
zu ver
ĠÃ¼ber schreiten
Ġher aust
ĠC edric
Ġkam st
me ten
ĠGel iebter
gef ordert
ĠGef Ã¤ÃŁ
bes tr
ĠSchl Ã¶sser
gar eff
ĠGlÃ¼ck seligkeit
Ġverb recher
Ġverd re
Ġange legen
man gel
aben teuer
ĠPh ill
ĠSÃ¼ ÃŁ
Ġrau schen
Aus sicht
wend ungen
Ġch Ã¶nne
ĠGrÃ¤ ben
ĠFlÃ¼ ssigkeit
ay a
verstÃ¤nd igen
bu be
Re den
ĠTra pper
ĠBÃ¼ch ner
Ġniedr iger
Ġwarm es
ĠInner sten
pol is
grÃ¶ ÃŁe
Ġkind lich
ĠKrÃ¼ ppel
Ġabscheu lichen
ĠScho ÃŁe
ĠNicol as
ĠPallas ianer
ĠunÃ¼ber wind
bedeuten d
ĠPorz ellan
responden z
ĠPud mar
E ls
H alten
W alter
h ohlen
u kt
er d
Ġh y
Ġb Ã¤rt
in seln
Ġer lau
Ġer langt
sch wieg
Ġzu e
Ġg Ã¼tigen
ĠH allen
ĠH Ã´tel
ĠW is
Ġge kehrt
ig gs
ĠK rau
ĠL innen
ĠL euchter
ĠSch or
be y
Ġbe achtet
Ġaus brechen
zu steigen
Ġum fang
ĠEs k
Ġger ichteten
zÃ¤hl te
ungs lose
fÃ¼hr e
Ġheraus kommen
Ġverb ot
kr ankheit
Ġpr ang
Ġpr Ã¤chtiger
ĠPap ag
Ġgrau te
ĠPh ileas
schau ung
ĠSpiel en
Ġmerk ten
Ġabzu holen
Ġallgem einer
ersch Ã¼tter
Ġgelegen e
ĠPlat o
Ġerm unter
Ġtrocken e
Ġliebens wÃ¼rdiger
ĠgrÃ¤ ÃŁlichen
Ġbegrei ft
Ġhau ste
Ġkrei schte
ĠstÃ¼rm ischen
GeschÃ¤ft s
Ġstat tlicher
âĢĶ âĢĶ
ĠkÃ¼nst lich
ĠbemÃ¤cht igt
einzel nen
Ġunerbitt lich
ĠKog nak
Ġzert reten
Ġwochen lang
f Ã¤h
k re
z elle
Ġd iplomat
Ġein gegangen
Ġder zeit
Ġf etten
Ġf leisch
Ġin nern
ĠH eck
ĠH asses
ur ter
ĠF abel
ĠF anat
re deten
ĠT auf
ĠT eles
Ġan erkennen
ĠR uss
ĠV altin
Ġha ette
ste g
Ġbei einander
Ġbei lÃ¤ufig
ent scheiden
eil ig
Ġunter gehen
ed el
Sch Ã¼
vor stellen
gesch lecht
so u
ĠFr y
ĠDa zwischen
ĠAb ges
Ġbef reundet
Ġschw ammen
ĠUm schau
ard s
mÃ¶ gliche
ĠgroÃŁ artigen
Ges ichter
Ġfro hl
Ġc an
ĠEx tr
Ã¤rm el
Ġabzu geben
Mar g
ĠPal astes
Ġkn iff
gelt ung
Ġreg ieren
ĠAlt amont
ĠheiÃŁ es
Ma jestÃ¤t
Ġhie her
unglÃ¼ck lichen
Ġfreud iger
ĠunverstÃ¤nd lich
[...]
